fc44
ff69
fd3d
001e
02dd
fd92
ffd3
fd25
ff98
008a
fc61
0308
ffe4
ffef
002c
fd14
feba
030e
00b6
fe83
fc19
0128
fc56
fe5f
fbc5
02c7
fd00
ffcf
fda9
ff46
fbb1
026d
01c0
00a8
fc91
018f
fc88
03d8
0374
01a8
fca1
fe86
0025
ff95
ff8b
fe7b
ff07
fcef
0159
0208
fcbe
008b
fe93
03c7
fc85
fe3c
00ff
049d
0201
03f5
fecc
fb40
0429
fded
fda3
fe74
fd2e
ff4f
ff2b
fd4c
0059
fece
001c
fbf6
01dd
fde6
0344
fde1
01e4
016f
ffdc
ff51
01e6
0138
0193
fcfe
0267
fd73
fcc9
fe68
03c6
fec5
fd67
01ed
fea7
016b
04ec
0379
ff79
0333
0537
0539
03c1
fca8
01cc
ff19
fb03
fe65
fd43
019d
fa56
03cd
0503
02fd
fbf4
0407
fc55
fe46
fa03
fbeb
fec5
fb84
fc78
029d
0430
fe1e
ff39
fde8
fb73
0451
0336
fcef
00a5
fc03
01ec
01c0
fd03
fe46
0019
fe6e
fc68
021a
052b
fc93
01aa
0247
fe35
02bc
0134
018b
fced
0185
fba0
0082
03e7
0377
fbc4
0099
00ee
fc30
0015
006b
fc10
ff19
00be
04b3
fbd0
0440
0408
03f2
00a1
fc45
ff5b
01d0
02c0
013d
fd43
03c1
0192
038a
00fb
0495
fe2f
01cc
fe72
ffa4
fc73
fb98
ff85
fc4d
0073
01dc
fd71
033c
fd43
029d
0288
05a3
ffd3
0116
fbda
02ce
fe86
fcd8
fc19
0511
0468
ffb9
0450
fc3a
0249
ff82
04e5
00c6
0368
0372
008b
feb6
0224
03eb
fb1c
02e2
fd1d
02f1
fbb1
0308
058a
fea3
fc41
feca
feb3
ff61
fe29
00b0
0439
ffae
01e5
fe55
fe73
045d
01d0
ff87
00a2
fffa
fca9
039f
0107
fc1e
ffc8
fe79
ffc1
fe1a
00f4
0426
ffe7
fd0d
02ac
fe4c
02b0
fdfa
fbf1
fe9f
fb09
03fa
ff13
0515
0193
0265
0401
0477
fe9d
0186
02b7
044f
033b
006c
fcca
fe74
00b4
ffbd
ffb4
fec8
fd73
00be
fc00
0086
0450
fc15
fd45
03cf
0048
fd77
001a
005a
febe
ffc3
03dc
002a
0094
0213
ffc8
ff61
fd9f
fc45
02b3
051f
fbce
fdc5
00f3
04bd
fd61
0368
fc16
0135
02a8
fd60
0237
0223
0297
00af
036b
fba9
fd8e
00ff
051f
fe5d
03f0
fd49
0043
fd42
fadb
045d
fd6a
fc41
0207
0248
fdac
fc89
0279
01d0
ff9f
0116
fda8
046c
02da
ff12
033d
03b1
021c
01a8
ff11
fc24
ff4c
023a
00ef
016a
fecb
0166
02c3
0026
fe90
0399
0364
0072
ff2b
fce1
fe94
fc4a
00e5
010f
019d
02ea
02ea
fc95
0036
0181
fd60
010e
fe1a
ffb6
02a0
03ec
ff68
fd20
fe3f
00f5
0080
0122
02ed
fec0
0368
fff3
fc11
0003
ff08
02f6
fc6d
fd0b
fc60
fd4c
03cb
fb9b
fcaf
045b
fc92
023d
037a
0118
fd2e
fd3f
048c
0484
fc31
0073
fe08
0426
fc74
0289
ff47
02a7
0290
fdd5
fe3a
fc78
014c
011e
0348
fb98
037f
ff34
fbae
ffef
feb2
fcdf
039b
02d2
016b
0299
0167
01b6
036c
0386
ff0d
fc3b
016c
fc02
fe76
0123
fc78
fcfc
0358
fda3
fee0
03f9
03da
00c6
fe78
fe46
fe74
fceb
01ea
0282
01ae
fe80
0413
035e
fd18
fee1
fe65
029d
ff6c
01eb
005e
fc9e
0183
0098
fd1c
fbd8
010d
01c1
02bd
fc4d
ff5e
fc60
033e
fd60
fe9e
ff8b
022d
fd8c
fe1a
fd99
0280
0239
0031
fe0a
fca7
00b8
fd85
02b9
0419
fe7c
fb9b
02ca
ffd3
02e0
0055
ffcd
fca9
fe28
fd12
03d7
0146
02c2
0153
ff12
01e6
fd45
0185
fb83
fdd4
029b
035d
049e
010a
fd24
fed5
fe5d
fda6
03c2
fc18
02a6
0200
fd03
0235
03e4
fdfc
fe21
0294
0021
028b
0293
01ce
fee9
036c
03b5
037a
fdca
0256
031b
01c3
fd35
fc63
fcec
fc5e
ff0a
0347
0035
fbc3
0349
015d
0253
0271
ffe0
00bd
0382
fc62
030b
fbbf
033f
fdd9
023c
0177
ffbe
fff0
0420
01cf
ffbf
ff27
fff3
ff11
036d
0099
02c5
fbe6
0022
fede
0443
0345
0279
000b
0188
03af
00cd
01ae
0200
019e
fd4c
fc26
ffab
feb5
0051
fce0
fe4a
fd16
0417
00f9
ff37
02ca
0351
fd1e
03f0
ff90
fc16
0447
00ae
020f
046e
fe3f
fce1
fcb9
0390
00c5
fd96
00de
fd59
0485
fd23
ffb5
024c
001a
ff70
ffa2
00d3
012a
03d9
fd35
0125
0448
034a
01cb
fe85
02a3
feec
0279
031c
fed2
fb8c
0029
0145
fb85
0296
00da
fbe2
046b
0273
fe7c
0004
03b6
0465
fec0
fc2e
fdfa
fe77
0232
050e
ff55
028d
044e
fb6c
04d2
fc50
ffc1
fee9
fdee
0457
0076
fe45
01fb
02b4
0067
fe7f
fd9c
ff11
ffa7
01e3
0342
fcf8
011e
02dc
fd7b
0333
fd78
02bb
04de
02be
fe98
0307
002b
ff0c
ffb7
fe21
025b
ff6a
048f
fc18
fcce
ffd2
02ed
fe95
0190
0134
02a5
ffe1
fd20
004a
0315
fce7
029f
0340
fc46
0234
0046
0222
ff3e
04c1
fbdb
0375
020e
fc15
0102
fc4a
00a4
fbd3
ff6c
fc0b
029b
0309
fbd6
fd69
ff85
fb63
047a
040a
fd65
01c7
feff
fd20
ffd0
ffbb
fcc7
01c0
fb82
fc83
009a
0265
fec3
fc58
03fe
fb64
fc21
fffc
03d5
ff55
fe23
00aa
02f2
02a9
01d9
00cb
02b8
030c
00e2
ffaa
fedd
02ea
0200
fc82
02c9
01ef
fc5d
030b
fc9b
ff9f
fdde
0128
ff56
04a6
034f
01c5
00af
041b
fce5
ff6b
0350
ff42
fcfa
fbf9
fe13
fc68
fff1
02f5
040d
fd55
fd25
fc09
fd88
fd59
fd55
fe0b
0314
fc64
0247
fd13
044a
0296
034d
01f2
fc3e
0125
00f2
030c
0036
00b9
021f
01d9
feb4
03d8
ff4b
fc48
fe2b
fb79
fdd9
fd7d
fd73
02bd
0237
0114
03a0
feab
0092
024a
fda6
fc40
02a4
fc42
fc4e
fcd6
024f
04b0
0201
fe49
fe86
fdf1
fee5
fc94
0348
fb55
0131
0372
fe82
0079
02c3
fdbd
0065
ff40
0127
fdfa
ffd5
0150
fd73
0044
02d2
fd76
03ad
fcf7
fd8a
fc28
0148
0293
fc46
02aa
ffc5
fcb5
ffb3
ffd1
045d
033d
0382
fc2c
004d
ff43
fd6f
00c0
fc82
fae3
01bc
047e
02a2
0029
f9ce
fec4
008b
0220
006b
031f
fff7
fd6c
fc97
0265
fc46
0182
fe96
0325
01d6
0069
fc8a
fb1d
fcdd
0130
0236
ffc1
025f
fb97
fb6b
0388
0367
01e8
fcbb
ffd4
fc97
ff0d
0089
039d
fefe
0209
0227
fd41
fd2e
fcbb
01ef
0219
016c
01a9
01e5
014e
0010
0233
016e
fd67
ffca
feac
01ca
fcb3
029e
0079
0310
fe94
ff4b
03ee
03df
fdaa
0065
fd30
0372
0192
00f5
007d
ffbb
02a7
0282
03d7
fe0b
0201
001e
046f
017b
fd4b
0150
ff17
fbaa
fc0f
ff06
02b4
fed4
fc4c
0258
fbaa
01cf
04a5
fd77
0039
fe6e
0276
02ff
02ff
fd96
029d
02e9
ffdd
fd4f
00d7
fc88
fcc3
035d
00ca
fd0e
fe82
02d4
fba5
01a7
0297
0122
fc9d
027f
fe94
ff92
fc81
0197
ffb9
fbe1
02ae
00aa
01e8
