fed0
0094
fe91
033b
024c
0159
0368
011d
0194
010a
006a
0071
fea5
0180
025d
01fb
ffb7
00a3
0052
011f
fef5
00e9
02ab
0089
0155
016e
fe59
ff8b
ff2b
00db
fefe
01f5
feb9
0022
fda6
ff33
fe66
fe3f
0191
00fb
0013
febb
fdaf
fe52
fe63
0160
ff71
ff6f
fffb
010a
fd5e
0142
fe0f
fe0e
fe9c
02ee
0150
ff52
feee
ff0a
fd4e
fe89
fd25
0145
fe06
00bd
0185
fded
fe1a
fe10
ff8a
ffa3
000e
02c8
03e6
0134
ffbf
014a
0137
fd07
006b
fd33
fc72
fd6a
febc
0139
00ec
ff1e
fe53
ffe6
ff5b
ff77
fe18
020b
fe04
016d
01ec
0249
feb4
ff0b
feb8
fe3f
fe83
0146
022c
ff27
ffa0
0021
00fb
0144
feb4
00b9
ff69
0374
0245
0192
0038
ff6f
ff3c
fed8
ffa9
0196
0147
0084
ff15
fef9
feca
0058
0194
ff3a
0162
0260
00a0
012d
0129
ff66
fee5
00a3
fe85
ffd4
0203
016a
ff33
00f5
fe80
ff0c
fe7d
fe86
fe22
fec5
fcd7
fdeb
fde3
fdf6
0151
0244
0265
fdd3
ff11
0028
ff55
00a1
ff29
ffb7
011d
fea3
fd64
00ad
01e9
fe34
0088
ff95
007c
fea0
0075
022f
fe0f
01a0
fdab
0050
00b8
00e6
015d
0122
fd4a
0125
0321
ff7e
0339
02fc
018b
fea6
0124
fdce
fdcf
fc88
ff0d
fd9c
0026
0172
019e
ff7b
fcfb
ff93
fe4a
0247
0088
0034
003f
ff8c
000d
021d
01c6
ff7b
ffb7
022e
014e
0068
01d8
ff66
fe35
fdc1
0229
ff7d
01d2
ff82
012b
0277
0247
fea3
00fc
00be
ffbe
fe62
fed4
ff87
fdbb
fe49
fe2f
00b7
ffb5
01d4
004d
0216
fe74
00e7
00d4
fe28
0102
feec
000e
ff1b
006f
fe54
01d6
fe36
0009
0100
fe55
0150
01bc
00f8
fd8e
fcb1
fd30
fe5e
fd13
fe3c
fe36
01a5
038a
0007
0139
fdeb
ff7c
001b
01fb
ff01
025f
00ea
0004
fe3d
020e
ff0a
fdd0
0071
017a
fdf4
ffaa
01ea
00b5
0260
feaf
0138
ffe9
01c5
ff3b
0296
023a
0050
0340
ff78
02d3
0143
0189
0006
fe9f
feb7
0101
0139
fe98
0071
ffe9
ffb7
01b9
0011
ff2c
ff94
fe81
0135
0071
00b1
018f
02fd
033a
0133
ff35
fe14
ffa0
020f
0206
0126
0040
0035
ff61
fd58
fe9f
ffe2
0041
fee6
ffd3
fc01
0073
fea9
01e5
ff5e
ff4c
fe43
fd86
fe04
ff2b
fcb9
ff2b
0190
fe9d
0297
0445
0249
0139
0180
00df
fdc2
fe4b
00cb
00e9
00ed
fe6e
0051
0151
01f2
ffea
fe80
00dd
001a
ffc3
020b
fec9
febf
018d
fe45
fe80
fe89
0069
fea3
0041
febf
fd5d
ff7d
0108
feba
01d0
0180
0294
010d
fff2
0072
ffc0
0127
0081
fd0d
fe9f
fe81
00da
fdeb
ff67
fd3c
004c
0044
ff8f
ff87
0006
00c1
ff90
019f
019f
01bb
024e
0223
fed9
fe27
0097
ff11
00ed
ff21
feeb
ffa6
fdb0
0019
fe73
ff73
007d
ffa9
0259
0372
0100
fe62
005a
0114
017e
fd2b
fdbd
fe97
016c
0073
fee9
fcff
01ca
0000
fde8
0099
01dc
011c
fe8d
01f0
fde1
ffd0
00ce
fed3
0038
015e
fed3
013a
0191
feb3
ffec
fdd3
00fe
fcb0
fcdb
0094
0257
ff3f
00b1
fe0a
fea6
0208
01a8
01c0
ff85
fd52
fcd6
00b0
fe86
ff9d
0228
ff34
00da
fee6
ffcf
ff15
fe93
014e
ff7f
00a2
ffd5
ff14
fe71
ff74
fdcd
0179
0095
013c
013b
001c
0115
fede
008b
00b2
0035
0247
0102
0101
0302
febe
ff1b
ff7f
0161
fdb0
ff8b
0098
fe6d
0019
fe83
fda0
0172
fe2f
ff6a
00be
ffc5
fe91
fed8
0273
00c4
ff23
00eb
ffd4
001b
fd36
fcd9
015d
fe55
009b
00ec
012b
012a
025d
ff53
00de
feda
01af
01ea
fd97
fcd7
0076
01ca
fe96
ff4d
028c
0104
ff3d
ff93
ff9b
0331
02ff
0110
0199
ff13
0135
ff2b
fff8
0139
025b
01c3
fe87
0120
01e9
014e
fdd1
ffbd
ffe0
00fe
ff37
00e4
004f
fee8
fddc
01fb
ff8b
0152
02d7
0018
ff02
ff86
fe29
ffa2
ff01
febe
0158
01e3
0231
00f7
fc2d
fcb4
ff3d
ff16
fe59
0073
fca1
014a
02ac
009a
0147
fea3
014c
01f8
ff06
fe61
0041
ff37
016c
fe9c
fded
ff06
fbc4
fcc6
fcf4
ff06
fed9
00e4
00f7
fe27
0099
0181
00c6
003c
ff82
fe00
ffb8
ff8a
024a
fe28
fd9d
fe0a
00ff
fecc
fde8
0207
fff1
007a
0013
025e
009b
fedd
ffca
014c
fd47
00bb
fe09
ff13
fe3f
0146
0123
0207
009a
ffd2
025c
feaa
ff78
fe72
fea3
fdd9
fe5e
010a
00dc
fd73
ff09
fe09
fe2c
ffff
0128
ffbd
ffee
0086
0321
fe2a
0125
ff01
fe21
002b
feab
ffed
fe7f
fea4
fd7f
0023
fe45
fe94
015a
02a7
028a
0432
0502
0400
fea2
0290
004c
fe9b
fe1b
ff67
0141
fe72
ff79
ff99
ffcf
004f
fde8
fdb2
ff41
0037
0176
022a
0000
035b
0063
fee0
fdd7
feb2
fe8f
ff59
ff10
ff55
fe15
fd17
ffe0
0002
0055
0216
fec1
fe16
00ff
021b
ff5b
015f
ff67
fee4
ff3b
0091
011b
0008
0078
0269
ff62
0183
feb6
014e
0000
ff6b
0079
00f6
fde2
0125
ff12
0197
015d
0140
01b8
fe8d
ffa3
006b
fe6f
0102
015b
00f3
fdc9
fdcc
fe80
ff9a
ff7f
fe40
014c
00fd
00c5
ffae
ffa2
02b3
ffe7
ff9c
00f1
014a
022e
feee
fe65
ff06
fd00
fd1f
fe69
0141
fe4a
0147
fefa
0072
0194
00e1
0058
0120
fe5b
fe3a
fff9
0188
0024
feea
fee8
ff1b
00c2
0289
02a6
ffd6
0021
0163
0202
fea4
005f
0113
021b
ffcd
020c
012e
020c
00cd
0100
fd61
fd1c
ff8f
fcfe
fea0
fd90
feb6
01ff
ff33
feda
fd48
fc57
fecb
00af
0008
01a9
00f8
fe21
ff71
ff61
000b
feba
ff76
02bc
01d0
ffbc
fe50
00e5
fef1
fd3e
fc7b
ffda
0180
fef5
0075
ff4f
fdef
000b
02c0
0272
03f7
ffdf
01d2
00ff
fde7
fea1
fd43
00a5
014a
00b7
0246
01af
feb8
ff8f
ff35
ff91
fdf4
ffea
01da
011f
fedb
0181
0014
ffb3
008d
0018
0082
0153
0240
01e9
ff35
00a6
00bb
ff28
005d
fe2a
ffd2
fe58
fce8
fc72
fe97
ff28
fd56
01eb
fe86
ff55
ff90
fdc2
ff39
fea9
00d1
01d6
0079
0046
0021
fecc
027a
ff3f
031c
ff48
ffe6
ffda
00a5
fe75
013a
0123
01c4
0066
0031
01f8
00db
ff98
00f5
fe57
fce2
fcf0
013e
02c1
0047
00af
0184
fe82
0263
ff49
fdfa
00de
00cb
fffa
00ce
ffc7
0074
005d
ff7d
011f
fdc0
fea4
fe72
ff98
0255
ff05
fd2b
01ce
0426
039b
0326
fea9
019d
003f
01f5
0223
feb5
01b9
00f7
fcdc
fceb
fefa
ff6b
ff2f
02a7
ffe6
00d5
ffb8
02e1
ff72
ff32
fde9
005e
ff5f
ff7e
ff84
020c
01c6
007b
fd20
ffeb
fecd
fed2
ffc4
0120
fe77
0015
feb2
fe62
fe7a
fe34
ff86
00a2
fe89
0214
02e9
01b3
0155
fdd7
fccd
fdfd
fe60
ff31
fecb
0117
0046
0006
ffd8
012b
fe18
fecc
fdcd
ffd3
0262
0056
fee9
ff36
01a2
fd97
017e
ffde
0092
009c
00fd
0034
fdce
00d6
feac
011b
ff90
0119
fff1
fe3a
00bf
fee8
0255
0033
0172
01f8
ffbc
ff66
fe5c
febc
ff4b
fdf9
ff12
ffb8
02fb
ff82
fe66
fe00
00f6
00d5
ffca
014a
fe14
0198
0232
ff2d
01c9
ff3c
fe55
fdf6
fd21
fe54
ffb0
01b0
0087
fd83
fff0
feb5
ff29
0217
feef
fed8
0142
0223
0111
027b
0116
00c8
fcff
fee9
0204
fe9e
ff9e
0130
018f
ff21
ff8e
026c
03c2
feab
fe35
fe62
fe1b
fffd
ffe0
0124
ffdd
fe0d
fde3
00d6
fe5e
00ae
01c1
fe76
005a
feba
fe40
fff7
02ca
021e
00c5
fec1
0314
0004
003f
ffaa
0295
02cf
00d9
00bd
00c0
00a1
ff79
01a6
ff4a
0108
ff2d
fe28
0098
fd51
fe59
013f
0137
0000
fe5f
fe85
0219
0097
feb8
ffc5
021f
016a
ff47
ffbd
001b
0028
024f
fdcb
fdf6
00dd
ff26
ffd5
006e
ff8b
007f
0182
0046
fef8
fe67
ff42
ff11
0041
feda
fdac
ff85
fe0a
0097
01f6
ff84
01f9
ffeb
fd8d
fe82
0097
ff29
0145
fdc4
ff76
0074
003d
feec
01b8
fc96
fd30
ff82
028f
0202
000c
014e
0041
0056
025b
01be
0061
fde5
0014
021e
01e2
fef1
fdb1
009d
013e
fea7
0015
0091
fe0b
0052
ffdc
0226
00d7
0249
0263
fde5
ff3d
fe78
ff95
003b
feb4
fd01
002e
00d8
ff8a
01d4
fe28
0087
0028
0265
fdeb
febb
00d0
fe58
00ad
0120
ff1e
fee0
009c
fddd
feb2
0090
0255
fefa
feea
0048
fe62
0271
012d
0393
ffd5
010b
fe62
fdde
ffe5
ff5e
fe08
fcfe
028f
0067
005f
fe7c
ff3e
013f
006c
feb5
feaa
0348
00e5
00f4
fde8
0084
022d
00a5
0123
0085
ff20
ff1b
00bb
0001
016c
ff44
00ca
019d
0213
01a0
ff26
fdfc
fd74
fc95
00ad
ffe6
feb3
004b
01f1
fdf6
ff17
0022
0119
ff33
0300
030d
00f3
01dd
01b9
ffd7
0317
fef6
01e7
0158
0038
fed0
010e
0129
fda8
fe4a
fdcd
0174
01b3
02db
ff52
fd34
ff53
00c9
fe90
fea0
fe30
ff9b
ffe6
0194
015c
0111
00ea
01c9
ff3d
ffd5
0258
fe65
0050
0053
01d7
011a
0133
ff6c
fee7
fd53
01df
ff97
00e8
00e6
febf
ffc2
02bc
020a
0194
00fa
00f7
0299
01a9
ff46
ff5d
ffe8
fe80
00e4
fe90
ff7b
fe7c
fdf0
ff48
00da
ff86
0230
fd51
fd6d
0059
00da
fea5
ff80
fd26
ffad
fe8f
fef0
ff0e
ff6e
0076
fec7
0172
00a8
018a
002a
fcd1
fd09
0270
0241
ffd7
00fe
00bc
00c1
01bd
0117
ffa1
00ea
fd40
ffde
fe96
01a4
fef5
0210
01cf
0000
ff1f
018b
ff53
ff05
00aa
ffbf
0238
0124
0067
fdb0
0332
0096
fe66
fdf6
fe7d
feb6
02cb
ffd1
0031
fea6
01d0
0091
01c7
0063
ffcd
ff15
0110
01b3
0009
0102
fe33
fe3a
00f2
0144
00f2
036a
0097
fd0d
fee9
006e
0228
fdec
00e1
0153
0259
01cb
ff4a
fcd6
00ec
0272
feea
0015
ffdb
fde0
fee9
fe71
0222
fe3e
fe41
fb7b
fe20
003e
fdbc
fda4
01a8
fdfd
ff0a
ffc4
02bf
01f9
fe6c
fddd
fd48
00c5
fff5
0342
00c3
fd8c
ff42
fff0
023f
fffe
009e
ff46
fe5d
01f7
0239
01c9
0066
ff55
fe19
00b2
ffa6
0127
feb7
008e
002c
fd7d
fcbb
fce0
ff9c
fecd
ff57
0263
00d8
ff0f
0112
0229
fe57
008d
01c0
029f
0246
020c
02a2
01dd
01aa
fdda
0145
fe55
fe91
ffe6
01e2
00c6
fdf5
0077
fe87
0172
0225
ff32
fe55
01ae
00a5
009e
003e
026c
0036
0055
0145
ff98
0139
fde3
00b4
0032
febc
00ef
fd39
fd3f
ff1c
004e
fe86
fe8d
fd8b
ff26
01d2
ff13
fffb
01cc
02ff
034e
02d5
0141
fd2a
fd7d
002b
fe6c
ff63
0093
ff37
001f
00aa
fe70
02a8
0168
fec5
0246
0149
046a
fe86
fe17
fe47
ffe8
007a
ff63
fd8d
01d3
fe0f
ffae
0084
ff9a
011a
028c
00ff
00bb
005f
0238
ffc8
00bd
fe3a
013c
ffb8
ff0e
0033
fe23
00ab
ff9c
0170
fede
ff82
fe4d
00b9
0121
0302
ff23
fedf
feb4
0055
011b
ffe8
01ce
fe44
0020
007a
ffbe
ffc0
0000
0165
0109
0082
005d
fe9a
ff2f
ffed
fe00
fefe
fda2
fe69
01db
0176
01c0
00f3
00a2
fded
01e1
00e1
0290
025d
ff2a
0114
ff94
00f3
fee4
fe08
fd9a
fff2
0033
ffcd
ffdf
fe82
0195
010d
004a
fe9b
0134
ff81
0100
fe83
01b6
0097
ffed
ff45
ff57
ffd6
000e
006b
01fa
00e0
006e
fe07
0089
ff37
fe85
fe5f
feda
0116
013c
0269
00f3
0165
021e
0309
0334
0176
fcb6
007d
010f
00f0
fee3
016b
ff07
01b9
01c7
ff66
feb8
00d2
fd98
fd95
00c9
0159
fd92
fecf
fe77
fcbf
0169
ffab
0046
fe4a
ffad
fdbe
00a0
ff20
ffd9
fe4b
009b
ff47
000a
ff4e
0234
0082
03a0
ff94
0159
fea0
0043
fe22
fe35
fe80
015f
ff2f
00be
01a5
fd6d
fe51
0235
00f4
023e
02ec
ffa4
0278
0195
ff60
fd69
02ae
ff78
ff8b
0073
fe85
fdf5
fe99
0146
feda
0183
0134
fe26
fc70
fd99
fef5
017f
ffe8
0090
ffb1
ff52
ff9d
01a8
002a
00a5
007d
ff5f
fe81
ffbb
fd02
ff31
0042
fe2b
fe08
fe36
0083
ff86
0184
03dc
fd8a
ffb2
fcc6
0036
fdf0
fe56
fde5
feec
fec6
fdd0
fe13
fee3
fe8f
00ef
016f
fe1f
024d
ff86
020c
ff6b
001e
ff62
fee8
002b
ff06
fef9
0154
ff99
000d
fe61
0144
ff24
fdca
ffde
fde9
0273
01d9
fdef
fe43
017c
00e6
02a2
0351
0078
fee1
fff0
ffd9
fe5a
ffd7
018f
014c
ff29
fe28
0002
fdad
ff4c
00d1
ffd6
ffd0
00d0
007b
ff91
012f
018b
fed5
00bf
0220
ff3e
0229
0013
ff7a
024a
0371
fed8
007c
0014
0308
0140
0055
ff45
01fb
ff23
00e6
ff69
01f2
02c6
031c
02b9
ffc9
ffa9
feab
015a
fd10
ff25
fe57
ff6c
03a4
0361
014c
0093
fe1b
ff01
fe17
fdea
fd6f
0056
fef1
0018
ff78
00ef
0177
003c
022f
ff5b
0187
0379
032e
0219
00bb
00b2
01c3
00dd
0169
fcde
00b9
0030
0049
014a
0224
0058
00be
00b6
febd
00d4
fd9e
0167
fefc
ffd8
ffbb
0086
01b7
00ad
ff77
fe0c
01aa
fe45
fee8
fe5c
fd20
ff4b
000a
fec8
fdbb
0032
0025
022b
ff44
0196
fe0a
feed
ff96
fec2
fe99
ffcb
002e
ff30
fde4
fd01
0164
001f
00ca
fe8a
ffa8
ff9b
fe67
014c
ffb0
01db
ffcd
00bc
fef5
0067
fed0
fdad
fff7
feaf
fd76
ffd4
ffa8
0293
fff4
03cb
00c5
018f
009d
01bc
fe67
ff22
fe5e
fe9b
fe37
fed7
ff38
020d
002a
00bb
fdd2
ff3b
ff80
00c1
ff18
fde2
fe94
ffca
fdc1
007c
0137
00dd
fe73
fdfd
000f
fdf6
fe85
01f3
fdde
fe50
01de
0162
0354
007d
00d6
fe14
fdc1
ff27
0130
ff99
0056
ff99
feb0
00ff
030d
002e
ff59
0109
0035
ffe0
ff03
01d1
0012
022b
014f
fdad
ff65
00a3
ffe0
0317
00dd
0051
0068
fe58
feff
fedf
ffca
fe41
fec8
0105
fe8c
fdef
ff64
fe1a
0089
0100
fea5
0125
fe4c
01ab
ff30
01e3
0040
00e6
ff6a
01f5
0199
febb
01a5
0028
fc7a
fe02
feaf
ff2d
fe35
fe5a
012f
fe12
ff18
fd4c
fe53
ff95
01f8
0041
0013
00aa
0257
0084
0289
ff23
ff02
0165
fd57
024b
0191
0061
fccd
fecd
fe9d
fee8
ff99
fe3e
ffbc
fe49
00a5
fee4
ffc0
ff84
0046
ff79
0226
fd92
ff89
fee0
ff85
013d
019f
00f3
0110
ff10
00e4
006f
ff78
fddb
fbd6
fd35
fec3
ff01
ff3d
0189
030d
fef0
fd41
fff0
0141
02e4
fe28
015e
00c5
0100
ff2b
ffef
ffc3
01d3
0127
01b3
02af
02ad
0283
ff48
fd8c
0015
ffbb
01f0
fdc5
fda2
002c
ff3f
016e
0236
0185
fe90
00df
0044
feef
00d0
00b0
01f4
012b
018e
fe0f
025f
0273
01b2
00f4
ffbd
021f
01c1
fea7
fd56
fdcb
0105
01f2
ff27
fe11
0104
ffd0
fe6d
fe95
0081
feb5
fdc4
ff13
0099
fec9
0210
0184
ff2c
0197
0254
0465
0025
fdd7
013e
feeb
0152
ff7a
fe5d
fdce
0055
fef4
fe12
ffdb
ff57
ff9d
0043
0050
027c
00f2
0284
01ce
fe7e
fcb4
fe37
00e1
0086
0017
ff47
ff56
fd97
fe90
0077
ff9a
0048
0190
0200
0169
ff31
ff2f
fe36
fe52
fee6
fe73
ff55
008f
011e
0186
fed3
005f
fdf8
fefe
0187
fe52
0055
fefa
ff4c
ff8c
fce4
fccb
0371
02b3
022d
feb1
01d3
fef7
fd43
000f
fedf
00c7
0166
0083
0069
0177
fe4e
00ed
023e
01b6
fe58
fdf3
00d5
ffef
fe7c
019b
fd93
ff03
ffaa
0085
02dd
003b
feeb
ff33
ff75
01de
fe82
0004
02b4
01ae
ffce
0290
febd
fdd4
00cd
fe09
00c1
ffd4
fd7a
fd35
ff95
ff99
ffc0
0030
01d3
fe57
0216
0400
fed4
00d4
fed7
0209
ff90
ff7c
fdd8
fd17
0078
fda7
018d
fdc2
ff4e
0205
ffd2
ff1c
01aa
02ce
012f
00d1
ff50
00f2
ffec
fdd1
000f
0022
0230
01ae
fe73
0074
ff1a
ffb2
016f
008c
0061
0165
02a3
00ad
02ec
0041
024d
fdda
0035
01bc
0002
ffbd
036d
ffd9
006e
ff11
00e6
fe70
fe2b
007b
fd16
007e
fd45
00c1
0270
01d3
00e8
fe46
fedc
febe
ff17
0008
fe3f
fe4f
fe38
015f
ff4f
ff43
00db
02db
ff27
00d8
fcc6
feb8
016f
ff8f
fefb
ffcb
ffd5
ffa7
01e2
0056
0089
ffcb
003c
fd51
fd13
ff78
ff3d
ff87
ffb1
ff61
00f0
ffbd
ff5b
feda
fee6
0080
febb
ffdc
0201
0234
01ae
0395
003f
fe12
0053
003f
00d7
fde7
0089
ff5e
fca9
fc70
fd6c
fe43
0313
0051
fee6
005f
0093
0300
00dc
0037
0147
0225
0147
000f
008f
fd95
01a2
fdf7
fecc
0086
0282
ff59
0034
feee
ff82
01f7
01e9
00c2
00cd
02c4
0282
fdf7
fd3d
002d
fde0
0059
fdce
feb3
fe1a
016f
0237
fe73
0059
feaa
ffa7
01b7
00ee
02cb
00a7
029c
0082
fd5b
fd9a
0130
0266
fe8f
0179
fe9c
fff7
024d
ffee
0276
00a6
fd10
fda6
00f8
010f
0083
0030
02c7
fff6
01ca
fe07
01a0
fed6
fd21
ff41
020c
034b
025b
02d2
ff70
fdce
ffa2
ff7c
ff6d
ffbe
0091
feb6
fe28
fecf
001e
008d
ff96
006e
00d2
0130
0157
fef8
015d
ff49
fe82
fdc1
0177
fc0f
fd7b
fc8d
feb9
01fd
ff1d
0090
feab
0175
ff6b
0066
ffef
ff74
006a
fe94
febf
0051
feb8
018f
fe7e
fe90
01cc
0125
00cd
0158
00cf
0004
ff49
fe27
fe2c
01f5
007e
fe41
0158
fe99
00e0
fec9
fe14
019c
ff73
02cd
00c7
033e
ffba
00b7
01eb
014a
fd34
00ec
fee4
0218
01f7
01a3
ff6d
0071
01b1
008a
004c
02a0
0267
02f8
0003
fd99
fd6b
0146
fe44
0192
ff33
ff59
ffa0
ffc4
023c
0036
001b
fce8
fffa
fca0
fd56
015a
0237
01f1
026b
00ee
0032
012a
fe18
0035
0000
fec6
00f3
ff17
ff79
0086
0089
ff4c
ffd5
ffad
0137
016c
fde4
ffec
fece
0197
01c9
ffb3
fef5
01d4
fe4d
fe94
ffc3
fd9e
01b8
008e
ffb3
0122
00c3
fe10
014d
fe9e
ffd6
005f
ff89
ff21
fe9c
01eb
0175
fcc6
ff89
018e
025e
ff84
fea4
feca
01b2
ff76
fe06
fe5e
fece
0257
ff04
0035
02a0
0123
01a7
01f5
fdaf
fef7
00dc
fef1
fe8d
fdd3
0098
0222
fde4
ff0b
011f
fdf1
016b
0137
0180
fe33
fd84
fde9
0132
fe78
ff41
0251
ff7b
00d7
ff99
00a5
00ce
ff41
fe55
018f
01b7
0209
01a9
fc65
0028
fcdb
ff5f
00ad
fcd5
ff11
002d
fea0
fdb9
00c1
0094
0157
00e0
ff6e
fff4
fec5
ff50
0124
022a
fe8f
0052
fe97
fd8e
ff46
0123
fe63
fff8
fd37
fe6f
0161
fee9
ff44
0019
01d8
ff3d
0008
fd29
ffb4
fe39
0012
ff42
ff63
fee1
fef4
fed6
014b
ff6c
fc87
ff92
fe39
ffcf
0186
0172
fdc1
0206
fed7
0093
00ba
fff4
015d
ffaa
01c7
0253
feed
0192
fe97
ff52
ffe5
fe51
0007
fef2
ff34
fd0d
fdbb
0004
fe51
ffee
01bd
0105
0267
028a
01fa
fdfa
02b4
fddc
ffce
01f8
0167
01e6
01d9
fede
fef6
ff14
fbe7
ff4f
ff2b
ffc8
01a5
0215
00f5
fe97
fd54
ffed
0045
01d8
ffdf
fe7d
0195
0204
0233
ff2a
ffa4
ff78
ff43
fde5
fe97
ff2b
0173
fed1
fd16
018d
0173
0079
0002
029e
02bf
0307
021c
fe7b
ffaa
ffca
ffea
fe95
fd72
fd26
feeb
fe6e
fd24
fccf
feb1
00b9
ffd9
fe4e
0094
fe38
0315
0269
01bc
fe2c
fe57
fe1f
fdf9
fe6b
ff63
ff4f
fee3
fdea
fe72
00dc
019d
fe5f
00a5
00da
fe5d
0025
ff80
014e
fed3
ff20
ffa1
fe6c
ffef
0133
0196
ff0e
ff39
ff24
ff6e
0006
0012
01f1
027e
013d
fee7
ff37
ff65
ffad
ffbc
fcb9
01b7
feaf
019a
022c
01bd
020b
000b
0187
00aa
ff87
ffcc
0294
0243
0110
fe24
ff55
02d5
febe
fde0
ff05
02e9
037d
0053
027f
0167
01d5
ffd9
fda1
fff0
005c
ff3b
0109
fef6
0084
0088
ffa5
fedf
ff26
0184
0265
0061
0140
fe52
023a
ffa2
0119
ff0e
0284
01e2
01a4
00e1
fe9d
010b
009d
fd49
010d
0185
fe04
01be
fdd5
014a
fde9
fe74
fe5d
fff5
fe92
fed3
fe26
00e3
002b
0178
fcf8
fceb
014d
0016
03b0
00ac
fdfc
fe13
002f
0002
01c5
fe94
ff94
fe5f
fe48
0082
fd20
fd47
00b0
fe4d
fe9a
fef4
ffaa
fe49
ff52
0150
0075
fd29
ff43
fe6f
0083
fe1e
01bc
ff8e
0080
00bb
003a
012b
fffd
fdd4
00c8
0309
0144
0042
01c0
0178
0191
0193
0279
001a
028f
ff6d
fe76
ffc3
fefe
fe9e
00c3
0008
ff44
013b
ff48
0055
ff54
0168
ff15
fea5
fef6
0136
ff92
00af
01f3
fef3
fee6
021a
ffc7
008d
ff2c
0034
fddf
fdd9
ffd8
02b1
fe71
003c
feaa
ff35
0128
ff89
005e
fd45
ff09
fee7
ff35
027f
0045
0303
0411
0039
ff10
fe33
ff6a
fed6
ffc7
027a
0030
fd8e
007b
0161
0082
0052
027f
0016
ff01
0188
0163
0358
fe9b
fed8
fd84
fe1f
0175
0067
01f7
0061
fee5
0103
0204
009c
00a5
ffc1
029b
ff30
0268
ff2d
ff61
ff85
fd17
fe39
01b9
0173
0071
ff30
017a
0018
fe87
0177
ff51
ffd2
0195
02f4
0338
0034
fee8
fe38
00be
ff3e
01fa
fdd6
fec9
fff4
febf
0230
0001
fe4f
ff64
0029
ff28
fe51
0019
0087
001f
fdd0
fdba
fe97
0242
0079
00a0
0193
0165
fd58
00cf
01af
0052
02cc
0220
ff7a
006d
0237
005a
0103
fe2c
ff45
009b
032e
ff44
00aa
ff80
fce1
009c
ff17
fe86
005d
0229
ff4d
fe7e
0129
0217
0116
fd1f
fec0
fd3f
fffd
fdc7
fdb1
0013
ff5b
fcb3
fe1f
0178
0191
fdb8
0087
016f
0296
0225
00ce
01e8
ff11
0138
fd86
fd73
fdb0
fdc9
fd28
010f
fc8e
004d
00cb
00c6
ff1e
ffed
00a0
002f
011e
fe6d
febe
ffcf
ff17
fcc8
fdf0
001c
0067
0147
feff
0037
00d8
fdde
fe08
006e
fdf7
ffde
00c2
0052
0158
0232
016a
02b3
0198
00b5
ff74
002c
0077
fe0f
01e7
030c
ff92
feaa
fd82
010c
fee7
fe72
02ce
ff99
007e
007f
01c3
009e
01be
0224
fe71
00b8
ffe8
00a8
0144
fdc3
0147
00de
0105
fe09
00ce
ff76
ffff
fd6e
fe99
fe00
0200
01ba
fefe
017a
00c6
02cd
ffe9
ff6a
ffa6
feeb
00e2
fecc
003a
ffde
0052
fe0d
01bf
ff0c
00df
ffda
fe99
febb
0193
00da
ffb9
003f
feac
fe21
fde7
0104
0115
0001
0164
ff78
008e
ff74
fda5
fe8d
0058
feef
00af
0178
ff74
fee8
00e3
0239
02b7
0043
0182
0242
fda6
ffb4
ffb3
0185
018c
00d6
fd9e
fdae
009d
01ae
fe0f
fcfd
0077
fed5
02c6
00b9
018a
fec6
fd43
00f7
01ef
02c4
01f6
01dc
fd77
006d
ff67
0290
0362
ffe0
fc99
fff7
fe15
0227
ffc7
0275
fec0
ff2e
fe12
fe59
ff7e
01f4
0101
0121
ff35
fd2c
ffe5
00c5
fde9
ff29
ff96
0093
ff6b
0155
01fc
fe89
fff1
ff76
028e
00ef
01e3
0102
ff3f
020d
fea7
015e
01eb
014c
fd6d
fefb
ffb3
feb8
ffff
0254
009b
01c1
004e
ffd9
0169
01f4
0153
00dc
fe1d
ff64
019b
01c8
02c7
fbac
ff7b
0081
01a9
ff88
feac
ffb9
ff92
fff9
015f
016e
003e
0217
feb0
fc9e
ffe3
0237
02d6
0162
0191
ff4c
fe7c
0003
feab
0081
01f9
ffef
fff4
fd8e
fefc
01a7
ff09
004e
ff36
002e
001a
0267
fe4f
fcda
00e7
016f
0029
feec
023b
fed9
01f5
fe3f
fdcb
002d
ff95
009a
fdd2
fedc
01f9
ff59
0034
fee0
01b3
02db
01e5
ff44
fe7d
ff92
0145
fdf8
fd98
fea1
0052
00ce
fe58
0192
fe70
ff9c
01f1
0172
0389
00b4
005f
00db
ff0e
ff1f
0229
fd5d
001a
fe88
017a
0094
011d
fdd8
fefa
00bb
0266
0147
00f6
02c5
0130
00ab
00c9
fee5
0102
ffda
fff4
fecd
00c7
0055
01fd
01ac
ff1c
00b3
fd7b
010f
ff90
0226
fefd
ffa8
fd8b
0011
fdac
ff87
01fa
ff0e
01c0
006d
01f1
0181
0094
fe7f
0390
00a4
ff35
ffa6
ffdb
fe1f
0209
fdb4
fd22
013b
ff92
00cb
fed9
0176
ff4f
ff51
001b
ffa3
fe0b
029f
01a3
fdeb
fd9a
ff52
feb9
02ae
02a8
00cd
00e9
fd6a
014d
0149
002f
fe3d
0229
0177
fe3e
00ec
002c
00d4
01b3
ff0f
ff78
0093
0234
ff77
fe14
ffc0
005f
ffd2
031e
0014
00e1
fd7d
ff6d
fff4
021a
ff12
0123
fcff
fe62
fe83
0177
0075
01d6
0006
01bf
ff3b
0064
01c2
012d
ff52
fdc4
003c
fdc6
00aa
017d
fed0
fde1
fe3a
0256
ffed
fd74
fd13
fe50
009d
00e4
fdb3
fd8f
0041
005e
fd75
fdaf
ff42
01ea
004b
fe82
0051
01e7
0134
025b
00eb
01f7
fe2f
fde0
fd57
00dc
0124
fe4f
0176
fece
0195
fe32
0053
ff5a
ffd3
006a
ffc2
fe99
ff64
00de
fcd8
008a
ff23
00e8
fe49
ff7e
004c
0023
fe08
00d7
0038
fe3a
ff51
ff46
fecd
01a9
fd63
fda1
008c
ff82
0113
0141
feab
012a
fef8
0216
fe19
0007
01c3
feef
0063
001b
ff94
0008
fe45
ff56
ffc3
0285
ffa2
ffff
0061
0063
fd94
01d0
0126
0199
00e2
fdb7
fef4
fd13
fc71
00d0
0240
01a3
009b
fe9d
0013
0165
ffb2
fe6d
fe1d
01e2
01da
013d
01c7
00a4
fdd4
fe6d
febf
fe7e
fea7
0290
0373
02e7
fe73
fed5
ffcf
031f
0177
001b
0133
01e1
fe71
fdee
fd6f
fe52
0112
ff5e
00f5
fe9b
00fc
00de
0104
ffa3
008d
0245
01ae
0178
0048
feff
fe6c
fe32
000e
ff86
fd0f
ff58
ff99
0156
00ea
ff19
01e2
00fd
0102
0204
0067
fe60
fec4
ffa2
ffef
fef5
ff67
fed3
fea8
ff77
0134
019a
ffc8
0042
ffd2
00b5
01f6
010a
03d1
00e0
01b7
01c4
fdfc
000e
fe6a
0051
ff8e
00b9
002c
fe59
fcfc
fed9
00c7
ff56
01f0
01b7
020a
ff7e
029d
026a
0210
01c8
0238
fe71
fe6f
018a
fdd6
fd94
fd19
0183
013c
ff8f
fe1c
ff61
ffc7
0081
ff23
00fe
fd81
ff0f
fe47
fe03
0247
0175
01d7
00fd
fecb
ffd6
fe53
fe26
01c5
feaa
ffee
fdb3
fe2d
fddf
001e
012b
01d8
015e
0113
feda
fdda
004d
ff57
0032
01ff
ff72
fd1f
fec2
ffb2
0070
fee5
fdf5
fcc6
fe77
fd5b
ff9f
ff5a
02b9
fe23
006d
0167
ffcb
0044
0126
0253
024a
fd9e
fdc9
fdb1
ff0b
fe56
ffd6
fe79
fe0e
ff33
ffd3
01dc
fdbe
000a
0162
fef6
ff94
fe05
0244
0093
01be
ff77
017e
01b2
0245
0161
0028
ffe1
02b5
00c1
fefa
0207
ffd5
ff11
fcfc
fead
0190
0157
00cd
fd7d
0034
ff17
02a5
01bd
0011
03c5
ffdd
01c8
fdcd
00aa
fe4a
ffd9
026c
ff92
fe6e
01f5
02fb
00ca
0200
fdb4
fe19
0144
0036
014a
013c
fef8
008a
02b8
02f4
00b6
ffaa
01c5
ff89
ffd8
009d
fd77
fe19
fe0f
fdde
fdaf
00c9
fdfc
0040
ff5a
0222
fe50
fd33
fe5e
0089
fdee
01c8
02cc
01cd
ffad
030b
ff90
0018
009e
fc7e
fdd4
00b7
fef7
fefa
01f2
0096
fe8d
0216
fffc
001d
fe4d
0325
017e
ff06
fdb5
fdae
0048
fe95
feed
fcb3
013c
fe69
0213
0154
fdc6
023a
020b
02bf
0286
fe21
ffb9
0200
00a8
002b
fcfa
ffd7
00f3
0176
fe2d
ff9d
01a1
ff18
0093
fee3
fcc5
fd73
00c3
ff74
0250
0054
00dd
00c7
00d0
00ce
008d
01ac
ff5a
ff85
0265
fe2c
0105
00f0
fe2f
fe71
fec5
fe52
01b0
fef5
00b2
fdbd
01e8
0077
0034
fdd5
ffa6
ffa6
ff3e
00ef
ffd9
0320
ff8e
016a
012a
0088
fefb
0143
00f7
fd6e
006e
fe03
fe0e
fdd4
fd5a
0089
01e3
fd6f
ff54
0022
ff01
0022
0275
042c
0056
020c
0239
0177
0084
003f
ffec
ff76
fe07
fed7
005f
0163
fe41
ffb4
01d9
0028
007c
fec1
03ae
00cc
024c
027a
fde7
008a
ffcc
ffa6
fefe
fd3c
0176
0025
fe86
ff20
fe9e
019f
fda1
ff69
0096
0317
0146
ff5d
00e6
feba
ffa9
015c
fea3
fd83
fecc
fd89
00d9
0107
02f4
fee8
ff81
0107
ff39
0118
0027
000d
fde3
00a9
ffe6
020b
feac
ff06
ff0d
01b6
fe2f
0179
fe9b
006e
0190
fc82
fde9
fd3f
fd25
00e7
fd9e
000a
fe32
fdc2
ff19
fe8e
fe68
ffb6
fdb7
0090
0048
007f
ff59
ff70
ff14
ff92
fe84
006f
0186
fdbd
ff28
0009
0249
ffc8
fd82
feb3
feb3
ff8c
01f6
005c
ff68
012c
ff43
0161
022f
ff53
001d
fed8
007a
fe72
013d
027d
ff4b
00be
fe77
031c
ffcc
0120
fd9e
feb8
0185
00fd
ffd2
0140
fe60
ff30
ff28
00d1
fe57
ff2b
fde0
fdeb
ffdb
fdd2
0063
0137
ffa0
fce4
fcd8
fed9
fd76
00ec
0087
ff8e
029f
00f4
014f
00fe
fcb7
fd7d
fe0d
fe45
00df
0075
ff94
ff21
ffb6
01db
fee2
fe50
0108
0201
ffad
ff6b
fff7
008d
0055
fd68
ff41
00c5
ff9c
01b9
008f
011f
0231
02a8
ff6a
02f0
0142
fdc9
fd19
fed6
0258
0293
fee3
010a
ff71
ff34
00e8
0231
0264
fe83
0183
00c3
0076
0227
fdde
0342
ff38
00a3
000a
0031
feb7
011b
0046
0270
0026
0331
02f8
0181
027e
feba
ff8e
03c4
0125
01c9
0046
014c
ff75
0290
00b8
002a
fec0
fe11
ff99
002c
0092
0038
ff09
015c
ff2c
026b
ff2f
00ec
0100
ff54
ff94
ff84
ff41
02cb
0023
035f
0157
ffc1
fe87
ff1b
fd5c
ff9d
fe7c
fe92
ff3f
0021
fdf3
fd84
ff85
0001
008a
0200
fed1
005f
fe2e
fd81
0128
fd49
ffee
00c7
fff5
0078
fec2
fcc0
ff12
ff3a
ffa2
fcfe
0188
022c
ff58
02cc
0043
ff71
fe3b
fcff
ff5a
fde5
ff39
ffb1
ff16
ff05
fefe
fe01
ff94
ffae
ffb4
0040
01d0
0004
0219
0097
ff2a
00ec
01b6
003a
ffe5
fe58
010a
0176
0350
ff9f
01ea
feeb
00b3
00b7
017a
01b7
ff36
fd99
0110
0195
01b4
ff33
ff43
ff30
0198
ff47
00a4
0294
ffc1
0308
02d2
00e4
0137
0130
0147
ffd8
010b
ffb0
ff35
ffd6
ff10
fe6b
ff27
ff1e
006b
0102
0010
022d
0169
ff26
0224
ff4f
fee4
0076
ff29
018d
00ef
ffa8
02e9
fea1
ffc6
033e
01d5
017e
0089
fe78
0050
0009
fffd
013e
039c
0036
ff3e
0164
fe03
fdea
ff23
fee4
fe5f
ff52
ffce
01be
ff70
00fc
0012
fe0a
000f
01ff
013e
027e
ffdc
ff14
fe64
fdd8
fd1e
0132
013c
ff45
0083
0216
fedd
ffd6
005b
01e8
0007
ff4b
00d3
00cd
fe18
ffa6
ff1e
00f6
007a
029b
01ce
ffb4
0154
fe64
003c
01ab
fd9b
ff16
fd88
fe9f
fe78
fde3
0029
fd59
01ac
01b3
00c1
feb0
fdd0
fdde
fea7
fcee
fcb6
01f2
0265
01d7
0131
ffba
008d
fe7d
fdc7
ffb6
0137
011a
fe1a
fd8b
fedc
0198
0067
03db
0108
fd6c
00aa
00bb
fcf9
0024
fdef
00e7
fd9c
00ca
fed1
fedd
00bf
ff87
0099
002d
0157
004f
0190
013b
0033
fdee
fe5a
ffb9
014f
fec4
fd3c
01e0
ff23
013b
00e7
fdb2
fd53
fcee
fee1
febb
fedf
01a5
01e5
0113
0100
ff78
fee5
0101
ff1d
0086
fefd
024b
0203
02f2
ffae
ff37
feea
ffad
fe93
027f
016b
0060
010f
011c
fe21
01a5
ff9e
fe6e
00b0
0136
fe81
013f
ff90
fed9
fdd0
00c3
0119
013e
015c
fd96
0054
01bf
ffe1
ff7c
feea
02ad
00a9
020e
00e5
0272
ff74
fe5c
ffce
ff7e
ffca
ff8e
01d0
0091
0048
0048
ff3a
ff89
00c9
ffcc
005b
0206
ffa3
ff16
019e
02da
0205
021f
00a6
012a
fee6
fe48
01c4
ff56
fe13
fe79
ff7a
ff2a
fe42
ffbc
008d
ff99
fedd
00e3
fead
0063
000e
01f8
0209
fe44
0234
02ee
02d2
01e2
fd4c
01f2
fed1
fe41
00fc
ffd2
020f
fdc5
0117
ff12
ff04
ff55
fda5
001f
00d7
fea9
00e7
02a1
ff9e
fffc
feb5
ff57
00b7
002d
0081
0109
0099
02ba
fe80
fe82
0202
fdda
01ce
00bf
0127
fec1
0071
0142
fed4
ff44
fd92
0002
ff87
ff91
026f
016a
0168
ff8b
fdfb
ffcc
0178
00cd
011f
0109
fe21
ff47
fbfd
fe42
0186
0170
ff42
00b8
fe8c
ff78
fec1
0237
0083
fde6
fca2
fdd3
ff7a
fef4
013b
fe72
fdf0
fe8b
0282
ff51
025a
028b
023f
fe69
02a0
0024
0299
ff72
011d
008a
fea6
01b6
ff9f
00e6
ff07
ff96
0221
013d
00f8
01bf
ff18
01e7
0243
030c
ffdf
ff2f
0179
ffe1
fe99
0229
0057
fea1
fd5e
ff99
ffa3
01f6
feb8
0211
01f5
004a
fe61
fe34
fff7
ffcf
013e
ffd4
ffa0
ff2c
01e8
ffd0
00fe
018e
0181
feac
fdc9
fd48
00cd
fec0
015e
0140
fe8a
ffba
009b
fe47
fe34
0218
