fdf8
02f4
0015
02b8
02a2
00dc
01a6
0087
024d
01fe
ff49
01aa
fce5
0184
fd52
fd31
fe96
0366
ffa3
02e0
fd1e
00f4
fba2
fd8d
0210
02e9
fefb
fd56
fd15
03ba
fd89
0171
fef1
01e1
012e
015c
ff4a
fe99
02ee
0036
ff28
0258
0279
0335
fea9
02e3
ffa9
0221
ffe5
0091
0273
0189
006b
ffe7
ff55
020b
0087
fb06
fd53
ff4e
fd23
ff0d
03d8
fe29
02cf
fc91
fd2d
fee4
fcb1
fdbd
00d0
01bc
fdd5
fd28
ffdf
fdef
fed5
000a
018d
02b4
ffc8
00cb
0220
004b
ff6a
fe8b
03c9
02fa
fde1
fec8
fec8
ff14
00bc
fd47
fcc4
fdb9
02ee
022d
fd67
0371
fd80
ff4f
01e2
ffea
fe7a
0001
fd67
ff5e
017f
fdd3
03bd
0165
0310
ff60
ff7a
fd2f
fce1
0164
0026
ff52
fee3
0310
fef8
024a
ff11
00a0
fcdd
018a
01cc
fed2
02c8
fec4
fd90
02e1
fd65
00b0
ff1f
fcfe
032a
0140
0134
feed
0229
fe64
0294
fe2a
01b3
02b5
029e
0146
feb2
ff84
fcfb
fcf9
0093
02a5
fc1c
fc8f
01cc
feea
00b9
0205
0301
fd46
fba2
ff95
ff7e
015f
0442
023d
0044
00f8
00a0
fea9
fd00
0192
01b6
024c
fcf7
0304
fef5
fd7c
fbda
fcc8
feca
fdae
feea
fdaf
0134
fdf7
fe4d
fd0e
0267
fe7e
031a
02cb
fd24
fc4c
00e9
01d8
fe52
fe2c
00bc
00da
fe8b
ff57
0215
022b
fca1
fe1d
ffb7
023d
fdc9
0032
fd27
0094
00b5
fe60
fda2
fcbe
00ba
fd73
0192
ff02
fd77
0049
fe18
0222
01d4
021d
fdb3
03a1
ffb3
fe32
fe29
fe08
007b
fd3a
032c
004f
fdb2
00ed
fda7
01ce
01f1
ff05
012c
0107
fdac
ffb9
0241
0008
ff58
0298
020a
0011
0113
0265
fda9
fc79
ff4c
0231
0023
00a7
fe98
0282
021f
0076
01ac
01df
0267
ff7a
0057
ff7f
01b2
fdf0
ff92
024e
01a6
0263
0354
0361
00e3
fd01
024b
fe27
0241
fed0
0213
fbed
0009
032a
fc6f
ffae
0069
fc94
01b0
fda5
fcd4
ff08
0116
ff99
0080
01b1
fbd7
01d9
fdfd
fe99
fd9e
ffbc
0299
fefa
ff3b
0104
013b
ffb5
02fa
00ea
fde4
ff66
fed9
00cb
fe8c
015e
ff90
00ee
fe73
fc90
ffb4
fcd0
fec0
00d8
01c6
ffb6
021c
022a
0312
fdf8
020e
0337
012e
034c
fdd8
0164
fe4d
fd85
0152
fe77
fe2e
fc91
fdf1
fdb0
fda5
01d6
fe8e
00de
fede
ffe7
ff09
fd3b
ffc3
fce5
ffbb
fd9b
01a7
017c
fea7
00a2
fead
ffa1
005a
00a1
fe79
00f8
01c9
023c
03c6
02f1
fee2
0053
02fa
0036
001d
0008
0077
0311
ff96
ff37
00d4
fedc
03b2
0029
fdcd
02a4
00ba
ff91
024b
02eb
00f4
ffa3
fee8
000a
00b4
009e
fcef
0200
022a
002a
0071
0053
00c7
fe88
0215
fc6b
0212
fda5
0233
005a
fcea
fe90
02d1
fd42
ffec
fdd4
0165
fc93
005e
ff4c
036d
013f
0115
fd5a
fb90
fb69
fe09
fe82
febe
0013
02cd
0247
ffc7
ff88
fc41
ffb6
fcb5
fdf5
fffd
0188
fea6
fe8e
0025
0386
02d9
fea1
022a
fd72
ffab
fffc
00c6
ffed
00fb
fd92
0370
fea1
fe91
fdee
fecd
0147
0288
04a6
0193
0056
0326
fc9b
001f
fe06
ff1f
0271
042c
0418
0136
fe80
ff76
fe63
0278
028a
032a
ff6b
0053
fe93
ff29
01c4
feab
feb7
0098
ff67
ff15
fe91
ffe5
0263
01f8
fed9
fc8e
0099
0211
fcc3
ff8f
ff91
fea5
ffe8
fd98
feb6
ff24
01b0
013b
0111
020c
01d4
fcac
ff9f
fda6
fdd5
03e0
ffb6
02b8
fd9a
031a
fcdd
028b
ff5a
fe7b
0035
ffb2
fda0
01d5
0125
fe6b
023e
fed1
ffa3
0477
032f
02e6
0257
022d
ffb0
0048
fe6c
01d7
00d7
00c4
ff68
032d
00c9
fff8
008b
fe76
ffcb
fd04
fc0e
ff6d
0139
0065
00da
0215
fce0
00fc
fd5d
fdba
ff05
0282
01c9
ff8a
fe82
0188
029f
0145
fe7d
00a1
0096
022b
0217
ffa3
fc6e
02cf
fe5f
fcba
00b7
fdce
fc6c
0198
03c6
fe8b
0080
040b
000d
ff66
ff51
fe90
0077
0096
0387
fd90
023b
ff5e
016c
fd08
ffa3
00e5
fe9b
0307
0162
025d
fdf4
016e
0185
feb7
feed
02d1
035a
fc9e
0300
03dd
fe51
fe21
00c6
00af
ff79
fe0c
008e
0221
01c0
fdd4
fffb
00be
fe59
fe36
00af
00b5
0139
007f
fe52
ffd5
02e1
01ba
fe20
ffc8
0071
fd5a
000a
ffa0
ffa5
fc77
0052
0015
fdea
0335
0212
0182
0263
fd6d
fd48
fe23
fffd
0209
0275
01d9
00aa
ff59
fd71
0061
fc73
0109
008b
ff62
01cf
0316
0148
01d3
0108
ffd8
00fb
fe9c
fd33
0244
0047
0199
02e2
ffd0
fd6d
feab
01b2
ff1a
ffee
ffc2
0234
007a
fecf
01d7
ff2b
0297
fe4e
fc0d
fc74
ff77
ff2d
ff39
fda3
029f
011f
0143
fc11
fe36
0194
00a1
ff98
ff22
00d5
0057
01d8
ff1a
ff95
0019
0129
fda8
ff0e
0135
0161
fe49
031a
0068
fe4e
fe51
01c4
fd30
ff88
fda9
0291
02d3
05d8
0083
fe8a
fec0
00fb
0036
fd46
03bd
fee2
007c
0230
fe9f
0152
015c
fe2e
fe0f
045b
ff46
ffad
010f
0319
ff8c
00d4
fce8
00f6
029a
feee
ffeb
0109
00b0
037a
ffcf
0223
016b
0168
00b6
00f8
02d4
019c
0357
fe6f
0250
025c
02a6
fd59
fd63
fecc
00cc
fdcc
0156
0085
fe8e
fe9f
fdf1
027e
009b
006b
feb2
0136
fdcd
0112
fff0
015f
01ec
030e
ffbf
02f0
0103
0278
0274
fcf2
0278
01df
022f
0435
0114
fece
fee2
fe4e
fd33
00a9
00d7
ff62
0087
ff06
02d7
00a9
009b
ff11
0053
017c
fcee
fe50
fd17
02f0
fe7d
0175
0391
fcab
ffb2
fefa
fe06
0053
fdab
013b
fdd1
ffdc
feb1
0051
ffac
ff26
fd87
fd7e
fca3
fe8b
fcf7
010a
ff81
fd97
01e2
fd60
fd6d
01a8
fed8
fef4
03ee
fef8
02b4
ff7c
01bd
027b
00ac
fd7d
009f
0370
fff5
0000
03b4
fd78
fefa
fd1b
fed6
00be
ff3e
0033
ffda
ffd1
ff56
fd9a
00c9
0000
015e
ffe1
0113
fd99
fee7
00ab
fe1a
01a5
fdb9
ff99
fdbf
0017
fda1
0113
fcee
fd8f
ffc3
0236
0126
ff87
004c
00c4
ff9a
0110
fd65
fff3
feb0
fc4a
0215
0352
fff0
ff1b
00b4
ff65
ff10
0169
fd6b
03de
032b
fe8b
02db
001d
0384
ffc7
022d
00aa
0107
fdb3
008b
fdb5
016f
0240
010c
fd5e
01a6
00a3
032b
0075
fd90
fc58
ffc1
0031
00dc
fc38
fcb8
ffff
fec8
0074
ff51
fd8b
fcde
0111
fc86
00dd
fe7c
ff78
01f2
ffc5
fe6b
fd3a
0054
fd3a
fbe6
fd89
fc47
ff5e
fc58
01d6
01e6
02b9
02c3
fef4
0117
fe4d
feb0
02d3
026e
02bc
0318
0175
feb5
0126
fe1c
ff52
0328
fefa
00a8
0137
ff95
00fa
00d3
fe5d
0377
fd19
0277
fcbf
019b
0001
00d4
0068
ff14
fd6d
01c2
fc68
fce7
ff95
ffd0
ff54
fe4d
024a
fda1
013c
ff1f
0076
0473
03c3
fcdd
01b1
fee0
0299
0244
0309
00ef
0285
ff08
01fc
ff69
fcdb
02a9
0030
fed6
fecb
0145
ff57
fc43
ffb0
01a8
0025
004a
013a
0120
fd31
fd6e
0293
fe5b
fbfc
fe6a
ff45
fd05
fcac
fd10
fd7b
fe10
fd42
0236
ff44
fe46
015e
01f5
00f7
0251
fdcb
01d9
0337
ff0b
00a0
fffc
02cc
00d6
fe27
fe33
002b
00ec
fde8
fd8d
025f
01d5
00aa
fe55
ffed
00cb
fe28
0160
ff1f
fce7
00ef
fcad
fe29
ffd5
ff72
fdd1
fd56
0313
fee8
fd75
0133
fd32
02fa
fe62
ff35
ff4b
016b
fd62
fbdb
ff1b
01ad
ff74
ffa2
fe42
fcbb
ff40
01e1
fd67
fd9c
fd87
ff25
ff09
ff5a
fdba
fd27
02d8
003a
fcad
031f
ff68
ff8e
02ec
01df
02e8
ffea
fda2
0108
ff5d
0329
011e
0074
ffa4
fbeb
004d
ff2b
ff7d
022b
0010
fdff
fdb8
005f
fd45
ffa0
fd39
ff1d
0290
fdc6
fe08
0202
fdc5
fc8d
ff01
02a7
0294
01f4
fd1d
00ac
0183
0265
02f7
00aa
0103
0002
022f
0333
0316
010e
fcd4
02b7
0303
0171
ff5e
0100
0297
0144
fe0b
fd46
006d
0327
02c5
fdff
0070
0059
fe8a
00e7
02fa
0085
fdf1
01da
ff32
fd85
ffae
ffad
fd23
fdf3
fdd7
018b
017f
00a1
0141
fe97
fbf8
fecc
0366
fe0f
006d
fe89
feb8
ffab
01b5
fd64
fe63
ffd8
fc58
00d1
0018
fcbe
031d
fda9
fec9
0074
01fd
ffcd
015c
ffde
fc2e
fdcf
00cd
007b
01d1
0136
ffe6
0157
fdd2
0053
0050
fdd2
01f2
00e4
030f
feca
00fc
fd7a
fc08
01db
03e1
0371
0118
01ba
000b
0065
03e4
0212
fdfd
fe39
fe30
01a2
0002
ff83
006c
ffb2
03db
fea3
fe65
01c8
febf
fd6e
01f9
0296
fda9
020d
fd99
0077
009f
fd21
fe54
01e6
0061
fccf
fe02
0205
fe55
00d3
0243
fc13
0233
005b
ff18
fdda
fe2e
ff35
01eb
ff6b
0397
017a
ffdd
fded
fdf2
ff2f
fe36
fef3
0182
02c8
0373
0125
fc52
fe0e
02c9
ff06
03df
0241
03de
021e
ff1a
fe07
0239
02e4
01d1
fc74
0006
fe8c
ffe8
fcd3
fd3b
ffc5
fff1
fee0
fded
fea8
0316
023c
01d6
0228
0046
00ae
0419
0150
0137
fe7f
007a
fd2f
ff14
fe63
01b6
0137
fe1a
024d
013c
ff7f
0144
fe1b
fe16
014c
0185
ffd0
fcbe
0174
fef4
02e3
01b7
fed4
00ab
fe3e
fe10
0367
0083
fec2
0218
0086
fcc4
004f
fcef
fbcc
00cf
02a4
0288
ffca
01c2
ff14
fd7c
00e0
ff03
0252
fdca
fda3
010c
0189
febc
ff62
ff81
0242
fe2c
003c
0010
fde3
004c
016c
0145
fe65
fec0
fdbd
fd36
fd9a
01ff
00df
002b
02ba
fd6a
01b3
feb3
ff00
01fb
fecd
0265
fff3
0298
022b
00d9
fe8a
ffa9
027f
0068
0287
02de
ff07
fea7
0114
fcca
fdfd
fcd0
0034
fe6e
fd8c
fdc6
fea3
042f
ff30
fdb7
0353
00fc
fd72
fff6
fc96
ffef
ff4b
fdbc
feba
00aa
0325
01c6
0276
0110
018e
ff9c
02c1
0007
00e3
ff5e
ffc9
0007
ff47
ff55
014a
0314
021b
ff71
fe84
0312
fd95
fe3e
00a6
fefe
00d6
fd97
0352
02ff
0157
02fd
045b
fef2
0166
0272
0166
01bd
ff71
007b
011d
fdb9
033b
0194
017a
ffc7
0403
fd4e
ff9f
fdf1
017e
029a
03e1
0112
fe68
03bd
015c
02ab
015c
ff3b
fe60
fbb8
00fe
01ca
fd26
fffc
ffe7
fe74
0350
02f8
fdb9
005a
fdae
ff1b
03c5
0012
03c3
ffe2
fd69
fefd
fdbe
0116
fc0c
fec0
005c
0182
007f
ff5c
01e6
011e
0089
fd79
feed
fde0
016d
02ab
ffc7
02c5
03a5
ff34
0015
0092
0149
0240
003b
0309
00a8
ff30
0085
fca8
fc59
007d
fdd1
fcec
fcee
02cb
ffee
fcef
feb3
fe8f
023d
006e
fdf4
fe0a
0010
012e
00a8
ff82
02b5
fddd
023f
fe88
ffa1
fcef
01dd
000f
0126
02e7
fd3e
02bb
fcd3
00a4
010e
0131
fbfa
ff1a
fc94
00e9
0198
fe76
fe6e
ffd5
0163
ff84
0007
0162
0413
02f5
0293
fd75
018a
febc
027d
fec8
fe77
00ff
fdc0
fd1b
011a
ff07
fe75
00b4
fefe
031c
fde5
00dd
ff15
fc11
fe3c
fc72
fda0
fd13
ffbc
0034
0106
0197
00d5
02a9
fea1
fd3b
001a
00fc
025b
fc3d
fd72
031b
0073
0041
01fe
fef3
feea
fdd9
fd7d
fe4f
03a7
01b9
fd74
fde3
fde1
0060
fd96
fc91
fd74
0105
fe74
0117
fc00
0006
01fb
fefe
fe95
feb3
03b4
0174
fd90
ff07
fd61
01f5
fc78
ff39
023c
feb7
fd9b
fce6
01d6
0062
0239
00ac
0345
0331
0237
ff9e
00da
fecb
01bd
fed3
0131
ffc2
0112
005d
018f
ffa6
02ec
015c
fff0
0130
0106
fe41
fc93
ffc6
ff81
013b
018f
02d5
0029
fe0a
02a3
022b
fea7
fd55
ffdf
ff1f
fc5a
0083
fe13
01f3
fe07
042e
ff65
0350
fe8c
fef1
fd2a
fd9e
fe00
0076
febc
0151
0306
fcfa
fe5c
03ae
0352
ff51
ff4f
fd60
0319
fdfd
ff36
004a
ff49
02e9
034e
0045
fe8a
ff2c
0058
fd9b
00fe
00b7
ff91
01b4
00af
0295
feca
fe9b
fd35
0172
fe33
fd55
fee3
02cc
01be
01aa
0133
00ed
feae
01ba
fd4b
025a
01ba
0318
ffc2
0103
ffcd
00ac
ffeb
029d
015a
ffb9
00e0
028b
ffeb
0026
ff4a
0170
fd78
febc
ffa6
01e2
ff6e
fc0d
fdd7
00bb
fe5f
ffe1
fcb3
fdd8
fdf0
ff65
fbc9
fc2a
feed
0298
fe92
0267
009b
0339
fdb3
00d0
02dd
ff19
0196
02c9
fd6f
fc5b
fd0d
0356
ffa7
fe79
ff2e
ff0d
fe75
feb9
0097
fc45
feca
0288
028e
03b9
0230
02a3
010b
fef5
ffa0
ffee
fd4d
fdbd
02fb
007a
0242
fe34
00a8
fef5
fecf
0370
ffa7
fe40
fd9f
ffec
01c0
020d
fd2d
0076
01c5
025d
ffd4
fec9
020c
ff32
fe7f
ff24
ffad
016e
fe9a
ff35
0274
ffa9
fdd5
ff29
0139
ff5e
ff2c
fe43
fe8d
02cf
032b
fe11
0191
ff88
0208
fb68
fbde
fde9
fea6
0081
01e5
023e
024b
0096
0184
fcd6
033a
fd91
fe50
0135
00cb
fe96
ff84
fec3
0137
01c5
004b
fffd
0173
020b
0333
ffcd
fd1a
0138
00dc
fe3d
01b6
fdbd
01de
fe7b
fecb
04dd
021c
fe4b
ff6a
fdfb
fd8a
fd51
fcc4
023f
ffcd
fff4
0072
029f
03f8
fe84
0000
00b6
fd58
fcf6
fd1c
ffd2
013c
feb6
ff9e
019d
038d
ff40
fefc
024e
00c7
fee4
00f6
0066
016e
fde3
fdd1
fee8
039e
ffbf
fea4
fd62
00ea
0331
008c
fd6f
fca2
0093
fe2a
0137
fdab
0397
00fb
0179
001a
0162
03d5
fd54
003a
ff4e
01cf
00c4
fcd4
01ea
ff17
00b2
0193
0225
fca8
fde9
fce1
fcad
fd4f
005d
fe77
001e
00b8
02d8
fe91
fee6
ffd7
fddf
03d3
02ba
ff68
fb72
019b
0256
01ae
ffa5
fc20
fd3e
fce3
fe40
01c7
fdc7
fe11
fe65
ffd1
02ef
fd7b
fd61
017a
01c8
02b8
ff65
00ff
0123
fcf6
ff20
feff
fef7
ff2c
fcd5
0120
016c
febc
02aa
fe3b
0052
0302
02ae
ff9e
0044
048d
02d1
0230
fce4
001c
0052
0065
014f
fdfc
0327
0096
fd97
0124
fd13
fd7e
033f
fdf1
ff9d
fea3
0162
fed9
00a8
02a8
ff52
fe1f
014d
036e
fdb2
02bf
00eb
fe79
ffb0
01fd
0132
0266
0166
0118
feb4
03bb
013d
fe8c
fe8d
ff5d
fe85
fe28
02e3
0329
01ed
fdf4
0144
0081
fff0
fe84
fca5
0234
fff1
00c2
03d9
fdc7
ff41
fc1a
026d
0017
fdba
ff5b
fdae
0133
01e2
0201
fee3
fce0
fcc8
fd51
fc18
014b
fe4e
002f
03af
02dd
ffd3
00bc
fe59
fe0f
021f
ff99
fdee
01c9
ff79
0021
fed1
ff88
0148
ffae
0006
03e2
fbfc
009f
0120
01e2
0347
016e
fead
02e0
fece
ff25
0023
01e0
fdda
ffbe
ffb7
ff6d
ff10
016b
04cf
04d5
ffb2
00bf
010e
ff48
fe90
0258
002e
ffbb
027e
ff85
fe0e
00dc
035d
fd06
fe9a
fe6f
02f2
0340
ff96
fc99
00b3
fe5a
fd09
fe8f
0296
010b
fd50
023d
fd68
034a
00ef
ffcc
012f
fdf0
fd3a
fcfc
0014
006f
fe86
02a4
ffdf
fccd
fda1
ff54
036a
00e3
019d
000a
02a7
fe04
004a
fe48
0088
fdee
fdb0
0200
00a0
010d
0245
01a9
010c
0345
037a
fea5
01eb
fdce
ff63
fd95
ffb2
fdb3
fe65
fdca
00d2
01d7
02fa
fd51
fd5f
0134
02c3
fd2d
fd9e
ffd2
ffea
0062
0291
ffaa
fee8
fde8
ffe8
fb8f
00cc
fd4a
0059
fffb
ff71
fdab
fe7c
fc5e
00b0
ff5b
fd73
00b4
010e
02bf
02b3
fd4e
fb8c
fcf3
fe72
01c3
fbff
fe78
ffc1
fece
020b
0159
ffa9
0261
0055
0303
03d6
024f
ffbb
0247
fec7
fed5
004d
0185
