ff61
014b
006e
fe3d
fee4
ff15
feac
00da
003b
fd33
0098
0030
008f
00cd
0190
0164
fec0
ff1d
ffc6
fe3f
ff70
0068
01a9
0068
00fc
018e
008b
ff4d
0058
013c
ffd2
ff7c
fee2
fe6e
0161
ff44
ffd0
00f4
fec6
02c0
00fe
01ae
011b
0210
028a
028a
ffb1
013d
ff27
fe18
ff6f
fdda
00d5
01b8
012f
fe88
005b
fe62
ffc6
0173
00e0
fe9c
fdb1
ffe1
0000
008f
ff92
007a
01be
018d
ff27
0190
0108
ff44
fe04
fd7a
fe6c
0058
0258
01c7
0012
ff69
002a
02d7
015b
036a
02ad
01e5
00b5
fdf9
fe9e
ff52
fe6a
ff85
fe56
ff83
fe21
fe47
fe42
0000
feb7
fed0
0000
0003
00aa
0117
fdec
feb3
010e
0010
014c
0051
02e0
026b
025c
0260
02bc
0100
02ed
0191
023f
03f3
038a
034e
01ce
0301
02e3
015a
fede
00a5
ffae
fd80
0078
ff9c
fee6
00cb
0052
0132
0076
00e9
0063
fe44
ff1a
ffc9
0019
0041
fde2
0172
0149
007a
fef0
0018
fde7
fcd7
fdf4
ff57
ff9d
00c8
00b7
ffb4
0277
0280
00ec
02ac
01c3
01c4
ff42
ff29
feee
ff95
fcea
fe1a
0132
ff13
ff7b
015a
fe34
fe0f
ffc7
013f
fee2
0037
feec
ff2d
ff15
001e
ff40
ffdc
0295
ffcd
00fc
ffa9
ff5b
001d
0217
feeb
001e
fe4c
ffe2
ffcb
00b6
fee4
ff20
ff29
ff4c
013f
004f
ff5d
01aa
fe1e
fe65
0057
ffed
006c
0123
ff1f
ff9c
ff1e
0025
ffec
004a
00fc
0006
fdcf
fe44
007c
fef1
feec
018a
037d
0377
02ed
ffb6
ffbf
01c4
000a
00a2
00ad
017f
0194
00e1
ffad
007e
00ca
0192
009d
0199
0075
01f1
00e5
ffa2
0183
ff86
0020
0067
fecc
0053
00c5
01dd
ffee
00b8
fdc2
fe99
ff06
fea5
005d
fdd0
ff9b
ffb2
0132
ffd8
fedf
0090
ffc2
ffcb
fe4c
0010
00b6
fe43
fecc
ff2a
fd9c
ff79
fecb
005c
000c
020b
02d2
ff71
fe2d
fe3d
ff19
0010
ffdf
ff96
0102
0063
005f
00c3
feb0
fdbf
009b
0199
fdd3
fd1d
fed2
fe9a
0088
fedc
011e
00e9
0046
0170
0018
028d
00fa
ff2f
0130
ff6f
feb9
ffcf
fe6c
fe99
fef3
ffae
0150
0070
ffde
feb2
ffd9
fe63
fe8e
ff02
ffee
fe74
fe3f
00cd
01ee
fe6b
fe9c
019d
ff91
0097
00bb
ff7d
00f2
ffca
0064
015e
ffe0
fefe
ff0d
01f9
feed
fd92
feb8
0025
010a
01ef
01e9
fe25
fe47
fdff
ff62
feb5
ff66
00e1
01c3
005d
ffe6
ff63
fd13
0032
01d7
0077
ff40
ff3f
0029
0180
ff5d
ff00
0278
0182
fed3
027e
029b
0208
028b
023d
0156
ffd5
fe89
0056
0124
011d
ff6a
0101
000f
feae
ffca
fe21
ff8b
ff31
fe50
fe61
ffa3
fe22
0006
0005
0002
ff1e
000a
fe6a
0136
0039
ffef
feeb
ff2e
fee0
0081
ff0a
005d
00e1
0140
010f
02c1
031b
018a
0169
fd4b
fe37
fe42
fe18
fda3
fffb
0052
feca
fddf
fe35
ff2e
ffbe
008e
ff8e
ff93
ff1d
0050
ffb9
febf
ff8f
fe2e
ffa6
0104
ffd6
0097
0152
00bc
00e7
ff40
ffca
fec6
fec2
fec3
ff80
01ce
034b
03e7
021f
00fa
fe10
0075
004e
ff59
0095
0142
0057
00c4
019d
ffd7
018a
0298
0220
00f2
009e
ff16
0232
0020
ffe9
0208
feb8
fe71
0012
008d
ff5c
ff44
ffa3
febb
fdfd
fe72
00e8
0083
0148
ff07
0154
0162
fe91
ff53
010e
fd78
fe0c
fea6
ff3e
ff6c
fde5
ff8b
fe04
001c
fecb
00b9
01c8
01ee
0007
0073
fe29
feae
00e7
0217
00ff
012f
fee8
fd41
011e
01ab
012f
ffb1
00bb
00b7
ff5a
002a
ff7e
008c
ff25
fdc6
fe73
00f7
fea0
0041
002d
ff8e
feff
00c3
ff83
0121
00da
0234
0042
024c
0107
fee2
ff23
ff92
007e
020c
01e0
ff54
ffc7
ff35
ff39
00c3
01e4
fee2
fd27
feaf
007e
017b
01fd
0079
0079
01b2
0242
0085
fe1a
fe6a
fdc1
00ae
0016
fff6
ffa8
000e
00ef
ff34
0038
ff73
01d1
0055
0092
00b7
ffd1
0075
fff1
0091
003d
ffd9
006f
00ab
fe48
0164
003d
0204
ff75
fddc
feda
0211
ff8f
fee5
008a
00ec
ffd0
feb2
ff2e
0151
ff79
0093
fe92
fe3d
01a4
0049
002c
01ff
ff3a
febb
ff15
0016
01e3
ff9a
0170
016e
001a
01ab
01f4
0294
00ac
fecf
fe4c
feca
fddb
ffb2
001f
ff16
ff40
00f7
fdc4
ff39
ffb6
01d9
0128
ff2c
0042
ffb3
01ca
fe4b
fe7d
fdf6
ff1e
00e4
0060
fef0
fefa
002f
005e
fd5e
fd2f
fe5f
fe76
0128
02a7
007e
004c
0025
0092
001c
fee2
005e
004a
fe7b
0153
ff7f
024c
fee8
003a
fea4
fdaf
fe31
01a5
0211
01c3
0011
fd98
fc96
fc92
fd00
0004
fe00
ff30
ffd6
01ba
00e3
0075
0003
0080
fe19
ff45
00c8
fef7
00c8
0026
ff25
fedb
fea1
ffad
fe0b
fe47
ff5b
0047
ffc4
0131
00ba
ff0c
ff0c
ffc9
001f
ff8d
0119
ff86
fee9
0015
0044
ffc9
0003
fefc
fde7
fe61
0149
012d
018e
ffad
ff06
0193
01b3
fefd
00c3
fe42
ff24
001a
fead
0000
0059
fe9d
ff28
00d6
00fa
feee
0133
ff39
00c7
ff2e
007f
feb1
fe06
ff5b
fd02
ff08
0000
ff90
fff8
ff84
ffc9
00c3
ffd3
013c
019a
0240
00dd
01ae
000a
ff26
ff64
00c2
fedd
010e
009c
0164
00d8
feeb
fee5
fda4
feec
ff2a
ff80
feba
ffb0
01af
ffd3
006a
ff54
ffb3
0110
0280
024f
ff95
fe20
fef9
0033
ff74
0104
fffa
000b
021f
0203
ff93
fff1
feca
00f1
ffc8
0031
ffe9
ff43
0052
fe1f
ff7a
fef3
fdcf
fe6b
ffc1
fdf8
0030
ff73
00b3
0038
ff3e
ffa5
0036
ff1b
fe0b
ffa1
013a
017c
005b
016e
0076
fe53
fe21
ff8c
fe3b
0069
0156
fec0
0046
fe9b
ff80
0056
fe11
fe2f
fe10
0162
ffc5
fee6
ff0a
fec6
fedb
0021
ff2a
00e3
fdd6
00ec
00cc
00dd
005f
0089
ff8c
fed5
018c
000d
fd87
fed7
ff2a
feb1
ff57
01f5
0102
ff2a
ff60
fff6
ffc0
ffb3
fe49
00e2
ffba
fdd2
ff47
0069
00e4
0013
0084
fe40
ffeb
feb1
002c
0042
fe91
ffcc
fe55
ff96
0057
014f
0053
ffe8
ff91
0147
01c8
00ce
ffe8
fe66
fed0
fe8e
fef3
0085
01c7
01ba
00a1
0121
ff8c
ff69
00b0
fde0
0113
00e6
fd3a
feb7
fdbe
ff26
008c
00dd
fd61
fecc
fe67
00f8
ff1c
0174
ff13
007a
00b4
00ef
0040
fee6
fe77
ff6f
012e
ff3a
003a
0049
ff16
ff7e
ffb2
ff07
0099
0004
0083
ff35
fe24
fe57
fec8
fd86
fd11
fd5e
fe98
fe5f
fed1
0279
0081
0145
01ad
ffc7
0141
01af
0247
00a7
ff4b
024c
01f1
002c
ff4f
fdf1
ffdd
fe90
0063
014b
004e
ffca
0022
01af
00c9
00dd
0032
0032
0057
ff72
fe3e
00e7
ff4d
0063
fda6
fd86
fc9b
fba6
000b
fec1
00f3
01ed
01cb
007c
00c5
fe6c
ffeb
0057
fffe
fe05
0035
feab
fed2
fd81
fe22
fe0a
ff75
016f
ffd7
008a
fe5d
0056
feff
00a8
0349
022c
021a
0053
fedd
ff67
00d6
00b5
0228
ff2e
012c
fee1
fe79
0061
fe03
00cc
01c6
0225
0037
01b8
ffe6
ff4c
ff32
00c4
fea0
00f7
008e
00db
01c4
fe8d
005f
00a3
00db
ff88
0086
ffa0
fea9
0127
0207
01b2
ff2d
0010
fed1
ff44
008b
fede
0135
01a2
0019
fedd
fefe
fea3
fff9
00a4
ff6c
ff50
006f
01ea
02bc
01b5
0122
ff17
fe92
febe
004b
fe5b
fdbb
fde6
01ed
0095
012b
00ed
00bd
00e7
ffe4
0000
0137
008a
ff1b
fe2a
fe1d
ffe4
ffc5
ff42
0082
01c6
01f7
0197
01f6
01c4
0139
fe90
0160
ffe4
fd84
fded
00a6
00ab
01fc
fe93
0079
ff8a
fd4d
fdd3
0005
fe0f
001a
0147
01df
fff7
ffe7
0188
0130
fff9
0166
016b
00d8
0157
019e
0184
0053
fe99
00fb
fedf
01f2
0217
02a7
01ff
015e
0221
00e0
021f
0156
007b
ffd8
ff8f
fff9
ff2d
0252
01b9
01fc
0073
0131
0099
ff7b
013b
fed2
0042
fe8d
0181
fe99
004e
0008
0058
020d
003f
015d
ff16
001e
00f5
fffb
01e0
0218
00a4
016a
ffdf
00ef
ff1e
ff2e
fff6
fef3
ff46
fede
ffa6
fe94
00ae
00bc
ff32
ff3b
0073
00df
0069
0148
0116
0083
00e8
ff81
0163
00f5
fff7
fef5
fed8
0067
0042
ffb2
ffa1
fc62
fecb
0197
01c7
ff53
ffad
ff6d
ff31
ff14
fd6c
001d
0002
fd15
ffbe
fead
0078
0033
ff2f
ff75
ff2c
fe91
ff8e
ffb2
fd67
ff97
016f
fef2
fe97
ff86
ff36
ffe9
fef1
fd61
ff28
00df
feb5
ff8f
0087
ff3e
0118
fff4
feb6
fdeb
ff22
0013
0204
020b
ffe8
ffbe
00c2
00c3
00b2
000d
fff9
00eb
0024
ff09
fea4
fe65
fe93
fe62
ff4e
001a
fea1
00aa
00bf
0053
00be
022c
fe96
fe7a
fe45
0152
0151
02f8
039b
024e
0167
00b4
015e
ffa2
014e
ff13
fd8d
fe52
fe28
000a
ff21
fea8
ffc5
025a
0209
00b7
0123
01b5
001b
feaf
fe74
00eb
0067
00b5
002e
00d4
ff5e
0014
015b
003e
00d4
ffa6
011d
0215
0107
004c
fe7f
ffa3
feeb
00b2
0021
0009
ffaa
00f7
0016
013c
00fd
ff0b
ff06
01e1
00b7
013d
01e1
ff4c
0041
02ed
02c7
0208
ff78
ff93
01bc
feed
0051
0096
fe2d
fe16
ff24
007b
0043
ff19
ff28
01d0
004e
00e0
00da
0182
0154
ff6c
ff6e
feaa
ff82
ff10
00f6
fce1
fd5d
fcc5
fcd7
fed2
0109
0174
01e3
02fc
01cb
006e
0014
00a2
00a3
028a
02a4
0112
ffa5
010d
0089
019c
ffd1
011e
0054
ff17
007c
0017
013c
003a
ffba
008f
018c
0178
ff6e
00ee
0074
0119
0071
0286
ff3a
0008
ff7d
ff02
fefa
fe94
011d
014f
ff9d
ff32
fe2a
fe84
012d
0127
ff36
0165
ff1c
ff2e
00f8
022a
0290
0092
fe12
febb
ff23
0146
0090
006f
00a1
00bb
ff16
fe92
ff48
ff07
0079
00a6
ff1a
fe91
0070
0159
ff84
0120
feee
fe03
fec9
ffba
ff7f
fde3
fe4b
fd8b
fe60
00ae
fff3
fd2d
ff40
fe4c
ff77
ff2e
0163
0116
0110
fde5
ffa3
00bb
0269
020f
026d
0370
02d0
0188
ffdc
fdd3
fdcb
003a
fed3
0042
0056
fef6
fdcf
ff5c
ff40
fef6
feca
0009
fffc
ffeb
fccf
0137
fefa
fe0d
fdfe
fd55
fdd2
ff6f
ffd4
009c
ff3a
0071
ff1e
0194
0009
ff1a
019f
027e
02dc
ffe4
ffa7
00c9
00d1
0123
001e
0229
01a4
0071
0046
fe3a
ff44
0077
fff8
01e9
00d0
0117
002c
fe09
ff37
ff0f
ff82
fe3a
fea7
00cc
000d
fef0
ff8f
fe77
00bf
ff85
ffc9
00cf
fe75
ff81
0133
ffcc
0192
0090
003b
00c8
021f
01bd
0040
0289
02a3
ff30
0150
001e
feea
002e
0067
fdb9
fdc7
fe91
00ea
00de
00d2
0072
01c6
feeb
ff4d
ff97
0170
0057
00bc
0161
feba
00ef
fee0
000f
0104
0079
ff54
0150
ff41
fd84
fe2d
ff54
fded
006f
00bc
fea9
ff4c
006b
fe52
0009
01a6
fe74
ff1a
01ff
0354
018d
02af
000f
ffdd
0042
0040
00e8
0185
ff00
0071
0014
ffa6
ffa8
ffa3
00db
0115
0005
0282
018a
009e
ff0d
0162
0208
ffdf
004a
0281
ffae
010d
fe56
0096
fe25
fe44
0188
feb2
ffee
00c4
00a9
01ac
0277
01ec
0009
fec9
fe1a
0078
fef0
0026
ff59
fec6
fe16
fee7
000d
0134
ff83
fe33
0013
00dc
ff62
002c
0179
fe8b
00e1
feb4
ff4f
ff55
ff72
ff8d
feb2
fea4
fc50
fc9f
00ee
0179
ff91
ff2b
fca3
fe10
0048
0155
00f9
03ff
011d
ffe4
ff77
00aa
006f
fea7
015b
014a
ff73
ff65
ffd3
0150
0017
0007
ff89
004f
0074
0028
ffd9
ff79
0089
008d
0012
0052
016d
fe97
ff4e
0047
fe7f
fd84
ffe8
fffc
fd54
fe9d
0085
fda5
fe52
00fb
ff31
ffc1
0154
002e
00de
0055
fff7
01e8
006e
febf
fdf2
009c
01ac
01e2
ff7e
01b8
ff6c
011d
ffb1
fe54
ff49
ffa9
fe81
0162
0166
ffc1
010a
ffb2
ff64
ff8e
ffd1
007a
ff95
fea8
019c
01c3
005a
013e
00d3
0084
0018
feec
febf
00d7
01da
00bf
01fe
0081
ff3c
00c2
ff97
01d7
002d
0001
fe1d
ff49
fec2
0169
000e
002a
fed6
ffa2
ffac
fddd
ffb9
fcc4
ff14
ff17
00e1
001e
00a1
000e
ff0b
0258
01a2
0022
00b0
00f2
ffcb
0086
0162
005d
019d
fe5a
fe26
0010
0047
feda
0174
0084
feeb
fe95
0031
ff16
00f7
fe28
fddc
00ba
0048
0026
013d
ff86
fe63
ff1b
fece
0165
01b7
ff39
01bf
ffae
014a
ff25
fde8
fcd9
fe7c
fe7f
003d
003e
0066
ffcc
fdef
ffd2
fde8
fea4
fdd1
ff50
fde6
fe5c
0002
019b
fe76
fde3
fe48
01bb
00c0
00e6
ffeb
fd5a
002d
0130
006b
ffc7
002a
feb2
fdff
fde7
fdc6
ffe5
fe40
010d
fe3a
ffd6
0258
0119
fd6e
fdd5
fd3a
fe05
ffaf
006d
ff70
0106
0195
ff2c
fea8
fffb
0034
01cb
ff76
0051
0040
0034
01af
ff3e
01ba
fe2b
fd97
fee6
ffab
0152
fe39
fe32
ff4b
017a
01be
01ac
fe6a
fe67
00a0
00dd
fed4
ffd2
fe57
fed7
02d6
03bc
01da
010b
ffde
01b9
fe9d
ffc8
0062
012a
ffb0
ff0d
fe53
ff9c
ffc5
00fa
003f
ff95
fe1d
0048
0146
0147
018b
ff80
0130
002b
0025
ffbc
000a
ff5f
00a5
ffcb
ff85
0099
ff5a
ff51
0041
0085
009c
ffd7
019e
02ed
0277
002f
fe7a
02cd
0261
013b
0127
011c
00cb
fe55
ff0d
ff5b
0059
ffcb
fe29
ff7a
00d3
0068
fe5a
ffa0
0052
fec1
00ec
0004
0007
0121
0061
ff0e
ff51
ffd7
0152
01ad
01eb
003d
0051
0176
02b6
00ef
0325
01f9
ffad
0123
013c
02a8
018e
0168
02c9
0091
fff1
ffa8
0147
0217
006a
feaa
0019
fdf0
fff6
0114
0084
00be
0063
000f
01ba
ff33
00bb
fee2
ff87
0171
00f4
ff63
0028
ffdf
fea7
ff43
02bf
00ba
006e
0216
0097
00b8
fe82
0023
ffca
ffd2
fe51
0007
fdfd
fd08
feaf
0217
038a
0064
007c
fe3c
ffd6
0079
01c0
01a1
ff64
fed9
0014
fffc
fdeb
fdf5
008f
0100
003a
008c
0031
fe29
fdba
feee
01f1
ff60
0057
008e
feb2
009a
003a
ffef
ffc9
fee4
fd85
ff29
feff
fde2
fe5e
ffe5
ffe7
02ee
ff6c
ffe4
fea0
011b
feb0
0142
00eb
fef9
ff5c
fff4
0019
fe5c
0073
0006
feca
006d
ff7f
002b
ffff
00ca
fece
0058
0174
01e3
0321
034e
0283
0020
0081
fe5a
fd10
ff59
fe91
fe85
ffbd
0101
ff1e
ff65
fe5c
fecb
fe56
018c
0030
ff24
006d
0079
0001
ffcd
fe81
ff31
fef7
ffc2
fee9
ffbf
0162
fea3
0136
ff21
fdce
ff95
013b
fe4a
fdbd
fedd
fdfb
ff91
004e
fef0
ff36
0117
fe55
fddc
fd8e
fe70
ffcd
fee8
fe97
feef
0162
0115
fe52
fe39
fe79
ff4b
00dd
006a
00e8
ff51
ff20
fe50
ff9c
0054
ff20
ff8d
000f
00ad
fe2a
fda3
ffab
002d
0039
0200
0254
ff8b
fe60
004d
ff78
ffae
fed2
004d
ff13
fe37
fdf2
0027
000f
0207
ff76
0131
008c
0009
fdd8
0012
01c4
ffc1
fe61
fe9e
ffa2
00f1
ff7a
00b3
01d1
00d5
ff0d
ffe5
0029
016a
0012
002f
ffda
0155
fe6a
000d
0058
fe9e
019a
ff66
ffdb
ff8b
ffc6
ff6b
ffba
ff0c
fd47
ff76
0255
0132
0190
0000
fdfc
fef7
019b
03fa
0177
fe5d
fe33
fe88
01a7
011e
ffd9
febb
0072
0350
030f
0177
000e
007c
00cc
ffe3
ff3d
ff89
fe08
010e
0198
0068
00d0
fe5c
fde3
febd
fcd4
001a
fdcc
fdf6
01ab
015c
ff1a
00b7
0192
00a1
ff23
ff3b
0085
0120
ff46
015f
0170
013c
fd60
0031
008e
ff5d
0103
0097
0007
fdf0
0139
010c
0095
fce8
ff04
fdd1
fc35
ff82
004c
008b
00f7
fef6
0118
003a
0028
0128
fe20
ff51
023e
014a
ffa9
00d2
ff0f
fe27
0063
00ed
fef9
0064
0096
ff40
ffd7
0031
0021
fe57
fe8d
fe21
fe2b
ff1e
0145
ff1f
ff75
ffd4
0211
0167
00e6
00d8
01fe
01da
0136
ffa7
ff25
ff3e
01b5
02dd
00b7
014b
013e
01af
ff33
000e
fda2
000d
ff63
00b0
0245
ff2f
fe54
fe02
007c
fee7
ff85
002b
fef1
0040
02fe
0091
0110
fe93
ffc6
fd68
ffca
ff2b
fd82
000f
febc
00a9
ffa5
006a
ff4e
fffd
007b
0245
0108
ffdc
0090
006e
fefa
ff2c
00bd
ff95
0074
00f0
0168
0022
0053
0173
ff77
00fa
ffdb
ffc2
0010
0080
feb7
fffb
fdb0
01aa
000f
0121
ff6d
ffa2
007b
006e
0146
0086
fe89
fe8a
003e
0144
0059
0083
fed0
fecf
0084
007d
01c8
0018
005d
00c4
0236
00a3
013d
fda9
fd69
fd61
0108
000d
ff2d
ff50
003c
0189
0140
fe03
fd64
fec3
0003
fff2
fe79
0163
ff78
00e7
fe8f
fe5b
fe09
fd93
0018
02f2
011a
02a4
0228
fea3
010e
0282
0101
028d
00d6
0103
0103
ff2c
fed5
005c
00f4
0179
00ce
fe64
00fd
0132
fe5e
fe46
fe71
00f6
fe4b
0111
ff2d
00c3
01ff
01c6
0267
01ce
002f
ff9e
013f
fe56
ffab
ffab
fe2a
0139
ff6b
fef0
0019
fea3
01f5
0127
fff1
fff5
ff32
022e
0045
018c
01bd
00aa
feae
fe02
fec7
ff61
009d
fea5
febc
006d
00b6
ff15
003d
013e
020d
ff5f
ff4b
fe05
00c2
00e2
003c
016f
0104
fec9
fe5d
fe8c
fdd8
ff15
00be
00a0
fef5
ff6a
fd94
feed
fffd
0166
01e1
01a5
0083
0166
01d7
00a1
ff3d
ff2b
fe96
ff07
ffa4
01ac
fffc
ff07
fff6
fefd
ff80
0145
ffa0
006f
fffe
ff07
001e
007e
fed9
0062
013b
019a
0218
ff2a
0095
0010
ffd2
fe10
fe95
fe0c
ff86
ff3d
ff3b
fe25
008b
ff45
0031
ff4e
ff1f
01ad
0194
fec4
00f1
0237
ffa8
ffd2
0042
0116
ff5f
01c7
002b
fce6
feb6
fd84
fef6
0091
ff2a
ff64
00b4
ff3b
fff4
ffe8
fe32
fd33
ff54
0078
00be
fdf9
fe2a
fd06
fe8e
ffd4
01e5
ff6d
fee7
ffcb
fea9
fecf
ffad
014e
fedc
fe93
011a
007d
01bd
ffcf
0144
017e
fe7d
fd00
fdd0
ff3d
fe6c
0048
ff58
002c
0134
ff76
ffce
00e9
015f
fd89
ff97
fe74
fe9c
00b3
ffd1
0088
feb5
fe7e
ffff
006e
004b
ff0c
ffcb
013c
01ad
0150
ffbc
0195
00af
ffd9
0189
ff73
fe63
006a
00f3
010e
ffde
00df
ffad
ff8d
fff9
ff54
0109
ff9f
0004
0156
02ce
00c0
fdf3
fff3
0155
ff25
fd89
fda1
ff3a
009a
fe81
ff94
014d
00dc
0118
00d9
0170
fea2
ffa4
ff19
ffd8
ffd3
ff6f
ffab
ff9a
ffce
fe7d
fe6e
ffdc
ffee
feff
fecc
fdfe
0097
ff7c
fe84
fed4
fe4d
00d7
0027
024a
0066
0115
0218
022e
00da
ffd7
0160
017a
005b
ffac
0127
0113
015b
ff9c
003f
020f
fed7
ff86
ff38
fff2
fe27
ffb5
017e
0070
fe89
fe7c
fe68
012d
0038
ff26
00a6
00f3
ff12
00c5
006e
ffe7
ff76
00cf
ffa8
0062
fd82
ffdc
ffb7
fe92
01e5
0098
0153
01cd
001c
000d
01d6
01eb
00af
024f
0061
fdb6
fdbb
ff27
fe61
0072
fe76
00ee
ffc9
fe71
ff77
fe87
005e
ff81
ffe6
fec5
feb1
0119
0155
ffff
01c9
01bf
ff21
ff9f
026c
000c
0050
ff73
ff3a
fe5e
ff30
ff89
0234
020d
015e
00e5
00d3
ffc7
fea1
fe67
0042
010a
0034
ff64
00cf
018e
00e4
fec7
0178
0232
025e
00f4
030e
00fb
ffab
ff4b
ff99
ff43
ff07
0187
ff3e
018d
ff9f
ff70
ff4c
fe37
ff14
ff22
fdce
ff1b
ff31
fffa
ff4d
01d8
02b7
ff68
0048
013b
fff6
0199
01ad
002f
00b6
fe4d
02a0
0113
009f
000a
ff94
fe20
ffcf
ff58
ffd5
0156
fec4
00a5
ffd4
00a3
00c1
ffff
0124
01ce
01d7
0051
009e
feb2
0047
0050
0286
01bc
0160
febf
ff0b
00fb
00cb
001a
0046
00cd
0174
0159
02aa
016b
002e
fe7a
fe90
00d0
fee0
ffa5
00a2
01c2
0198
0215
0129
01bf
0141
01a1
fe92
ff1a
001b
ff47
fee0
ffe8
0098
01fa
01ef
ff50
fe6f
ffaf
ff27
fe9a
feaf
fdff
fec3
ffc2
0173
ff7f
0031
00d3
02ea
00d2
001a
ffa7
ffd8
005f
feea
0246
0172
0090
fec7
fed9
fd93
0070
fe6f
0073
001a
0107
ffab
ff21
00dc
018e
ffa3
fec5
0190
0195
0315
0184
ffd1
fe75
fdcd
0066
0076
ff80
00c1
fff1
ff03
0247
002a
0008
ff77
fe90
ff7f
013e
feb3
01b7
ff61
fe4a
fd4b
fea7
fdc9
0012
0041
003f
fe6b
ff17
0137
fe4d
00ba
0155
0125
0339
0039
ff26
ff45
010f
ffcc
ffa3
0081
ff7a
fff2
fef8
ff44
00f1
00d6
fee8
fe73
fe7a
0139
0121
0055
ff17
fe5c
00b8
00af
0005
ff91
003b
fe7a
007d
024e
017c
0031
ff7e
00f9
ff2d
00cc
fdcf
fdcf
fef4
027b
0050
ff46
fdf4
fe5a
025d
02f7
01e3
0006
0062
feb3
fda3
00dd
00a0
fe54
fea3
ff2e
006a
0017
01b2
006e
fde3
ffcb
fe27
ff48
fffa
0160
030b
00e8
ff56
fef0
00b5
ffa2
ff27
00fa
ffa1
fed3
ffe4
ff1a
011f
009d
0257
0081
fec7
fe80
ffee
01f3
01f9
014e
0185
fff3
00ff
016e
fe65
ffb8
01e5
019d
fea8
00a5
ffa2
fe68
0158
ffa3
00c1
0088
ffb8
007e
fe62
ff3b
0022
fcca
fef5
feda
ff9b
00b6
00fc
ff3a
006e
fc9b
fc7f
fecc
ff39
fd71
0002
fefc
01a2
ffbb
fe62
00c7
007e
fedc
ff47
fe8c
006c
00fd
0184
00df
ffa8
0131
006a
01b9
0022
fea3
0157
ffd2
004f
00c9
0122
ffcc
fe84
ff23
fe41
fe07
00f7
005a
006c
ff68
fe6b
0019
00f9
ff64
feae
ff85
ffa9
0031
fda9
fe2e
feaf
ff42
00ad
ff27
ffa0
fea8
ffba
011f
00ea
0179
feed
002f
feed
ff3f
02bf
01c2
ff2d
ffad
ff3d
ff66
fe88
fea7
fe9f
fefa
fc7a
fe73
fd36
ff0e
004c
ffb1
00aa
0094
fef8
0127
0170
fe49
ff69
fea5
ff30
ffea
01c0
004d
007f
0010
fe6f
fe22
fe87
010e
0117
0234
01c8
0017
ff64
0001
ff72
01c4
0019
009f
fe93
ff1f
0269
019b
ff6d
0110
feaa
00e3
fffd
ff43
fd9b
fddf
00e9
0188
ff7a
01a6
febb
fe46
fe8d
ff1c
0059
0161
fed6
011f
ffa3
005c
feef
00d2
008b
00f5
ffcc
ff87
ff6d
ff22
01ab
013b
ffb8
0043
0223
ffa3
0033
00a0
004a
0184
0160
0038
fefa
ff67
00cc
00cc
fe61
0051
00fc
00e8
ff4f
fe37
fb89
fe70
004a
0004
fe06
0063
ff91
fe02
00a4
012f
ffe1
febe
0134
014c
00c2
fead
ff30
013c
0181
ff67
0202
00a7
ffb4
ffba
011d
003c
febc
fe15
fe7f
ff81
00d9
fec9
ff08
fe9d
fe38
fe57
0089
ff60
ffbc
ffe0
ff60
feb7
0220
01eb
0194
fdf0
fd2b
ff31
0083
01c0
00df
ff03
ffdd
01c2
009f
00ee
001e
027f
0091
02a4
ff44
0000
ff5e
fff5
ff18
000f
ffe7
ff0d
fd55
ffc1
0121
00fb
0094
0005
fef7
ff4b
0055
0145
0008
0029
0102
0099
00a9
fe7c
fd29
fd99
ff7a
0001
0118
fecf
0013
fec5
fe59
fe4e
00f3
01f5
018c
0117
002c
ff64
01b7
00e0
fe37
fee3
fecf
0009
0045
fea5
0023
01e3
fca9
fd58
feda
ff80
fe74
00cb
0095
ff97
fe04
00da
001a
fea1
fed6
febb
fd16
ff33
0056
024d
0124
00a9
01ba
ff79
0006
0064
ffde
01d8
ff6c
0093
ff20
00ed
ff00
fede
ff0c
ff86
fe6a
fdf5
00ff
00ad
0103
ff8a
ff45
ffe8
ff42
fea2
0001
fe1b
fce4
fdeb
007e
ff9a
ff1f
fea8
00d6
01bd
0024
0082
013b
016a
01a4
ff3f
0176
0104
0110
fe6a
fe12
ff0b
0084
001e
ff2c
012b
fec6
ffc7
fd69
fc57
fc12
005f
01c2
ff43
ff52
feb7
0019
00f0
ff37
0133
ffa6
fc59
fc9b
fe6d
ffec
00de
fdcb
fe2b
fe96
ff44
0152
ffd4
020a
0041
fe96
fe98
fe3a
ff64
010d
ff84
0084
02d1
01e8
ff41
00df
0024
fef2
ff03
ff4c
fe7e
fe3c
013a
0274
0141
00d5
0273
ffc7
ffe1
019b
00df
febc
fe06
0122
ff33
fdcb
fe8c
ff4e
00a6
028d
0148
ff35
0039
fe7b
fe25
fe8d
00ae
004a
0171
ff21
fe89
006e
fec3
fff3
ffc2
00fe
fe9f
0029
fde0
fe41
0079
0201
00b7
00df
0197
0259
0285
022a
ffea
ffe8
ff4d
0084
ffd2
0172
01aa
0095
0294
0194
ffc8
ff4b
feb7
00b3
fff2
fe95
fe4c
fef9
0111
00b6
ff88
0185
ffbb
001d
fde8
0031
0327
0271
0250
0057
ff8c
0032
ff33
fe7d
ffbb
021a
0098
01d7
0066
012d
fee5
fff9
00c5
ffba
0043
ff0a
fda8
ffab
ffde
0020
0066
001c
00cb
ffb9
fe63
0006
ff2f
00c5
ff57
ffb5
fff3
0132
0136
ff60
0103
01be
007d
01e6
029e
0184
013a
ff9b
0023
01f2
0183
0029
fffe
ff74
00ae
0192
0294
00fb
01b5
00c2
00e7
ff3e
0117
01ec
015b
00d0
ff6f
fe70
0110
0009
ff7e
ff5a
ff3b
fd56
fe2d
fe3c
fda6
fd59
0077
ffb1
ff65
0171
01b7
ff18
01da
feda
00d2
0029
ff64
ffe3
ff25
fe9b
fe82
ff33
ff43
000b
00e6
01e5
01a3
0192
0185
0228
000a
0191
01d7
ff6b
ffbf
fe5c
ff83
0096
0217
005c
fe97
fdf3
00ff
fd7c
fd54
ff26
0023
fe9c
ffae
ffd3
fd89
fead
0126
00a7
ffdb
fef6
fdd3
00e3
0111
fe27
fdb4
ffcc
fe86
fe41
ffbb
0031
00fc
ffa4
fe38
fed9
fea1
fff3
00d2
fff0
ff49
ffd9
fe0e
0057
0028
0040
fe35
0075
00a2
ffb8
002b
007e
feed
fe7b
00c1
fe64
fe4e
feb7
ffbe
ff78
01e1
017b
ffb3
0053
0109
ff6f
ffe4
0261
0253
02e7
000d
fec0
00a7
ff73
ff72
fff8
0102
ff74
0015
0056
01b4
0056
01ce
01cb
ff04
ff2c
001f
ff01
00d8
013c
ffbd
ffde
01ba
0183
fff7
004d
01ca
00c5
0070
01d5
008b
fe59
0184
0120
007d
01e4
fffc
01be
fe1b
fe3e
0082
0021
fea1
00d5
008c
00cd
ff07
0042
fee8
0113
00b9
0153
004c
01ba
fe5f
fe87
ff9c
ff06
0003
0051
016d
0108
003b
013b
0071
00d8
00cd
ffab
0097
ffdd
ffeb
fd88
ff02
ff46
0260
03cd
02b1
008f
fefb
0031
0138
01f2
00da
01fe
ff20
ffe9
00b6
ff5a
0007
0156
fff6
0019
0162
007e
00ac
0001
0180
01d0
0147
0234
016f
0372
01ff
022c
00c7
00b5
feb2
01b7
0121
ff7e
0050
ff8b
0190
ffe5
0264
01b5
001b
ff57
0130
0153
ffd3
0100
025a
fe9f
ffe9
ff76
ff45
01d4
ff9c
00dc
008f
0119
006b
011d
ffe4
02b1
020b
0120
ff57
ff5e
0267
01da
01eb
01fd
006b
fffb
fea1
007f
fe8a
ff4a
00fe
00bc
007f
010a
fe00
fdf9
fe4d
ffe8
fee2
ff3a
fef0
fee0
0015
ff6b
00db
0181
012a
0016
fea9
fdee
012d
0012
fec2
fe8b
0041
feca
0016
ff9e
fd7f
fdf3
ff71
ff0c
ffe3
feea
fcc7
00de
003a
00c3
0096
ffdd
0215
02da
00ce
ffff
ff99
fed9
014b
ff34
febe
fff7
fecb
00b2
0018
fee2
ffc4
ff28
0138
009c
ffd5
fe21
ff79
fd7f
fee8
fe6b
00c2
ff5e
fed4
ff96
0061
0082
00fe
0143
ff5e
0006
0089
ff41
01ed
02b8
0184
ff3a
00d9
ff6c
ff26
feaa
0119
01a3
004c
ffc1
ffc3
fd65
01b4
0064
00b2
0111
fcea
ff87
00bc
feb1
ff66
fe30
fdcf
fef4
fe50
fee5
ff50
ff26
fe5b
fc85
fe5e
fe0f
fe59
ffc0
0233
fe5f
0069
014f
0042
00e5
00c6
001a
00a3
0050
fe86
00e8
feae
001b
ff06
feab
fe50
fff7
fef4
00fb
ff88
fee1
fe66
ffdc
0084
ff0f
fffd
ff6c
fea6
0090
006c
015a
ffeb
fdd1
ffe0
fe26
ffbf
fee5
0158
007c
ffef
fdee
ff54
fefb
00c7
fd75
fff6
fdf9
ff67
fedc
ff51
0084
ff0e
00a4
fe9b
ff26
ffad
01a0
003c
fea1
006c
ffe5
fdaa
ff22
0159
020d
ff9a
018d
011c
ff91
013f
00dd
0027
0207
ff17
feb8
fe09
0001
011e
ff93
ff28
ff44
01d3
fed6
fe82
fef2
ff58
fef3
ffe0
ff15
01b3
0186
fff9
00f0
feef
ff55
01a8
012b
004c
0030
0166
ff8c
fe83
01f4
01bd
ff93
01db
ffb0
00ce
0044
0002
ffdb
fdd0
00b8
014a
fe23
ffb9
ff73
fd36
fcac
ff00
fec8
ffda
fe9c
fca5
fb4b
fd95
fd95
fd7d
fe44
fdcc
fd5e
fcc6
ffff
008d
ffe6
00af
ffa6
fee5
fd53
ffbc
feeb
fe67
ffdd
fdec
ffb1
0003
fecf
fdb0
feea
fe04
fe61
fcb1
fe32
fd16
fd20
ff37
004a
ffd2
ff63
fdf0
fec6
0146
ff5e
0109
ff58
00a0
fe84
0131
00fd
0006
0014
0096
febe
fed2
00ca
fe6b
014c
0002
fff3
0071
ff77
ffbe
0058
00ae
0078
ffd8
0137
00c3
ff45
00dd
01b6
00e7
ff52
fed6
ff3c
0155
015c
0054
fef4
01d7
ffa4
ff16
0148
fe8d
003b
fe73
001a
ffc6
012d
019c
fffa
ffe0
ffa4
0220
002a
ff40
0150
0120
0031
ff68
ff67
0153
fe3c
fec1
fee6
ff8a
fe02
feae
fe2b
002e
0114
ffba
fecc
ff6b
fe1f
0131
00c3
fe48
ff75
ffea
ff49
004e
fe9a
0139
010f
0102
fec1
fea5
00b0
0042
00a4
00a3
ffb8
0034
0121
ff0e
fff7
01b4
009c
0102
01e6
0121
011f
007e
feee
01d6
0340
01af
0024
0013
016e
ff0a
0073
ff5f
ff3a
00db
00c0
fe52
fe71
fe87
0100
fffc
00b9
0081
ff67
fe8d
fe90
fe8d
fe6b
fe76
00c3
ff9c
0097
0114
0030
fe4f
fff6
fe6e
fff9
0048
feb3
ffd5
ff88
00f2
0055
fef6
00d3
ff8f
0019
ff46
fe82
01fa
ff9d
ff88
ff01
0084
00e4
ffbb
fff0
ffe5
ffc2
001d
ff64
fe31
00cf
0013
008b
ff88
0297
0096
006d
ffa4
ffb0
fe26
fe04
fe89
ff37
000b
ff29
01c8
002f
fed6
004f
00ec
000a
ff8e
013b
feaf
00f6
00fe
01b8
ff20
0033
011c
ff1f
ffd5
01f2
ffb8
0145
fea6
fd52
fd15
004c
ff6b
ff17
01e0
00be
00f5
024e
01b1
0084
fece
013a
01e5
ffd3
fed1
fd96
ff1b
fe49
fe60
fdae
fdf8
fedb
fe9a
005d
ffbc
0184
00a7
0088
004e
01cf
0017
fff6
fd71
fdf0
fe00
fefc
fe08
ff32
fd5b
ff96
00a6
0202
0028
020a
006d
ffda
0173
ffae
fef4
ff49
00ee
ffe6
01ae
0127
0024
fdca
ff69
fe84
0031
fe18
002e
ffb6
000c
ffa7
00e0
00df
010d
fd92
004b
0002
0073
009d
005a
0048
013a
02df
ffc9
fec1
ffd3
013c
0166
01c0
014d
fd15
ffb1
fe98
ff18
fe3d
00b2
00a1
ff72
01f5
ff94
016e
fef9
0050
00b7
0091
0174
0203
00b6
ffc0
fe55
fd72
ffbf
ff85
ff04
0296
0008
ff93
00da
00a5
ff44
ff62
00c7
fe45
00da
00bf
01ca
ff2d
0103
0212
fdeb
fdd1
ffb2
0010
ff37
023b
0247
ffdc
006b
0126
ffd2
0000
fed2
00d6
fe9c
ffad
ff8f
0003
ff14
0149
ff2e
015a
fef1
fde4
0071
fea1
ff2a
00d7
ffac
fd6f
ffec
ffea
01d7
ff7f
00b9
02ac
00b8
ff75
0202
0126
fdd0
002f
fe9b
fea6
ff95
00b6
0146
0150
018b
0106
0238
0160
fef8
00f7
0007
0063
0037
fe81
ff9d
fe39
fef3
0038
ff4f
01b3
fdb0
feef
ff3a
0038
0058
0072
ff86
01ea
01b0
008e
fed4
ff4f
00df
0008
ffaa
ffde
ff7f
fe37
fe03
fe0d
ff3d
ffee
0106
00bf
ffd7
0144
011c
00d8
01a4
00ff
01ef
00ba
0033
ffc8
0097
00a2
ff5b
0124
ff07
ff71
ff89
ff47
ff93
ffd0
ffd0
0023
00eb
feca
fe97
ff6c
fd91
feee
ff51
0233
02cb
0230
0208
011f
fef9
ff3f
007e
ff5b
ff70
fe38
febd
00a8
0078
0023
fe81
0151
0160
ffac
02b4
0142
02c2
016a
0122
ff33
fde9
ffd3
fff1
ff66
ff1a
ff27
ff08
ff03
ff4b
fd2a
feea
ffa7
0147
01c8
00d9
02be
0056
0157
ff47
ff50
ff60
0233
0162
ff37
ff52
ff79
fee0
fd89
fdc8
fdba
0156
ff52
000c
00ae
004b
0230
0007
00d5
ffa0
ffed
fe13
ff5a
fdee
fe62
00ca
ffa4
0197
ff3b
00cb
0083
0206
0068
fff9
01db
ffdb
feb2
000f
ffbd
ffcb
00f4
0127
ff1f
0176
0156
003b
fed4
fef3
ff43
fe48
0028
fee3
ffe2
ff38
ff33
ffac
ff44
fc2d
015b
feb4
00d7
ff2f
fe67
fc80
ff02
ffd4
002e
fed7
02a5
012f
ff27
0188
0011
ff03
fed3
fee2
0141
00af
01de
00bd
01fe
0191
0366
01c7
00e2
016b
ffc3
fff0
0067
feeb
017c
ff15
0192
0251
0205
feaf
ffde
ff5e
0118
fef5
ff8e
ff11
fdae
fe3e
002a
0007
ff5d
0209
0160
feff
ffbf
ff2d
01e9
001e
feb2
01e7
017f
0172
ff16
fead
00e2
00e1
0188
01e8
00e4
ffd8
ff50
ffda
fe04
fef5
feeb
008c
ff07
ffea
00ba
00cb
019e
feea
ff04
0112
00d8
018a
015c
01a5
00bf
0146
019a
ff95
fe74
0041
ff9c
fd23
ff6e
00a8
001a
ff90
fee5
ff8f
0058
0154
ff72
ff93
ff31
010d
00fb
01d8
020a
001b
00f3
ffee
0058
ff47
fd7c
feeb
ffef
0075
01ca
013a
0112
fed4
ff4d
00df
fe97
ff04
00d5
0041
003a
fdf8
ffb9
fefb
0004
ff2c
005c
ffe5
fe8d
00d8
fe41
ffc7
fe10
005f
0082
ff60
021d
00a3
0264
00ae
0139
ff4a
ffa9
0033
008f
0149
007a
0204
016d
0206
ff6a
ff44
02c7
01f9
0023
002d
fdd9
ff40
fdf5
ffb3
fe43
012e
fe82
0039
ff87
fee4
0013
ff47
00e7
ffd9
0059
fd0c
fef6
00ed
0135
ffe9
ff8d
018d
ff96
ffa3
00dc
fffb
00c3
00ac
fe26
fe33
ff41
feba
0045
0081
ffe8
01d6
015c
0231
ffcf
ff8a
ff31
0022
ffa5
01b1
006e
ff19
00f4
0134
00e1
fe4f
ff61
00b0
0073
0165
00bd
ff57
020f
008c
0091
ff36
fed7
ff2e
fddf
ff8c
fdab
fe0c
fed0
fd6e
fea1
0119
0119
ff0d
00ad
012f
01d1
01d1
00e1
feba
0127
ff69
ff70
fea4
014c
ff9e
ff5a
ff14
ff14
0037
0098
0147
01ce
015a
0103
fe8f
ff2c
ffcf
01f9
ffe9
0150
0132
0074
feae
fec6
feae
01f9
00c2
fe0c
fe6a
fe82
0021
ff3f
ff06
00b3
ff32
0034
ff64
014f
fec7
fe77
fee3
fe5b
01cd
025c
ffb8
0034
0102
ff8f
ff6e
0179
0130
ff43
0025
022c
ff86
00cb
00c1
ff69
00a8
fedd
ffd3
fe31
ffa5
0204
0122
fe9a
ffae
000f
fefc
fe88
00c2
0153
ffec
0059
fe06
fee4
ff55
ff39
00a7
00e2
013b
00a7
ffcf
fe2f
0091
0325
02a7
0000
ff97
00ed
0128
02c7
0116
0144
ff5b
ff05
015b
007a
0072
fe8e
ff18
ffd2
fe7d
ffac
fecf
ffc1
00c7
ffb2
000e
016d
0125
00cf
01f3
feec
01e5
01b7
ff79
feab
0095
fe06
fedc
006b
0120
01ba
fea1
fed5
ffa8
0028
febf
fdc0
0101
0034
fe82
fdf2
fed7
ff06
001c
0273
ff38
fe69
ffba
ff37
ff93
ffd4
0280
02e0
0256
fded
0255
023f
0019
ffdc
ff5c
0057
fe92
01c4
ff37
0255
00d3
ff2b
fff4
fe5e
003c
ffbc
fead
0017
fff1
fe77
fe8a
ff1d
0074
00bf
fe5c
fe75
feea
0174
00ba
ff33
0003
0061
ff73
ffa3
ff34
00cf
0294
01a5
fcf9
fe9a
ff7e
00bd
011f
011a
0069
ff7e
007a
009e
0012
ff0d
ff63
fdc4
fef4
019f
00a4
ff6e
fe64
fd64
ff6c
004d
0073
0052
016d
ffbc
024d
0176
024d
00c5
00a0
00ae
ff13
fdc9
fe20
fcad
fe50
ffc5
00f8
fed3
ff12
00ed
016e
013c
00dc
0120
00bf
fdfe
ff9f
00c1
fe61
0082
fdf4
00a0
018f
007d
002b
fded
00d9
ffad
ff17
0189
0283
00de
01a0
015a
ffbc
011b
fe7f
fe16
fdc0
fda8
fe7d
fe2a
fed4
0075
002e
0165
015d
fef9
0143
0084
feda
ffe1
ffbb
0062
ff18
ffce
ffd6
fee3
00e6
fe17
ff2b
ff3e
009e
0152
00fa
01c8
01b0
0021
ffdf
00ff
019d
00f7
ff5d
0050
fe9a
fd28
ffe6
0036
008c
00e3
022b
fff0
fecf
fddc
fe7d
00d8
ff63
ffb8
008d
ffc0
fddc
ffb6
006f
fff8
00b1
00a2
ff20
011d
fe81
fe6e
01de
022e
01c9
0171
0071
0002
ff0e
0105
ffe9
024e
0081
0048
ff7e
ff41
fe1e
ff3a
fdc6
ff78
fef8
00d0
ff4f
ff58
fed6
feb5
fe79
ff5e
fda7
fde1
ff42
ff50
fe66
ff62
fef0
ff7f
0011
03e7
030b
0054
0111
0005
0315
0377
021f
ffd5
fffa
01a4
0112
fefb
00c4
0014
00b6
ff78
0079
0188
01a2
011a
0198
fe9a
fe20
fd74
ffe3
ff09
0023
fd14
ffde
ff95
ffe8
ff26
fe37
fdd2
ff4e
0112
0031
0167
0277
ff3a
fe24
fe17
01bb
033d
0108
fed4
fe97
ff27
0007
ff4d
ff7c
0133
0099
012b
ffd6
0045
fee7
ffd0
fffe
0080
fd90
fe3a
fd30
feac
ffd9
0145
fe74
0043
fe02
fe38
003b
ffce
0014
ffaf
ffdd
ff0b
008f
fffa
ffaa
fedc
ff79
01d1
012d
02bb
0254
fef7
00a7
003e
ffdf
0128
014c
0268
0041
00f5
0078
007e
0026
ffb5
fe63
fdc9
ff0c
fe61
fe05
ff02
ff5b
fe48
018d
0149
000d
0051
0135
0049
009f
00a6
0018
007c
ff3b
fde1
ff74
010c
01a7
ff7d
ffa5
fd50
fdc7
00b4
ffc2
fffa
0058
fedf
ff3a
000a
fe52
026e
0258
011e
fe64
009b
ff7d
fea5
0003
0345
00f4
007b
0016
0068
0086
ff46
fe9c
ffaf
ffa7
0035
01cb
02d8
0225
fe42
fe54
fe9e
ff28
ffc9
fd36
0001
fe0b
fe3e
ffd2
ff47
0109
fec9
ff73
fe37
ffd4
feaa
fed9
fff5
00c5
ff6f
fe7f
fffd
00ef
fedb
ff62
fe35
ff36
021f
0195
005d
ff4e
ffea
ffc8
0004
febe
fed4
0096
00fc
ffac
026e
01fb
006a
fe42
fe9c
021c
008b
0257
ff99
ffa9
fe41
ff22
fed4
ffdc
ffca
ff97
ff79
011f
0260
0298
01a4
00e4
ffeb
02f1
0121
ff15
ffb7
00ac
0076
fe06
0004
01c6
026b
00c3
0198
fe03
fcd9
fdc1
0041
ff41
01a0
018a
0185
fe24
fee3
01b5
0090
febb
ff8c
0073
ff69
0045
00e2
014f
0090
ff9f
01ad
0074
0015
ffd7
ff44
0052
fecd
01c9
00be
fecc
000a
0060
ff37
ffb2
ff49
00ba
00cd
fed0
fea5
fdbf
fd80
0028
036a
00ea
fe93
ff4e
001d
0039
fea6
ff3c
0125
016b
015c
0167
01ba
0163
fec8
0025
fed0
00a6
ffc8
0100
0226
0101
024f
ffc3
feea
007c
0282
00a9
00a7
ff02
ffbb
fd4b
fdbb
fdc3
fffb
ffc9
0115
00b6
0058
018d
005b
fea1
0163
ff5a
fff0
ffd3
ffdb
0086
ff5c
00f3
011b
01ce
008b
ff23
01b2
fe95
ffed
fe76
ffe4
feef
ffef
fdf0
fea3
fdfb
fe80
020a
03a1
034c
0071
0078
fe28
fefa
001a
0083
ff4f
0062
0200
fed5
fe90
0060
0017
0122
00df
00cd
003c
024a
004c
fe5f
ff37
0075
fe02
007c
005e
0167
01d8
00e3
feef
ffd1
fdae
ffa0
fd63
fece
fe86
ff9e
fe1c
ffb5
006d
022b
02b7
ff2e
0097
0177
0036
0299
ff99
014d
feb7
fe01
0013
ffc9
fe52
0085
028f
01a0
004d
0170
ff04
ff4d
ffdb
0086
fddf
fe09
fe6d
ff81
00ad
00a2
003a
febd
feaa
fd26
fe49
fe8f
fe82
ff02
01ca
01d7
008b
016f
00e5
0014
fe9f
fef4
01d0
021a
010f
ff74
fca7
0026
ffa1
ff4f
0005
ff84
0343
0192
0103
fe1d
ffe5
004e
fe6c
fef0
feb9
ffad
febf
ff99
fff6
ff9d
fd63
fdb4
fee9
ff86
fff0
0005
fcf3
00aa
008f
02bc
0141
0183
ffa2
0186
0133
0149
ff04
00f0
00bd
fff8
ff80
fe35
01ec
feae
ff0b
016d
0191
ff23
fef7
fe44
fefa
ff10
00ad
0115
fe4a
ffac
017a
002f
fee0
00a8
0066
fed9
fe09
00b7
0093
febe
023d
01b2
00eb
ff2f
0087
fef5
ff02
ffd0
0190
0046
feb9
00d1
0088
ffc1
ff15
0107
0012
01ae
01b6
0116
006c
ff2c
0065
fdd5
ff48
fe21
0101
ffec
009d
ffdc
ff8f
ffc3
0276
fe8f
fe95
001d
00ea
ffbb
0020
ff93
fe39
fe67
fe84
004d
ff88
ff65
ff79
fffa
ff6c
fedc
013b
0284
fedc
feae
010e
002e
fea2
fdc2
ffb7
febb
01ec
feeb
ff6c
0078
0089
001a
00e7
00c4
ff2c
0078
ff1e
014c
ff38
0041
ff19
000a
0237
0284
0059
ff84
ffb7
fdf4
fecd
fe45
fd5f
0019
ffd5
005b
ff82
025b
00ed
00ad
fe47
0029
00b5
fed4
fe1d
0141
ff10
006d
ff30
006a
01ec
01cf
ff49
ff20
00f8
fdc9
fe18
fec8
ffb4
fff7
fd5e
fdc4
fd8b
ff12
02b6
01ed
0090
00a4
005e
fffc
017c
0141
fe8e
ffdd
0097
027c
0105
00b6
fe98
0003
0123
feca
ff42
018b
0011
014a
0023
fed8
001d
00b9
00ae
ffa9
ff19
00a5
002a
ffa8
feb8
fe58
01d4
ff73
ffb6
fef7
00f9
fff6
0314
016c
00ae
021f
0216
027b
ff6b
fee8
ffd3
ff82
0191
ff1e
feca
fff0
ff0d
ffc1
ffe7
00d5
014b
ffac
ffaf
fecd
002e
fe36
fe7a
0172
ff8a
0174
0101
008e
009a
ff0f
ff92
ff0f
fe92
00ea
feb9
ff18
fdb8
018d
0045
ffe2
001d
fec3
003f
017c
fef6
ffe3
fe41
fe57
0168
01d2
febd
ffb1
ff54
ff8e
0049
fed9
fec2
ffe1
0138
005f
fd77
fffa
ff3f
0097
0117
0007
00a1
0051
00c6
ff66
000e
0194
fff7
ff73
003a
ff94
0000
0132
0176
00c9
028d
01cf
006b
022c
0154
015c
ffc2
fda7
fdfc
01d2
0068
fde4
00ab
018c
026b
01e9
003c
fed8
00df
0024
ffcf
fe11
0017
fe84
0021
0134
ff3f
009e
ff05
00fb
015e
018f
019a
ffb9
febc
00aa
ff1c
009d
0183
0243
0041
01c8
01a1
0134
0136
feda
fded
ffa5
ff50
00dc
00d3
00d0
003c
0112
fee5
fddf
0025
0005
fe46
ff0b
febc
feac
ffeb
01e1
ff65
01ad
ffc7
00c0
0027
01ad
ff89
fedb
fe7b
fe27
fea9
febc
fe8e
fedc
006b
0035
fe26
ffe3
fe9f
ff97
002a
ffe8
010a
0033
00d7
ff8b
0164
00aa
ff93
ff0d
fffb
00ef
ff7f
01ba
01ba
ff52
ffbb
0185
fe74
fec6
0034
00ea
ff07
fe66
ffbb
012f
0193
0024
fed5
ffab
febc
ff5f
00e0
ff2d
00a1
0045
0158
feda
feef
ff97
018e
017f
00db
0088
00f3
00fe
00ce
0026
fec6
0110
00e8
00d3
0148
00c7
fec4
fe21
fe7c
fe22
0086
ffcd
0078
0279
0143
017f
0056
fe94
fea0
020c
004d
ff04
0024
018c
0278
ff67
0077
012c
025b
00e8
0055
ff7f
feb1
01ac
ffa9
ffdb
ffc9
01b4
0033
ff8d
01da
0089
fe17
febb
fedd
fd71
ff13
0062
fea6
fef6
ff57
fff7
0051
00f9
fff4
ffdd
ff14
ff37
ff58
ff6c
ff57
0146
0289
00c4
ff85
00ab
01ae
ffc4
ff48
0009
019c
0178
00a2
ffd2
ff8b
0276
02fb
0207
fedb
029c
ffe9
fdd2
fee0
ffe9
ff4e
015d
0056
016e
0066
0281
00ab
0052
0006
fe0c
fe65
0071
ff42
ffd3
00c3
00fe
0259
00ab
ff69
010d
ffa7
ffe4
008f
013d
00f6
ff76
01ec
fec7
ff00
ff18
0095
0066
00e8
fffe
010f
004a
01ac
ffb1
ffbd
feb9
0077
ff51
002f
fff4
0234
fe43
fefe
fef9
fce9
fe22
fe70
fe4a
ffb6
018e
01c5
00d4
ff9f
ff93
0155
01d5
00cd
fddf
fcec
ffa9
ffed
ffdc
feb6
ff9c
0026
0156
ffbc
fecd
0085
ffee
012e
0250
015b
0212
0209
0211
024d
0243
019b
ff6b
0014
fdab
fd7f
0165
0202
00ec
0223
fff3
00ac
01cd
004c
fee6
0015
ffc1
0010
0070
fe7a
fe57
ff6c
ff9e
ff86
ff2f
0120
0039
00d8
00e0
ff43
ff63
fdfa
ff90
01e3
0248
0169
023e
fff8
ff7f
00e6
009c
fe6a
ff7f
ff20
fd23
fecb
ffe0
0034
0011
00d9
fed0
fed1
ff5f
ffa0
fe8c
0036
ffbe
fe54
004d
fdef
fe2b
ffbe
fe91
0064
ffdc
ff62
0033
fde2
ff22
fe26
ff98
0039
010e
021c
00d2
014d
ffe5
ff8c
ff73
ff00
fef7
014e
0110
0078
00d9
fe4f
fed8
fe2f
ff36
fff0
feb3
fe97
ffc4
fee1
fe91
01a3
0105
fdf9
feed
0003
ffcd
ff12
ffc5
00ff
ff34
01e7
00d0
0001
ff58
ffe3
feff
003b
fe74
005b
0046
0072
00d2
ffef
0228
01d6
0002
fd70
ff3b
000e
fffc
0022
007c
ff46
fe9c
fe9d
fdde
006f
ff95
fd9f
fe5f
feea
feb8
014b
00b4
ff84
feec
0019
0136
00b8
ff96
0093
0043
0036
fedf
feb8
fe6d
ffd5
fde0
fff3
0031
00a9
ff10
00af
fe92
0030
023a
01c6
ff4b
ffad
002a
fd7b
ff63
00d4
ffce
ff45
02bf
019a
ff08
ffa4
0183
0160
0058
ffa5
ff20
00fb
004d
0132
0088
0182
01ef
00d1
fdee
015d
0130
0099
ffe1
ffc4
ffd1
0049
002d
0039
018a
020c
01de
ff3d
01a6
fee8
ff21
fe4b
fe40
fe3a
fe47
0092
03c4
03b2
029a
01b7
ff39
007b
0080
0098
009a
01c2
ffa7
002b
004f
ffab
0116
ffc8
0193
ff73
ff7c
0063
fefe
0171
ffa4
0046
ff26
0159
ff36
0180
ffcc
ff38
0050
005e
ffd4
feee
ffb5
015d
fe6f
fdff
ff9a
019b
ffe2
0031
002f
feab
ffcb
0145
0002
014f
ff03
0154
00d0
0037
fecc
ffa4
001a
00e1
008a
fdfc
fea6
026e
01e5
0207
000e
ff71
fece
fff8
007c
00f8
0021
fe51
fe71
ff0a
00d8
000f
ffcd
0086
fe6b
00f7
fff3
011c
00ab
ff09
00a1
0146
01f4
0077
0111
fe10
fd97
ff60
ff77
008f
009c
fe1a
ffbb
ff6f
00ec
0034
0175
febc
003c
fdf1
0046
fe9d
fece
00ac
0087
fec3
021c
0152
ff5f
fdf4
fdf3
ff0d
fea0
ff6b
ff07
feba
fd2a
ffd9
0192
00d8
ff77
fccb
ffaf
ff12
fef6
007d
0019
ff40
fedd
feec
fde0
0082
0107
ffe7
004f
0036
0256
ffe0
01a9
00dd
ff90
0175
0094
0115
0089
0070
feee
0096
0101
0107
fffe
023e
fee1
fe65
fd10
fedb
fdc6
fdd4
fdfd
fefe
fe13
00a2
001d
fe94
0078
00f7
013d
ff51
008f
fe30
0023
00f2
0000
0168
01c4
00b1
0136
0161
fec7
fe1f
fdef
005e
fda5
ffca
fe23
00ba
0181
ff71
ff9f
0096
ff2a
01ab
01cd
ff2c
0096
0133
008e
01e4
017d
ffd5
0247
fffd
0089
ff90
ff22
0082
00f5
fe88
00f2
0020
0056
00b8
ff52
fee1
ff38
feed
fd6f
fd89
fe2d
0096
0067
fde7
fe72
00ac
fe89
ff62
fffd
00e9
0085
fff9
fee6
fff8
00b1
0063
024d
01c7
0048
01b5
ff79
fe8f
fee2
0032
0118
fffa
ff38
0077
012e
ff7b
ff71
ffde
0161
ffa5
ffaf
fe12
00a4
fe93
000d
ffb7
008e
0022
ffe4
00da
fff8
0286
0080
0165
ffea
ff6e
fe62
00db
ffc4
002e
fd3b
ff45
fcac
fe4f
fe7e
fe18
ff4b
febb
0057
0072
ff94
fdee
fdd0
fdac
fdda
0061
ffd2
ff43
00b3
ffcb
ff37
fe9f
fe9c
fda3
ffcc
01b1
020a
0078
0041
fdef
fe00
fe27
ff9c
ff0d
012a
0147
0018
fdb6
fdc6
fdae
fef9
fee7
fe7d
0041
0067
fffe
012f
fee9
ff8e
fedd
ffce
00aa
ffbf
0000
0233
01c4
ff4e
00af
fdc5
fff6
00bb
febd
fd2d
fdee
010b
fef0
005d
0004
013f
ff81
ff87
ff31
0130
00ff
01e0
023c
ffd8
00fe
01af
ffe7
01c8
fffb
00e1
0079
00a1
ff20
ff1b
005b
0085
021c
0234
032c
0177
021f
fea8
ffac
0039
feb6
ffb4
ff6b
0182
002f
ff34
002f
ff66
00a6
ff92
00d5
01da
0053
0253
ff5c
00ab
ffd6
0046
fe40
fe21
0021
0072
01eb
0105
ffc3
ff85
ff2e
0092
fee4
fe07
0173
0131
0084
ff5a
004f
0046
015d
ffe6
0030
fffc
01da
021a
ff5a
024e
02f3
00aa
fe9d
008b
ffa6
013a
ffb0
002b
00a8
ff36
0151
fff6
0051
ff8f
ff25
0244
0341
0379
00c3
0353
027d
0231
0293
022e
013c
0012
01f5
0290
01bb
00b9
0027
00e9
ffa0
00f6
01a7
009b
0108
fff4
0159
0131
fe66
005e
0102
fee7
ff5a
019c
ffbe
0193
00f2
fe6e
009a
ffe7
008a
002b
ffd8
0228
01e7
ff6b
ff66
fe25
ff8a
01eb
01fa
0029
0103
01e8
00c1
fff1
0222
0063
fe76
00f0
0015
fdd7
0175
00b3
ffdb
02d5
0173
0239
0194
013d
00d4
020b
ffb4
00e9
014a
ffbc
fe53
0047
ff53
0026
0000
fe6c
ffc7
ff49
ff50
fe42
fcee
ff29
ff84
fd23
000d
003d
016b
0150
0215
ff84
00e9
ff48
004b
fdd5
fdb3
0012
0089
00da
ffe2
ff11
ff24
015a
00a0
0263
0205
01be
00b3
0144
fe8d
fe73
fea9
004b
ff6e
0134
fe1d
ff49
015b
000e
ff7b
0130
fef4
fead
00ec
012e
0042
fff3
ffde
0140
00ea
0169
ff3e
0111
ff57
ff98
ff05
fee3
0149
007d
fe80
fffe
ffc9
0076
0118
0173
0010
fefc
0061
fed5
ff75
0133
fed6
fedd
ff4c
ff03
ffea
ff4d
012f
ffed
007d
0097
ff61
ff37
0055
00d7
feed
ff3f
000c
0136
0042
ffc3
0086
00a3
ff09
00e4
fffa
01e2
fe83
ffc4
018b
ff9b
fff3
01e2
01a5
fee2
00b8
0032
00ef
016d
fe7f
022d
00b7
ff56
ffe8
fff6
ffbb
fed2
ff5c
fe87
fe5a
00bc
002c
0122
fe78
00db
ff52
ff93
00c9
00e4
fe29
fedd
fd49
ff56
01a9
fecd
ffcc
fcc6
feff
ff3d
008e
fe33
fdc5
ffc4
0084
fee9
ffdd
0092
ffa9
00b5
fff5
004e
01ca
0219
00af
01bc
019b
000d
ff4c
fee3
ffd0
030c
008b
0202
01a9
0179
00c1
02d8
0049
ff3a
0056
ffeb
00fb
0159
002b
0101
ff17
fe66
fe35
017b
fee4
ff0a
0165
0147
ffe7
007f
fef4
fcec
fd73
01ad
00fd
00ed
ff00
fff9
0016
ff64
ff5a
0009
ff50
ff29
ff2c
0153
fe33
ff02
fe4f
007d
01e2
ffcb
006d
ff82
fee0
00fd
ffae
ff2f
002f
000c
ffc6
008e
00a0
01da
0088
0135
ffd8
ffeb
0076
0115
ff02
0089
00b3
0086
ffda
028e
011a
ffd1
febe
0029
fed6
fe81
ff29
0013
fe9f
011a
ff83
ff60
0198
0090
fe4a
ff84
0128
ff3a
ffd3
01de
01dc
01c1
016f
0235
01ce
0135
ff2a
0008
00fa
ff26
ff6f
0172
fefa
feb9
ffb7
fee4
ffcb
ff6f
0207
02d6
0173
0102
015b
014a
024e
01b3
0105
01a2
fff6
0003
000c
0143
01af
ff68
fdbc
0221
01a6
fff8
00bc
0046
000e
00eb
0123
01a0
fff4
fff6
019c
0226
01ca
0184
0016
ff75
ff41
fed3
020c
ff69
01af
0029
ffae
fec2
fed6
0204
0217
ffce
007c
ff57
fe49
fe9a
ffd0
003d
ffd8
ff48
fef8
017e
fdb7
fee7
0057
ffa6
feca
fed3
fdea
ffef
001b
febd
fdf3
ff5b
fe3f
ff3b
fed5
fe64
0021
01f4
0111
ff7c
fe5c
00cf
fef8
fc9e
ff03
ff4a
fda7
fd09
000e
fe5b
fe05
fdc3
feed
ff78
ff97
fd27
fe18
0001
004b
fe2d
ff3b
00ed
ffe7
003f
fe00
fe97
007d
0212
0166
ff06
ff38
ffde
fea8
fe07
fe6e
0010
00f1
0124
fc82
fe6e
ff47
fe31
016b
01f0
01b9
01b2
fff7
fef7
005a
01c6
ff04
016a
00dc
fead
002d
ff79
ff96
0098
012c
0161
00b3
fe91
0037
0160
01d1
003e
00b8
fe6d
ff2c
feb6
fd46
000d
0027
fe22
0146
01b6
002d
027f
fffa
01d8
ff5e
fe13
ffe0
ff3d
00ee
fff7
00fc
ff44
011a
00f3
fe73
017c
0010
fefa
ff62
fe93
feaf
0069
00b8
ff28
009b
ff9f
00b0
01cd
00b7
fe74
fe32
ff0e
ffa8
0163
0141
0158
0060
fefc
00d7
00ce
02ec
0244
01f3
0075
ffcb
feea
fdc2
feaf
fff0
fff9
0067
ff49
fe80
febf
0032
016b
0080
fdf3
fdbb
00ed
023f
ff78
0107
0135
0087
ff19
ff48
fdef
fe08
fe9d
fe78
fefc
00c6
009c
feb2
0203
013b
ff1c
fe33
013f
0133
fe20
00b2
feca
fd19
ffeb
0077
ff4d
0271
01e2
0144
0063
ffe5
fe70
0153
00ce
ff1c
0013
fe12
fd64
fe9f
fdb8
fea0
ff39
fe64
0001
0095
ff18
ffee
ffbf
0049
0003
0128
01c3
0128
ffec
feac
ff64
01ff
02b8
0127
01cd
ff2d
fe85
fd90
0083
fecd
ffdc
0183
008d
fe48
fe50
febb
0237
00db
008b
ffa6
fec3
ffbb
fe5c
0024
fff1
fe97
fed7
ff32
fecc
0149
0087
00da
01f4
01cf
006c
01a7
0295
00cc
fe63
fdc3
009f
026e
0232
021e
fe4f
fdfb
fe8f
ff4e
01c7
ffc6
003f
fff4
febf
fe46
fe20
fe21
002c
fe60
fdf8
00e8
fe93
ffc0
ff35
004c
fe9e
fde6
005e
fd8e
fec3
fe5a
fe1f
fdd7
0136
01c2
0036
ff52
fed0
ff54
ffcc
0247
005e
002b
00fd
fef9
fd0c
fd0a
0041
0162
0070
0174
ffe7
fdce
fdc4
ff25
00bd
fd93
fe7a
fd65
fd9b
00f6
0124
0082
fec8
0041
001f
fe58
fdb0
fee9
fdfe
ff4f
fe57
0102
00f1
008b
ff04
0087
0028
ff08
fd31
fdf5
01b1
00e2
ffbc
013e
01f7
0062
ff4b
ff8e
feae
ff59
ffdc
febb
0065
014a
0004
fd73
00ee
0064
0180
0269
00da
ff00
00c5
0025
00a0
00db
013f
0072
ffb3
0127
feea
0174
ffb8
006d
0262
016d
0062
0022
0227
0251
fedb
fec0
ff0b
010a
ff3b
fecc
fff6
00eb
0057
fee4
feda
01c4
ff13
ff19
0049
fe3a
018c
01d7
ff1b
fff9
ff91
ffce
0159
0106
ffcb
fd99
ff83
ff34
ff48
01a9
fedb
0079
ff7f
0234
00c5
025a
fec2
fe65
fe28
fdf8
0204
00b1
00cc
0078
0028
00b0
ffc0
0216
0141
0143
ff3b
009a
ffc0
006f
011c
0257
0220
feaa
ffc0
00d1
feea
fe90
feed
0120
ff34
fee2
fdde
fd92
fe95
ff6f
00d4
017a
01a8
0069
01b2
ff3a
015d
ffb5
01d6
fe7a
fd94
fdc9
ff89
0087
00f4
0006
fff6
ff59
fd9e
ff98
0113
01d1
0016
0117
ff52
020b
016b
ff8a
ff5b
007a
004d
fe20
fdf2
ff76
00c3
0062
00aa
00b5
00bd
fefa
026a
00f9
fee4
fe1b
fce3
fdcf
feb4
0227
012b
0065
0262
ff22
feeb
000b
0087
ff3d
006e
fed4
008a
fdaf
ffb1
0065
014d
ff26
0096
0003
0176
ff07
00da
fe3b
fe5d
00c4
ff83
fe92
ffbd
fd5f
fecd
fec6
000e
0075
01c7
0193
0052
02c1
0006
fde1
ff40
fff6
feba
fea4
fdb7
ff5a
01fd
017d
fef9
fe40
016d
ff6a
fefe
0082
ffff
fd76
fd79
feac
ff23
fdb9
ff4b
00f1
fe2b
001e
fe08
ffdf
00e6
001d
fefb
fed9
ffb7
ffc3
ffda
fd81
feda
0081
0059
ffa5
0016
02c3
ffb4
0087
00e5
0131
011f
fffb
ff84
fe13
fe37
ffe8
008e
fe87
0125
00aa
fe72
fe69
0119
ffdc
0153
015c
0152
0239
fe0f
ff12
0162
02e0
018a
009d
fff3
01dd
0007
01c1
febc
ff7a
0040
fe47
feb2
fca9
0090
02d0
006f
01a1
ff0f
fec8
0020
ffa4
0229
015c
02e4
013d
008b
0232
01f6
0173
0059
0090
ff93
ff26
ffdc
0011
ff55
0066
ff9f
ff70
ff84
010c
015e
fe89
fef5
0034
000d
ff94
013a
0034
ffef
fe80
fe7f
fef1
ff63
ff9d
01eb
0124
ff2e
ff6d
004a
ff47
00c1
0158
0124
fdb2
ffeb
ff90
0032
fe7d
fdc8
fde1
ffe8
0062
0050
fec4
0034
ff8c
00b8
0024
fe48
fdb9
ff95
fede
00b9
fd9d
0066
01ff
00a1
ff64
ffca
ff4a
ffc9
ffb5
ffd8
0115
ffa9
012d
004f
00e1
023a
027e
ff4a
0091
0191
0222
01f6
ff2b
0115
0106
ff3d
ffc5
ff84
ff01
000c
0120
012a
0300
003e
ff52
fecb
ff6b
01d7
ff63
01fe
035b
00f1
014c
fe2f
fc9e
fe91
fde7
ffce
fe6e
ff29
ffb5
01d7
02ca
00bf
ffb1
01ef
00b9
fdf0
ff26
0188
0105
026f
ff86
fe74
00ae
011e
fdf6
0052
ffdd
01d8
ff04
00da
017d
ff06
00f1
ff7d
01c6
009b
ff4b
fff8
ff40
00cc
ff2a
01ae
0030
ff0b
ffcf
013d
00af
ff93
fed9
fefa
012f
00b5
0126
ff24
ffaf
ff39
0082
ffda
0030
fdac
fe26
00b1
ff3c
00c8
fef3
0021
ff90
fd65
ff86
ff15
fe38
0026
ffcb
008a
fdb8
fe9d
fd84
fe32
00df
fddd
fe66
ff0d
ff1f
feb1
fe4e
ffc6
ff73
ffda
ffe2
00c2
fec7
000a
028d
013e
010e
ffb7
ff96
00e6
ff76
0034
fe9a
fe67
010d
ff7d
01ae
fe60
feb5
fd8b
00b5
ff4b
00f8
0150
ffa9
0082
ff37
fee8
ff13
027d
000d
0026
017d
ff6e
ff47
00ec
ff0b
008b
fe50
fe2f
00df
ff18
feea
0079
013c
fed1
fe9e
fdea
fff7
fecb
fec7
ffda
ff99
ffea
ffb2
00cd
fe8d
fe9e
fd7e
ff28
ff78
012c
003d
fea0
ff4f
fd95
fe80
fd65
0011
0158
018f
fffc
00b3
ffde
ff7a
ff14
01a0
011c
010e
ff1b
00a4
001f
00e4
025a
ffee
0011
0177
0089
ff99
ffd8
ff71
0014
0000
0087
fd7b
fd4c
fec3
fe92
fdb1
0052
ff15
0094
0087
fe08
fd0b
fe00
ff61
ff4c
0126
fe33
fd88
0040
0065
007b
01a2
00a9
0183
01fb
02bf
ffe0
ff7f
010e
ff82
ffda
0046
fff6
0194
00ad
0046
0094
0197
004c
00c6
ff4a
003c
feae
fddc
00ce
0017
0009
014e
0300
0133
fee7
ff67
fd52
feb6
00ca
017d
0142
01ac
01f2
03cf
01f5
ffc8
022b
0208
0088
00ad
009f
0021
ff29
fe61
0043
ff16
fe4e
00e6
fed8
0094
0033
017c
fe58
fe7d
ffe5
0249
015e
01db
ffc3
fecf
ffad
01ad
000b
01d1
0097
002b
fe5b
fe51
ff02
ff6a
0038
ffa2
ff8e
ff0b
011a
003c
0203
0055
0112
002b
005b
0094
ffc5
01ee
0160
013e
0005
fd9f
fe8d
00eb
fe9f
fe22
0025
ffb2
0058
ffe9
0044
ff2e
ffe3
0196
ff9d
ffda
fe86
00e5
0073
ffaf
ff6f
0103
0040
004f
fe0d
fe50
ff4f
fe5b
ff86
fe74
fda8
fee0
00b2
ff09
01cb
00b6
0299
0231
0004
00cf
fefc
ffbb
00c3
ff6c
ff7c
0070
fee8
013e
015c
ff01
fda5
fe7b
0014
fe13
fd41
fd3a
ff12
0021
0079
0165
0240
00a9
024b
ffa6
0066
0233
0008
fe94
fe6c
010a
fef1
ff1a
00ad
0038
009b
001e
006c
fe82
fe13
003d
0115
0075
0008
ffaf
009d
fd7c
fe79
fec1
fd90
ff69
fe97
ff8b
fdb1
fcc1
fed1
0002
feba
fe2e
002d
029a
01fe
ff07
0151
00ff
ffa5
0171
00fc
ff07
00bf
ff02
015e
ff60
017f
0039
02b1
fff3
ff46
fefb
0036
00d0
ff9b
0158
ff55
007b
0118
01ed
01f0
ff4c
fe94
fdb0
008a
fdf4
fe3a
ff21
0073
0068
ffee
ffe9
0061
0170
0162
fe6a
fea5
017f
0066
ff49
fee6
0080
ff4e
fff1
009b
01a3
ff57
ffde
00d1
fe86
ffa5
0286
ff0a
00ce
0188
00b3
018e
feaf
fdee
00a9
00f3
0060
01d3
ffd7
00c4
01de
ff11
ff6f
fedb
ff19
015c
0149
02f9
00ac
02ca
02de
0254
ff87
ff37
fe65
fed8
ffbb
fe99
ff15
0137
001b
fec8
fe80
0039
00d0
0256
01f1
004c
01a8
0133
ff1a
ff70
0065
00b5
ffdf
ffba
005b
ffed
fece
008d
007b
fe08
fff9
fcf6
ffd3
fee2
ff74
ff2e
011a
0086
fffe
000b
fe5c
0062
fed5
ff2e
fef4
0119
ffd5
006b
feb5
0056
0168
ff90
ff93
fe7f
0049
febd
ff73
0069
ff78
0131
0173
ff09
0009
fec5
ff13
fe77
ff8a
0213
018b
0091
0138
feaf
fe0a
fcac
fe06
fd3b
fe07
fddb
0048
fffd
00f3
fec0
ffa4
00e4
02c3
006b
ff74
0195
0082
02c6
01db
01aa
ff6c
00b5
ff86
00e6
0082
0156
010a
0088
0218
ffd6
ff1a
0035
00b5
021d
0299
0175
01f1
009f
027e
0063
ff5e
001e
ff9f
002f
01c7
ff99
ffa8
ff37
fec6
feae
00a7
0022
0193
ffe9
ff6f
ffa4
fe04
fd5e
fdde
ff23
fee1
00b5
ffac
0004
fee5
0121
ff73
fd96
ff9d
0004
0004
011f
0035
01eb
feda
ff3d
feb6
ff0d
fd8f
fe66
ff52
01b8
ff9d
fecf
fe70
fd1b
fdfd
ff5c
ff10
01a3
00e6
0123
ff94
ff59
013b
0126
fdb6
fec7
ffb1
fee5
ff14
feb5
ffc2
ff6a
01b3
02b2
0143
0033
012a
fece
005e
ffcf
0194
0034
ffd0
feff
fe5a
ffef
00fc
0013
ff01
ffe7
fe45
004f
fffa
0207
02d4
02cc
0165
0234
017e
ff97
0189
ff8c
0099
fec4
ff0f
0157
ff47
ffc7
ffd4
ff35
0176
fff5
feb2
0110
ff19
ffa2
0052
01d4
ff46
fffa
004b
01be
0044
fe2a
006a
fd86
fee5
ff77
01a1
fe30
fe11
feb1
005e
ff7c
004c
00c9
ff6e
fe6c
ff9b
ff78
0342
00bc
0294
01ad
0236
0166
fff2
020e
01c9
0060
0002
0233
007e
013c
ffa6
fcc0
0032
00ed
ff35
ff1f
013d
02f6
febd
0135
015f
fde5
ffa4
fe61
fd5d
ff50
00e2
01ee
0031
ff97
01ce
007b
ff0a
fff3
ffb5
fe5a
0151
01af
016f
0121
0095
fff2
0081
00ef
01cb
ff55
0116
0219
00b1
00af
ffc7
fe74
0022
ff56
ff76
0185
ff72
fee7
009a
fe6d
fe75
00b1
feff
fe68
0006
ffd9
0042
0219
0232
0041
fed8
fef3
ffbd
01a0
005a
01ce
01ba
000f
01c4
00e3
0209
011e
0044
ff35
ff2a
ffbc
015d
0048
0013
0074
ff54
fe99
003f
feae
027a
0251
fe74
fdc4
fe36
0163
0193
01df
0069
ff9b
fdde
fe1a
ff35
ffca
0176
0069
ff15
ff17
0202
018e
0217
01ff
00b3
0071
0309
00cc
0060
feac
00ac
00d6
00ed
fffe
ff3e
ffcd
fd83
0181
0170
ff84
ffe2
026f
01c3
0014
ffdd
00f6
0092
00db
00e9
0020
011d
fef0
0088
004b
ff12
0078
0266
002c
ff66
0010
002d
ffa2
fe86
0031
0063
fe96
ffb5
ff4e
ffb7
fe6e
0055
ff9f
0079
ffef
0015
0060
0090
0074
fffc
ff6c
ffd4
ff84
003d
ff1d
fe60
013e
0138
fec6
009c
fece
fd47
ffcc
002b
00b4
007d
00bc
00c9
ff58
0118
00eb
008a
fe14
ff3a
0056
00a8
fec2
ff5c
ffdf
01be
02ea
016a
01f0
008e
00ad
01fa
017e
ffd0
0084
0161
fe89
ff34
0009
0220
002b
feee
0018
ffff
ff52
0181
ff22
feea
00a9
fe80
007a
ff20
01b3
01f8
00dc
ffdd
fe61
fedf
fd66
fe35
019b
0134
0059
00bf
ff48
ff15
fe04
009e
00ae
fe8d
005e
00ea
002d
ff81
0019
fdc3
00f3
fe4b
0012
fff7
005d
00e9
008c
fe76
019a
ffbd
fffe
02bc
0282
0088
019b
01bd
fefe
008f
fe54
00f8
017e
0135
00a8
0007
0105
0026
0066
ff8c
ff0b
0045
0152
00f7
02c0
036b
ff88
0012
00f2
fe3e
00b2
ff12
0121
00d6
0053
0133
010f
00da
0070
0000
005f
011d
020f
ff1a
ff72
ffaf
01b3
0028
00bd
fff6
fd31
fd8a
ff17
ff12
ff5c
ffa2
01a5
ffc8
fde9
fff2
ffcc
feb3
fdcc
ff2f
00d6
fef7
feb6
004c
fec0
01bf
ff72
0039
ffb5
ffb2
ff8b
fecd
012c
000f
017e
0014
022e
0096
00a6
ffb1
ff48
feb5
fe1a
ffe3
ffa2
0192
003e
0253
0159
ffea
00ac
fff7
021e
001b
00ef
feb3
0098
fe8f
fd76
ff31
00cc
0132
ff21
014b
0285
00e2
ff95
ffaf
0152
ff04
fe98
0184
fe8d
0212
023a
0282
0036
01de
01d8
011c
fe66
ff55
fe75
feb3
016f
00d7
00e5
fe62
ffbb
fe81
008c
ff2f
fe2f
fe69
fdac
ffe5
00d7
fef9
01d2
fece
0198
ffd4
ff70
ffb3
ff28
01c4
012b
01b3
0093
ff30
0003
012e
0122
0118
ff47
ffc7
fe8d
ffca
017f
ffe6
ff41
fed8
ff04
febc
fda7
fec0
fe1f
ff48
fe69
008d
ffa1
0085
ff27
00f8
ff29
fe34
fee6
0064
ff96
ff25
0150
0149
fe86
fe8d
00ae
fe32
ffdc
010e
0110
feee
00dd
fedb
ff62
ffbd
fd96
fede
fcd9
fcea
005a
00b2
022c
0253
ff40
ffed
0072
006c
00bc
0043
005a
0005
ffd7
0119
0070
ffd1
ff18
fd90
fdaf
fe1c
0036
005f
00b1
005a
0059
ff97
009c
017a
01f7
fe67
0026
0009
0044
01aa
0249
fea1
ffaf
fdff
023c
017c
0057
0105
0057
00a1
0077
fff8
0233
028e
0198
00db
fe15
ff42
0061
ffea
006c
01bc
0021
ff7e
008c
001a
002e
0047
01c9
01a0
fe6e
ff73
fff7
01fb
0180
fe67
0065
ff97
ffb0
0122
fdeb
ff55
ff56
ff7f
0119
ff70
ff1f
00c5
00a8
ffb4
fed5
fffa
fdf7
00f3
fef4
014c
ff63
fff0
fe67
fff3
fe9e
0067
00cc
0145
ff59
ff8c
009e
0187
0100
fe36
feb3
fe48
0046
fee7
ff64
fe9d
fda2
0028
fe4f
fee9
fe43
fee7
fec6
ff16
ff56
fda2
fdae
004e
012d
00e3
ffed
fe89
ff34
00ed
00d1
0133
0168
fe72
009f
fdf0
ffad
ff48
00ac
0160
028f
00f8
0247
0246
ff0b
ff5c
fed3
ff14
fe38
fd30
fecb
ffb5
00a0
ff2a
fe84
fe81
001c
fd84
fc8f
013a
00dd
fe43
fedc
ffbc
00c9
0090
ffdf
ff15
ffce
02bc
0201
ffd7
005a
fe8c
ff1d
ff1c
fd1b
fe3a
fe42
0082
fe57
0008
fe57
fe7c
fe44
fe8f
fed9
feef
fdd7
fdea
0018
febc
00b8
ff25
0242
00dd
fe69
fd45
015c
ff7b
0018
ff81
0162
fee6
fdf3
ff13
fd65
fceb
00ba
019b
fe41
fe31
fd9e
000a
ff8a
ffe2
01bf
ff83
006d
0071
0069
ff1b
ff1d
ff01
ff15
004b
003e
ff39
010b
feba
fd76
fd37
007e
001e
fe1e
fdf9
fcf4
fe20
00bb
ff9f
00e6
ffdf
0254
0077
020a
ffd2
fecc
0064
febc
012e
00f7
02da
007b
ff12
fedb
fe8d
fe87
ff23
ff72
017b
003f
01bc
0123
005d
01b0
0170
00ca
ff93
fe48
fd7a
fdce
fe01
004a
ff74
fdab
fff7
fef1
00d1
feef
ff2d
0041
002f
fef3
01c3
001f
0276
0285
ffe9
020a
0011
00d7
0206
0155
ff67
ff6a
fee8
0045
0205
ff9a
ff15
00c9
012a
0041
ffb7
00a2
0233
021b
fdc2
ff1e
000f
0107
ff6d
ff9d
028b
0236
ff6a
ff27
020f
0184
ff35
013b
00c8
00ff
00c7
0263
ff07
00ea
0055
0048
01bd
0222
0202
013c
0045
0010
ffa4
0282
01f9
ff6a
feda
00fc
01f4
034e
fff7
01db
ffae
fe03
fef3
ff93
0134
ffc7
ff50
01b0
0043
ffee
0005
016a
0177
fef9
0026
ff42
ff1b
0086
feee
ff88
ffe3
00c7
00cc
ffb4
ff60
fede
01bc
ff25
0139
ffe8
03ee
0359
025d
fde1
ffc9
fe75
0018
fe8d
ff96
ff36
003c
fffd
0134
0026
fdbc
feff
0249
0119
ffb6
003d
0149
fea9
ff62
0128
003f
01d6
006b
ffd6
0085
ffd4
ff21
01ce
ffd7
ff2c
ffdc
0021
ff58
00fb
feed
ff2b
0147
ff46
ffb0
fee0
fd58
ffdf
01b6
ff13
fda8
fdeb
fd34
ff28
ffaa
ffb8
0024
0060
0033
ff93
fea2
0054
ffff
004f
0064
0138
ff0d
00d6
006f
ffa5
ff2f
ff14
0142
00d6
ff09
ff29
01ec
ff35
01aa
00e6
ffe1
ffa7
ffa1
ffd2
00f5
0066
018a
0071
0088
0014
ff63
ff47
0124
ff53
009e
fe44
ffff
fec5
fe27
ff27
01ec
fe26
fe0a
0228
02a0
0105
02f0
005e
febc
feb2
00de
0140
005d
0037
00a0
017e
fff9
ff07
fee8
0112
00ca
0038
00dd
00d6
011d
ff50
ff26
0023
fe62
0053
0026
0026
ff66
00c3
ffbf
fcda
fe8a
0142
fff9
ff6c
00de
ffb3
febe
0085
0130
fef5
febd
016f
fffe
ff3d
fe9f
fe5e
fff3
fda6
ff89
fe55
008b
fde3
fd80
fd0b
0064
0161
fe60
fd9c
ffca
013a
0054
ffb3
ffda
0058
ffd4
006f
0102
0196
fe2a
001c
fffa
fee1
00f2
00ba
ff6f
0163
ff56
0121
fe76
00f9
001f
010e
ff29
005f
ff2c
0150
0104
0037
ffaf
ff74
ffef
ff19
fe6f
ff16
fe5d
ff26
0064
fde2
fe42
fdf1
fefb
02aa
01d6
0198
0145
ff23
014f
02a7
0167
014c
000b
009e
fee9
0039
fee4
00f0
ff3c
00b6
ff19
01ad
ff78
ff85
ffbf
fe82
fe7e
0002
0086
008b
ff6c
ff7a
ff4b
febf
002e
ff97
0283
037c
006d
fe08
ff21
0037
ff17
0253
019c
fe13
fdc3
0113
010f
0056
fee5
01d3
ffb5
002a
fe58
0080
ff52
01cb
00c2
0171
ffe6
fe96
ff34
ffea
00bb
014b
0063
ff3e
fe1d
fec7
003f
fed1
0064
feba
