fc32
0170
037e
0236
ffd8
0239
fe57
02f5
fea0
04b5
fe1d
029d
fce0
fd32
ff62
ff2e
01b2
fa33
fc51
fdd5
fd38
ff5b
035f
ff6d
000b
00b1
014f
0000
ff58
fee3
fc73
002a
0306
0601
0138
fe8d
fb73
ff55
fbef
01dc
ffee
02c7
ffd9
ff6d
03aa
0204
031d
01c5
fdfd
00dd
fdb0
fc6e
010a
fde4
03ae
ffd7
fe67
0036
fc62
fc7f
020e
029a
0032
fad0
023a
03b5
0383
ff93
fff6
02c6
ff16
fda4
fda4
fde0
fcd0
00f9
fb62
fdcc
038b
01cf
fa8f
0460
fcc6
040e
fc2e
ffbc
0059
fc4c
fb3d
00cf
fd57
04db
03c3
0226
04bd
006c
fbd1
00f5
fef8
fce1
fd5d
fb67
043a
01b0
0406
fbe6
fe5a
0083
fc1b
0355
fd3e
fcd6
0074
00ff
02de
ffab
fbde
febb
febf
0140
ff7a
02c5
033b
0357
fc9a
0089
fc62
00ee
fedd
0326
fd20
0127
009f
fca4
01e4
0056
0140
fdb1
ffdc
fd3e
033d
ff4e
03e6
fc53
faab
fcf6
0155
0431
00bd
fc30
fc70
fd3c
052f
037d
0180
fdd0
020a
fd5b
043a
002a
0388
034f
fbe7
fbd0
fdbf
01fd
fc9f
0474
0170
ffd5
023a
01f5
007d
04ec
ff3e
febf
0148
ff0c
04ed
fce0
fb1e
fd74
0322
fe92
0291
fed1
01fa
03cf
0010
0329
0266
fe0c
0105
0310
fc29
011f
00dc
fbd0
fefa
008c
fc6c
fcb1
fcde
002a
00d1
fe37
fd3a
fd84
00ef
027b
fb60
f9c6
fbed
0002
fd91
ffca
014b
00f4
fdfd
01a7
ffde
0408
fc01
020f
fec7
fed9
fb51
fdab
021c
048d
01cf
00e1
fd99
fc87
ff66
fc2c
02f0
ff29
fc05
0326
ff9c
00c5
ff5e
fc19
fada
038f
febe
feb1
026f
ff59
0000
022b
ff66
feae
fdc3
fca3
ff12
032e
02a2
ff0c
030f
006f
ff1c
00b9
ff80
fb77
fc7e
fbdc
fd27
fdb5
ff2c
0399
fd68
ff1a
fd21
fe1c
fcac
012a
009e
fb86
fdb9
fcee
ff29
fc71
02ea
fd11
fcfa
030f
01b5
0306
005d
fc62
fe0b
0079
03af
012e
fd8e
fa02
fd71
fc31
04ba
fd9e
0031
fcee
fea3
01a7
fe76
030f
fbeb
02ce
03ab
fdc3
008a
0047
fc2f
ffa9
fdfd
044b
fe68
021e
face
00a1
fba0
fd0b
ff56
fe8c
02a5
0281
03c7
049f
fef3
fc7e
ff8d
0512
048b
02ba
00a2
fc7c
ff69
035f
ff3f
ff6a
011a
fcf9
ffad
ff0a
fe8e
ff48
fb34
fdb6
fe79
0313
0201
ffe3
0459
fe43
030b
fe42
fec7
04c4
fd20
0175
fcae
fd11
fb43
fabf
007b
026b
fda8
fe1c
01cd
fd68
ff05
00ec
fae8
ff6a
fb67
fe6c
fd3e
faea
0387
0268
ff4a
fddf
00e1
0139
02d3
ffb5
0246
fea6
03a9
01dd
01e2
fff7
fbe1
ffb0
fc9c
fe9a
0552
fc9f
fdfc
ff0c
fc6c
013f
0782
01c2
fe4b
04d7
002b
0042
01f6
017a
fd96
fd44
058f
02ce
02de
0019
0431
0194
002d
fec6
fee9
0260
0322
fd6b
fd23
04d3
027a
fbff
fe5e
fbf0
fcd3
015a
fd26
021f
019b
04bb
0076
01a9
febf
fd90
fff7
ffc8
05d6
0385
0094
00af
fcb8
fc90
065c
fc1b
fe98
fba9
fb63
02de
fe90
0344
00df
fd3f
fefc
0403
01d6
fe0c
00bf
0096
ffd1
015f
ff74
0458
fe1b
04db
01cb
fe5e
ff52
05f2
01d5
ffc1
01f9
0313
034a
0394
fc4b
fd13
ffb6
fd3f
fd70
035b
0058
039e
fe65
01b8
0360
0473
fe11
0169
fd4f
03c8
0342
0114
052d
0214
0329
0438
ff0f
fd0a
024f
015e
0278
fef9
fe3d
01c9
fe25
fc00
fdfc
03d2
04d0
fd29
fcaa
fb39
0384
0006
fb0c
0422
fdab
fe49
fee7
0283
0288
00e7
0261
ff0c
01a4
032c
fbc9
0352
ff62
04d4
ffd6
0063
01c6
fb63
fd36
fb9a
037b
fd0b
0395
0126
fc13
ffbc
0311
ff9c
fb2f
0154
02a9
ff1a
0450
04d2
fdc9
fbde
fd83
fe9d
02c2
03c1
fe19
ff75
ff8f
0181
00c6
fe50
0005
ffc7
fd56
019d
fb91
03ac
ff9b
02a2
027c
0385
0198
00f6
fd8c
fc4f
fc1c
ff99
fefa
013e
fc75
fc2a
0071
fed9
fd95
0009
0265
0303
033f
03d7
ff79
0441
02af
fb0a
fd70
0602
004f
02a6
fd40
fb37
fe07
043f
ff98
0034
ffb4
fe2a
0410
020c
fdfe
0046
013a
fb2c
fb72
fffc
fc1f
fd96
0433
fcb9
03bf
fcca
00fd
fe79
0000
fd0d
ff79
fd51
02dc
ffc0
01bd
fec4
fd9f
ff34
046d
fda0
0529
046b
0395
ffad
ff17
025a
ffd5
05b4
ff7c
0189
0472
fed3
ff58
0028
04a6
fc84
fcdb
0340
fe88
00e0
ffbe
002a
03ac
fd95
057f
0353
03f9
0458
009a
01c0
fecc
fe67
00a0
0016
fe74
0158
fc24
026b
020d
02e0
038a
02bf
fcfc
fec6
ff3d
02f3
fec2
051f
fe5b
01c2
fd73
fe46
040a
007d
03a0
0091
fdd7
fcb8
fdf9
00ca
fde7
ff16
012e
fca7
fe14
04c6
0128
022c
fdcf
ff86
fc34
ffe0
fe33
0418
fd5f
0095
0436
03fc
01d9
fd1c
03bf
0115
01f5
03c5
0200
fc2f
03f6
fe8e
ff6a
04ff
0004
feaf
01c3
0163
fc1a
fd4d
04c0
fd54
fc1c
fcba
0157
0513
0046
ff7f
fdc8
047b
fcf1
fd07
0194
0256
fed5
fcee
04c8
fd12
fd76
fd83
fe7c
fff3
fd10
0252
0517
fd36
fcf4
0304
fe87
047f
fd7d
fdb5
02e4
fb31
fd81
fffa
fc61
fdd0
ffe7
ff94
ff2e
fe7f
fb6c
0274
fe95
fce7
0026
00ff
fefd
020a
00ea
0219
01f4
0358
fd56
034f
02d6
03dd
ffc1
01fa
0401
fe2d
028f
026d
006b
ff42
fcbf
fb07
fef1
0121
0021
fe80
fd67
fb3f
fba3
0484
0174
fce8
ffce
01c6
0146
fefe
fefb
fdf4
ff50
fbd8
0115
fb23
fbad
fb64
0050
fbef
ff3e
fc8e
0284
009f
0066
01ca
fce4
0006
fc3f
03c5
04b6
ff9f
0219
fde1
000e
ffd9
05a8
0217
00a8
fc46
fbd5
029c
04fe
ffc7
0049
031a
0097
03bd
0573
ff14
ffbe
fd3f
00a8
0309
fda4
0056
01e3
04be
03d5
ff48
ff6c
03cb
00c8
0098
fc06
0156
00a2
ff05
018d
fef6
04c2
00bf
ff5b
fe1a
00da
02aa
ff66
013d
044d
ffb1
026b
025b
0101
fefe
0102
01d5
02fc
fef5
fd4c
fdbf
0445
ff75
fdda
fe75
02d0
fdba
fb12
febb
fc5f
0275
05cd
fd40
fd40
01b7
00ae
0480
0230
0147
fd44
fd40
ff32
fb91
0428
0331
fcb2
fd9f
feb3
fe28
ff3e
04e4
01df
fed2
01d8
fee2
02d3
fe1c
05b9
fe87
04cb
00c9
fbe3
fe22
fdb7
0257
052f
ff0b
ff38
008e
0107
019b
fec9
03f3
003f
0253
0154
ff6f
023b
fcbe
0066
034a
ffb9
fc2f
fd2d
036c
ff71
0353
fb9b
0179
00f2
fe8e
026b
fa32
fbbd
0450
01b0
000c
fc8b
0055
0435
fdb7
fe1d
fbd7
00cd
ffc1
01ed
01e0
ff70
ff2e
faa5
049b
ff62
0010
ff7f
0219
fe48
fcae
03b0
fc6e
fe2d
fda3
fdbc
fde4
016e
0032
ffb5
ff0e
ff7f
ffbe
02ce
0199
fc40
ffea
0334
0393
02be
03ab
0129
fc58
03f3
fce8
00d0
fcbf
03c8
faf2
