1004
0f97
0f3f
108e
1037
1044
115c
112b
10cb
1076
1150
0f69
1062
1199
104d
107e
0e98
0dc2
0f3f
1078
1064
1022
0eef
0f9f
10c5
0f0e
1188
0f46
0e3d
1078
0f47
1128
0f89
109d
1072
1083
1004
0fb9
106f
0ff7
0ffd
0f20
0fc5
106d
0edb
0ef0
103b
0ff6
1054
0fa0
1119
1076
1099
0f9d
119d
1026
0f81
0f74
0fd0
10b6
104e
118d
0f55
0f56
