ff7d
ffdf
00cc
ff6d
ff9d
ff1b
ffa8
ff8e
ffd2
0112
fed6
ffe1
0045
002e
ff76
fff1
fd40
ff2c
0110
ff95
004f
011e
fe8d
ffda
00bd
fe20
ff70
0019
fe76
ffec
ff2f
ff4b
ff7d
0123
ff38
010d
ffd2
ffbc
ff83
ff4f
0022
ff7f
fe95
ff1b
009a
ffce
ff6f
fff3
fedc
ffc6
006c
ff79
0060
fe49
fe5d
015d
ff15
fd5f
fffe
00f9
ff64
ff61
fff2
fe32
