fdf7
02f5
0016
02b9
02a3
00dd
01a6
0088
024e
01fe
ff48
01aa
fce5
0184
fd51
fd30
fe95
0366
ffa3
02e0
fd1d
00f5
fba1
fd8d
0211
02e9
fefa
fd55
fd15
03ba
fd88
0172
fef1
01e2
012f
015d
ff49
fe98
02ee
0037
ff28
0259
0279
0335
fea9
02e4
ffa8
0222
ffe4
0092
0273
0189
006c
ffe7
ff55
020b
0087
fb06
fd53
ff4d
fd22
ff0d
03d9
fe28
02cf
fc91
fd2c
fee3
fcb0
fdbc
00d1
01bd
fdd4
fd28
ffde
fdef
fed5
000a
018d
02b4
ffc8
00cc
0221
004c
ff6a
fe8a
03ca
02fa
fde0
fec7
fec7
ff13
00bd
fd46
fcc4
fdb8
02ee
022e
fd67
0372
fd7f
ff4f
01e2
ffea
fe79
0001
fd66
ff5e
0180
fdd2
03be
0165
0311
ff5f
ff79
fd2e
fce1
0165
0026
ff52
fee2
0311
fef8
024b
ff11
00a0
fcdd
018b
01cc
fed2
02c9
fec3
fd8f
02e1
fd65
00b0
ff1e
fcfd
032b
0141
0134
feed
0229
fe63
0295
fe2a
01b4
02b6
029f
0146
feb2
ff84
fcfa
fcf8
0093
02a6
fc1b
fc8f
01cc
feea
00ba
0205
0302
fd46
fba2
ff94
ff7d
0160
0443
023d
0045
00f8
00a1
fea9
fcff
0192
01b7
024d
fcf7
0305
fef5
fd7b
fbd9
fcc8
fec9
fdae
fee9
fdae
0135
fdf7
fe4c
fd0d
0268
fe7d
031b
02cb
fd23
fc4c
00ea
01d9
fe51
fe2b
00bd
00db
fe8a
ff56
0215
022b
fca0
fe1c
ffb6
023e
fdc8
0033
fd26
0094
00b6
fe60
fda1
fcbe
00bb
fd72
0193
ff02
fd77
004a
fe18
0223
01d5
021e
fdb2
03a1
ffb2
fe31
fe29
fe08
007c
fd3a
032d
004f
fdb1
00ed
fda6
01ce
01f1
ff04
012d
0107
fdab
ffb8
0242
0008
ff57
0298
020a
0011
0114
0265
fda8
fc78
ff4b
0231
0023
00a8
fe97
0282
021f
0077
01ad
01e0
0268
ff79
0058
ff7f
01b3
fdf0
ff92
024f
01a7
0264
0354
0361
00e3
fd01
024c
fe26
0242
fed0
0213
fbec
000a
032a
fc6e
ffad
006a
fc94
01b1
fda5
fcd3
ff07
0116
ff99
0080
01b2
fbd7
01da
fdfd
fe99
fd9d
ffbb
0299
fef9
ff3b
0104
013c
ffb4
02fb
00eb
fde3
ff66
fed8
00cb
fe8b
015f
ff8f
00ef
fe73
fc8f
ffb4
fccf
fec0
00d8
01c7
ffb5
021c
022b
0312
fdf8
020f
0337
012e
034c
fdd8
0165
fe4d
fd85
0152
fe76
fe2e
fc90
fdf0
fdb0
fda4
01d6
fe8e
00de
fedd
ffe7
ff08
fd3a
ffc3
fce4
ffbb
fd9b
01a8
017c
fea6
00a2
feac
ffa1
005b
00a2
fe79
00f8
01c9
023d
03c7
02f2
fee1
0054
02fa
0036
001d
0009
0078
0312
ff95
ff36
00d5
fedb
03b2
0029
fdcd
02a4
00ba
ff90
024c
02ec
00f5
ffa2
fee7
000b
00b4
009f
fcef
0201
022a
002a
0071
0053
00c7
fe88
0216
fc6a
0212
fda5
0233
005b
fce9
fe8f
02d1
fd42
ffec
fdd4
0166
fc92
005e
ff4c
036e
0140
0115
fd5a
fb8f
fb69
fe08
fe82
febe
0014
02ce
0247
ffc7
ff87
fc40
ffb6
fcb4
fdf5
fffc
0189
fea5
fe8d
0026
0387
02d9
fea0
022a
fd72
ffaa
fffb
00c6
ffed
00fc
fd92
0370
fea0
fe91
fdee
fecd
0148
0288
04a7
0193
0056
0326
fc9b
001f
fe05
ff1f
0272
042c
0418
0137
fe7f
ff76
fe62
0278
028a
032b
ff6b
0053
fe93
ff28
01c5
feab
feb7
0099
ff67
ff14
fe91
ffe4
0264
01f8
fed8
fc8e
009a
0212
fcc2
ff8e
ff91
fea4
ffe8
fd98
feb5
ff23
01b0
013c
0111
020d
01d4
fcab
ff9f
fda5
fdd4
03e1
ffb6
02b8
fd99
031b
fcdd
028c
ff5a
fe7a
0035
ffb2
fda0
01d6
0126
fe6b
023f
fed1
ffa2
0477
0330
02e7
0258
022d
ffb0
0048
fe6c
01d8
00d7
00c5
ff68
032d
00ca
fff8
008b
fe76
ffcb
fd03
fc0e
ff6c
0139
0065
00da
0215
fcdf
00fc
fd5c
fdba
ff04
0282
01c9
ff8a
fe82
0188
029f
0146
fe7d
00a1
0096
022c
0218
ffa2
fc6d
02d0
fe5e
fcb9
00b7
fdcd
fc6b
0198
03c7
fe8a
0081
040c
000d
ff65
ff50
fe8f
0078
0097
0387
fd90
023c
ff5d
016c
fd08
ffa2
00e6
fe9b
0308
0162
025d
fdf4
016f
0186
feb6
feed
02d1
035a
fc9d
0300
03de
fe51
fe20
00c7
00af
ff79
fe0c
008f
0221
01c0
fdd3
fffa
00be
fe58
fe35
00af
00b5
013a
007f
fe52
ffd4
02e1
01ba
fe1f
ffc8
0071
fd59
000b
ffa0
ffa5
fc77
0053
0016
fde9
0336
0212
0183
0264
fd6d
fd47
fe22
fffd
020a
0276
01d9
00ab
ff59
fd71
0061
fc72
0109
008c
ff62
01d0
0316
0148
01d4
0108
ffd8
00fb
fe9c
fd32
0245
0047
019a
02e3
ffd0
fd6d
feab
01b3
ff1a
ffed
ffc1
0234
007a
fece
01d7
ff2b
0298
fe4e
fc0d
fc73
ff77
ff2c
ff39
fda3
02a0
011f
0143
fc11
fe35
0195
00a2
ff97
ff21
00d5
0058
01d9
ff19
ff94
001a
0129
fda8
ff0d
0136
0162
fe48
031b
0068
fe4e
fe51
01c5
fd2f
ff88
fda9
0292
02d4
05d9
0083
fe89
fec0
00fc
0037
fd45
03bd
fee2
007d
0231
fe9e
0152
015d
fe2d
fe0e
045b
ff46
ffac
010f
0319
ff8c
00d5
fce7
00f7
029b
feee
ffea
0109
00b1
037b
ffcf
0224
016b
0168
00b7
00f8
02d4
019d
0358
fe6f
0251
025c
02a6
fd59
fd62
fecc
00cc
fdcc
0157
0086
fe8d
fe9f
fdf1
027f
009c
006b
feb1
0136
fdcc
0113
fff0
0160
01ec
030e
ffbe
02f1
0103
0279
0274
fcf1
0279
01df
0230
0436
0115
fece
fee2
fe4e
fd33
00aa
00d8
ff61
0087
ff06
02d7
00a9
009b
ff10
0054
017c
fcee
fe4f
fd17
02f0
fe7c
0175
0392
fcaa
ffb1
fefa
fe05
0053
fdab
013c
fdd0
ffdc
feb0
0052
ffab
ff25
fd86
fd7e
fca2
fe8a
fcf7
010a
ff81
fd96
01e3
fd60
fd6c
01a8
fed8
fef3
03ee
fef7
02b5
ff7b
01bd
027b
00ac
fd7c
009f
0370
fff5
0000
03b5
fd78
fefa
fd1a
fed5
00be
ff3e
0034
ffda
ffd1
ff56
fd9a
00c9
ffff
015e
ffe0
0114
fd98
fee6
00ac
fe19
01a5
fdb9
ff99
fdbe
0017
fda1
0114
fced
fd8e
ffc2
0237
0126
ff87
004c
00c4
ff99
0110
fd64
fff3
feaf
fc4a
0216
0352
ffef
ff1b
00b4
ff64
ff0f
016a
fd6b
03de
032c
fe8b
02dc
001d
0384
ffc7
022e
00aa
0107
fdb2
008b
fdb5
0170
0240
010c
fd5e
01a6
00a4
032c
0075
fd90
fc58
ffc0
0031
00dd
fc38
fcb7
fffe
fec8
0074
ff50
fd8b
fcde
0112
fc85
00de
fe7b
ff78
01f3
ffc4
fe6a
fd3a
0054
fd3a
fbe5
fd88
fc47
ff5d
fc58
01d6
01e7
02b9
02c4
fef3
0117
fe4d
feb0
02d3
026e
02bd
0319
0176
feb4
0126
fe1b
ff51
0329
fefa
00a9
0137
ff95
00fa
00d3
fe5d
0377
fd18
0278
fcbf
019b
0001
00d5
0069
ff14
fd6d
01c3
fc67
fce6
ff95
ffd0
ff53
fe4d
024a
fda0
013c
ff1f
0076
0474
03c3
fcdc
01b2
fee0
029a
0244
030a
00f0
0285
ff08
01fd
ff68
fcda
02a9
0031
fed5
fecb
0146
ff57
fc42
ffaf
01a9
0025
004b
013b
0120
fd31
fd6d
0293
fe5a
fbfc
fe69
ff45
fd04
fcab
fd10
fd7b
fe0f
fd42
0236
ff44
fe45
015e
01f5
00f7
0252
fdca
01d9
0337
ff0b
00a1
fffb
02cd
00d6
fe26
fe32
002b
00ec
fde7
fd8d
025f
01d5
00aa
fe54
ffec
00cc
fe27
0160
ff1f
fce6
00f0
fcad
fe28
ffd4
ff71
fdd0
fd56
0314
fee7
fd75
0133
fd31
02fa
fe61
ff35
ff4a
016b
fd62
fbda
ff1a
01ad
ff74
ffa1
fe41
fcba
ff3f
01e2
fd66
fd9c
fd87
ff25
ff09
ff59
fdb9
fd27
02d9
003a
fcac
0320
ff68
ff8d
02ec
01df
02e9
ffea
fda1
0109
ff5d
0329
011e
0074
ffa3
fbeb
004e
ff2a
ff7c
022c
0011
fdff
fdb8
005f
fd44
ffa0
fd38
ff1d
0291
fdc6
fe08
0202
fdc4
fc8c
ff01
02a8
0294
01f4
fd1d
00ad
0183
0266
02f8
00aa
0104
0003
022f
0334
0317
010f
fcd3
02b7
0303
0171
ff5d
0101
0297
0144
fe0a
fd46
006d
0328
02c6
fdfe
0071
005a
fe8a
00e8
02fb
0085
fdf0
01db
ff31
fd84
ffae
ffac
fd23
fdf3
fdd7
018b
017f
00a2
0141
fe96
fbf8
fecc
0366
fe0f
006e
fe89
feb8
ffab
01b6
fd63
fe62
ffd8
fc58
00d2
0019
fcbd
031e
fda9
fec9
0075
01fd
ffcc
015d
ffdd
fc2d
fdce
00cd
007c
01d1
0136
ffe6
0157
fdd2
0054
0050
fdd1
01f2
00e5
030f
fec9
00fc
fd79
fc08
01db
03e2
0372
0119
01bb
000b
0066
03e5
0212
fdfc
fe38
fe2f
01a3
0002
ff82
006c
ffb2
03dc
fea2
fe65
01c8
febe
fd6d
01f9
0296
fda8
020d
fd98
0078
009f
fd20
fe54
01e7
0061
fccf
fe01
0206
fe55
00d4
0244
fc12
0234
005c
ff17
fdda
fe2d
ff35
01eb
ff6a
0398
017b
ffdd
fdec
fdf1
ff2f
fe36
fef3
0182
02c9
0373
0125
fc51
fe0e
02c9
ff05
03df
0242
03de
021f
ff1a
fe06
0239
02e5
01d2
fc74
0006
fe8b
ffe8
fcd2
fd3a
ffc5
fff0
fee0
fdec
fea8
0316
023c
01d7
0228
0047
00ae
0419
0151
0137
fe7e
007b
fd2f
ff14
fe63
01b6
0138
fe1a
024e
013d
ff7f
0145
fe1b
fe16
014d
0185
ffd0
fcbd
0175
fef3
02e3
01b8
fed4
00ac
fe3e
fe0f
0367
0084
fec1
0218
0086
fcc4
004f
fcee
fbcc
00d0
02a5
0288
ffca
01c2
ff14
fd7b
00e1
ff02
0252
fdc9
fda2
010c
018a
febb
ff61
ff80
0243
fe2b
003d
0011
fde3
004c
016c
0146
fe64
febf
fdbc
fd36
fd9a
0200
00e0
002c
02bb
fd6a
01b3
feb3
ff00
01fc
fecc
0265
fff3
0298
022c
00da
fe89
ffa9
0280
0069
0287
02df
ff06
fea7
0115
fcca
fdfd
fcd0
0035
fe6d
fd8b
fdc6
fea2
0430
ff30
fdb6
0353
00fd
fd72
fff5
fc95
ffee
ff4a
fdbb
feb9
00ab
0325
01c6
0276
0111
018f
ff9b
02c1
0008
00e3
ff5d
ffc9
0008
ff47
ff55
014b
0315
021b
ff71
fe84
0312
fd95
fe3d
00a6
fefe
00d6
fd96
0353
0300
0158
02fd
045b
fef2
0167
0272
0167
01be
ff71
007b
011d
fdb9
033c
0194
017a
ffc6
0404
fd4e
ff9e
fdf1
017f
029a
03e1
0113
fe67
03bd
015c
02ab
015d
ff3b
fe60
fbb8
00fe
01cb
fd26
fffc
ffe7
fe73
0350
02f8
fdb8
005a
fdad
ff1b
03c5
0012
03c4
ffe2
fd68
fefc
fdbe
0117
fc0c
febf
005d
0182
007f
ff5b
01e6
011e
0089
fd78
feed
fddf
016e
02ab
ffc7
02c6
03a6
ff33
0016
0093
014a
0240
003c
0309
00a9
ff30
0086
fca8
fc58
007d
fdd0
fceb
fced
02cb
ffee
fcef
feb3
fe8f
023d
006e
fdf3
fe0a
0011
012e
00a9
ff81
02b6
fddd
023f
fe88
ffa0
fcef
01de
000f
0127
02e8
fd3d
02bc
fcd3
00a5
010f
0131
fbf9
ff1a
fc94
00ea
0198
fe75
fe6d
ffd4
0163
ff84
0007
0162
0413
02f6
0294
fd75
018b
febb
027d
fec7
fe76
00ff
fdbf
fd1b
011a
ff06
fe75
00b5
fefe
031d
fde4
00de
ff15
fc11
fe3c
fc72
fd9f
fd12
ffbc
0034
0107
0198
00d6
02a9
fea0
fd3a
001a
00fd
025c
fc3c
fd72
031b
0073
0042
01fe
fef3
feea
fdd8
fd7d
fe4e
03a8
01ba
fd74
fde2
fde1
0061
fd96
fc90
fd73
0105
fe73
0118
fc00
0006
01fc
fefe
fe95
feb3
03b4
0175
fd90
ff06
fd61
01f5
fc77
ff38
023d
feb6
fd9b
fce5
01d6
0063
0239
00ad
0346
0331
0238
ff9e
00da
feca
01be
fed3
0131
ffc2
0113
005d
018f
ffa6
02ec
015c
fff0
0131
0106
fe40
fc92
ffc5
ff81
013b
018f
02d6
0029
fe0a
02a4
022c
fea7
fd54
ffde
ff1e
fc59
0084
fe12
01f4
fe07
042e
ff65
0350
fe8c
fef0
fd29
fd9e
fe00
0077
febb
0152
0306
fcf9
fe5b
03ae
0353
ff50
ff4e
fd60
031a
fdfd
ff36
004b
ff48
02ea
034e
0045
fe8a
ff2b
0059
fd9a
00ff
00b8
ff90
01b5
00b0
0296
feca
fe9a
fd34
0172
fe33
fd54
fee2
02cc
01bf
01aa
0134
00ed
fead
01bb
fd4b
025b
01bb
0319
ffc1
0103
ffcc
00ad
ffeb
029d
015a
ffb8
00e1
028b
ffeb
0027
ff4a
0171
fd78
febb
ffa5
01e3
ff6e
fc0c
fdd6
00bc
fe5f
ffe1
fcb3
fdd7
fdef
ff64
fbc8
fc29
feed
0299
fe91
0267
009b
0339
fdb3
00d1
02de
ff18
0197
02c9
fd6f
fc5b
fd0c
0357
ffa6
fe79
ff2d
ff0d
fe74
feb8
0098
fc45
fec9
0288
028f
03b9
0231
02a3
010c
fef5
ffa0
ffee
fd4d
fdbd
02fb
007b
0242
fe33
00a9
fef4
fece
0371
ffa6
fe40
fd9f
ffec
01c1
020e
fd2c
0077
01c6
025e
ffd4
fec8
020c
ff32
fe7f
ff24
ffac
016e
fe99
ff34
0274
ffa9
fdd5
ff29
013a
ff5d
ff2c
fe43
fe8c
02d0
032c
fe10
0192
ff87
0208
fb67
fbde
fde9
fea5
0082
01e6
023e
024b
0097
0184
fcd6
033b
fd90
fe4f
0136
00cb
fe95
ff83
fec2
0138
01c5
004c
fffc
0173
020b
0334
ffcd
fd19
0139
00dc
fe3c
01b6
fdbd
01df
fe7a
fecb
04de
021c
fe4b
ff6a
fdfb
fd89
fd50
fcc3
023f
ffcc
fff4
0072
029f
03f9
fe83
ffff
00b7
fd57
fcf6
fd1c
ffd2
013c
feb5
ff9e
019e
038e
ff40
fefc
024e
00c8
fee3
00f6
0066
016f
fde3
fdd1
fee8
039e
ffbe
fea4
fd61
00eb
0331
008c
fd6e
fca1
0093
fe29
0138
fdaa
0397
00fb
017a
001b
0163
03d5
fd53
003b
ff4e
01d0
00c5
fcd3
01eb
ff16
00b3
0194
0225
fca8
fde9
fce0
fcac
fd4f
005e
fe77
001e
00b8
02d8
fe90
fee6
ffd7
fdde
03d3
02bb
ff68
fb71
019c
0257
01af
ffa5
fc20
fd3d
fce2
fe40
01c8
fdc6
fe10
fe65
ffd1
02ef
fd7a
fd60
017a
01c9
02b8
ff64
0100
0124
fcf5
ff1f
feff
fef7
ff2b
fcd4
0120
016c
febc
02aa
fe3b
0052
0302
02ae
ff9e
0045
048d
02d2
0230
fce4
001c
0053
0065
014f
fdfc
0328
0097
fd96
0125
fd13
fd7e
0340
fdf1
ff9c
fea3
0162
fed9
00a8
02a9
ff51
fe1e
014e
036f
fdb2
02c0
00ec
fe79
ffb0
01fe
0133
0267
0167
0118
feb3
03bb
013e
fe8c
fe8d
ff5d
fe84
fe28
02e4
032a
01ee
fdf3
0145
0081
fff0
fe83
fca5
0235
fff0
00c3
03da
fdc7
ff40
fc19
026d
0017
fdb9
ff5b
fdae
0133
01e3
0202
fee3
fce0
fcc8
fd51
fc18
014b
fe4d
0030
03af
02dd
ffd3
00bd
fe58
fe0e
021f
ff99
fdee
01ca
ff79
0022
fed0
ff87
0149
ffae
0007
03e2
fbfb
009f
0120
01e3
0347
016f
feac
02e0
fecd
ff24
0023
01e1
fdd9
ffbd
ffb6
ff6d
ff10
016b
04cf
04d5
ffb1
00c0
010e
ff47
fe90
0259
002e
ffbb
027e
ff84
fe0d
00dd
035e
fd06
fe9a
fe6e
02f3
0341
ff96
fc99
00b3
fe59
fd08
fe8f
0296
010b
fd50
023d
fd68
034a
00f0
ffcb
012f
fdef
fd39
fcfb
0014
0070
fe85
02a4
ffdf
fccc
fda1
ff54
036a
00e4
019e
000a
02a7
fe04
004a
fe48
0089
fded
fdb0
0200
00a0
010e
0245
01aa
010d
0346
037a
fea4
01ec
fdce
ff63
fd94
ffb1
fdb2
fe65
fdc9
00d2
01d8
02fb
fd51
fd5f
0134
02c3
fd2d
fd9d
ffd1
ffea
0062
0291
ffa9
fee7
fde7
ffe8
fb8f
00cd
fd49
005a
fffb
ff71
fdab
fe7b
fc5e
00b0
ff5a
fd73
00b5
010e
02bf
02b4
fd4e
fb8b
fcf3
fe72
01c4
fbfe
fe77
ffc0
fece
020b
015a
ffa9
0261
0055
0304
03d7
0250
ffba
0248
fec6
fed5
004e
0185
