fed0
0095
fe90
033b
024d
0159
0368
011e
0195
010b
006a
0071
fea4
0180
025e
01fb
ffb6
00a4
0053
011f
fef5
00e9
02ab
0089
0155
016e
fe58
ff8b
ff2a
00db
fefe
01f5
feb8
0023
fda5
ff33
fe66
fe3e
0191
00fc
0014
feba
fdaf
fe52
fe63
0161
ff70
ff6f
fffb
010b
fd5d
0143
fe0f
fe0e
fe9c
02ee
0150
ff51
feee
ff0a
fd4e
fe88
fd24
0145
fe06
00bd
0185
fdec
fe1a
fe10
ff89
ffa2
000f
02c9
03e7
0134
ffbe
014a
0137
fd07
006b
fd32
fc72
fd69
febc
0139
00ec
ff1e
fe53
ffe6
ff5a
ff77
fe17
020c
fe03
016d
01ed
024a
feb3
ff0b
feb7
fe3f
fe83
0146
022d
ff26
ffa0
0021
00fb
0145
feb4
00ba
ff69
0374
0245
0192
0039
ff6f
ff3c
fed7
ffa9
0196
0147
0084
ff14
fef8
fec9
0058
0195
ff3a
0163
0260
00a0
012d
012a
ff66
fee5
00a3
fe84
ffd4
0203
016a
ff32
00f5
fe7f
ff0b
fe7c
fe86
fe22
fec5
fcd7
fdea
fde2
fdf5
0151
0245
0265
fdd2
ff11
0028
ff55
00a2
ff29
ffb7
011e
fea2
fd64
00ad
01ea
fe34
0088
ff94
007d
fea0
0075
022f
fe0e
01a1
fdaa
0051
00b9
00e7
015e
0123
fd49
0126
0322
ff7e
033a
02fc
018b
fea5
0125
fdce
fdce
fc88
ff0c
fd9b
0027
0172
019f
ff7a
fcfb
ff92
fe49
0248
0089
0034
0040
ff8c
000e
021e
01c6
ff7a
ffb7
022e
014f
0069
01d8
ff65
fe35
fdc1
022a
ff7c
01d3
ff82
012c
0278
0247
fea3
00fd
00be
ffbe
fe62
fed3
ff86
fdba
fe49
fe2e
00b7
ffb4
01d5
004e
0216
fe73
00e8
00d5
fe28
0102
feeb
000e
ff1a
0070
fe54
01d6
fe36
0009
0101
fe55
0151
01bd
00f9
fd8e
fcb1
fd2f
fe5e
fd13
fe3b
fe36
01a6
038b
0007
013a
fdea
ff7c
001c
01fc
ff01
025f
00ea
0005
fe3d
020e
ff0a
fdd0
0072
017b
fdf3
ffaa
01ea
00b5
0260
feae
0139
ffe8
01c5
ff3a
0297
023a
0050
0340
ff77
02d3
0144
0189
0007
fe9f
feb6
0101
0139
fe98
0072
ffe9
ffb6
01ba
0012
ff2c
ff94
fe81
0135
0071
00b1
0190
02fd
033a
0133
ff35
fe14
ffa0
0210
0207
0126
0040
0036
ff60
fd58
fe9f
ffe1
0042
fee5
ffd2
fc00
0074
fea8
01e5
ff5d
ff4b
fe42
fd86
fe04
ff2a
fcb8
ff2b
0191
fe9d
0297
0446
024a
013a
0181
00e0
fdc2
fe4a
00cb
00e9
00ee
fe6e
0052
0152
01f2
ffe9
fe80
00de
001b
ffc3
020b
fec8
febe
018e
fe44
fe80
fe88
0069
fea2
0041
febf
fd5d
ff7d
0108
feba
01d1
0181
0295
010d
fff1
0073
ffbf
0128
0081
fd0d
fe9e
fe81
00db
fdeb
ff67
fd3c
004c
0045
ff8e
ff87
0006
00c2
ff8f
01a0
01a0
01bc
024f
0223
fed8
fe26
0097
ff11
00ed
ff21
feea
ffa5
fdb0
001a
fe72
ff72
007e
ffa8
0259
0373
0101
fe62
005a
0115
017e
fd2b
fdbd
fe97
016c
0073
fee9
fcff
01ca
0000
fde8
0099
01dc
011d
fe8d
01f1
fde1
ffd0
00ce
fed3
0038
015f
fed3
013a
0191
feb3
ffeb
fdd3
00fe
fcb0
fcdb
0095
0257
ff3e
00b2
fe09
fea5
0208
01a9
01c0
ff84
fd52
fcd6
00b1
fe86
ff9d
0229
ff34
00db
fee6
ffcf
ff15
fe92
014f
ff7f
00a3
ffd5
ff13
fe70
ff74
fdcc
017a
0095
013d
013b
001c
0115
fede
008b
00b2
0035
0248
0102
0101
0303
febe
ff1b
ff7e
0161
fdb0
ff8b
0099
fe6c
0019
fe83
fda0
0172
fe2e
ff69
00be
ffc4
fe91
fed8
0274
00c5
ff22
00ec
ffd3
001c
fd36
fcd9
015e
fe55
009c
00ed
012c
012a
025d
ff53
00df
fed9
01af
01eb
fd97
fcd6
0077
01ca
fe95
ff4d
028d
0105
ff3c
ff93
ff9b
0331
02ff
0110
019a
ff13
0135
ff2a
fff8
0139
025b
01c4
fe87
0120
01e9
014e
fdd1
ffbd
ffe0
00fe
ff36
00e4
004f
fee8
fddc
01fc
ff8a
0152
02d8
0018
ff01
ff86
fe29
ffa2
ff00
febd
0158
01e3
0232
00f7
fc2c
fcb3
ff3c
ff16
fe58
0073
fca1
014b
02ad
009a
0148
fea3
014c
01f8
ff06
fe61
0041
ff36
016d
fe9c
fded
ff06
fbc4
fcc5
fcf4
ff06
fed8
00e5
00f8
fe27
0099
0182
00c6
003c
ff81
fe00
ffb7
ff8a
024a
fe27
fd9d
fe09
00ff
fecb
fde7
0207
fff0
007a
0013
025f
009b
fedc
ffca
014d
fd46
00bb
fe08
ff12
fe3e
0146
0123
0208
009b
ffd1
025d
feaa
ff78
fe71
fea2
fdd8
fe5d
010b
00dd
fd73
ff09
fe09
fe2c
ffff
0129
ffbd
ffee
0086
0321
fe29
0126
ff01
fe21
002c
feaa
ffec
fe7f
fea4
fd7e
0024
fe44
fe93
015b
02a7
028b
0432
0502
0400
fea2
0291
004c
fe9a
fe1b
ff66
0141
fe72
ff78
ff99
ffcf
0050
fde7
fdb1
ff40
0037
0176
022b
ffff
035c
0063
fee0
fdd6
feb1
fe8e
ff58
ff0f
ff54
fe14
fd16
ffe0
0002
0055
0216
fec1
fe15
0100
021b
ff5b
015f
ff67
fee4
ff3a
0091
011b
0009
0078
0269
ff62
0184
feb6
014e
0001
ff6b
0079
00f7
fde1
0125
ff12
0197
015d
0140
01b8
fe8c
ffa3
006c
fe6e
0102
015b
00f3
fdc9
fdcc
fe7f
ff99
ff7e
fe40
014d
00fe
00c6
ffad
ffa2
02b4
ffe6
ff9b
00f1
014a
022e
feed
fe65
ff05
fd00
fd1e
fe68
0142
fe4a
0147
fefa
0073
0194
00e1
0058
0120
fe5a
fe3a
fff8
0188
0024
fee9
fee8
ff1b
00c3
028a
02a6
ffd6
0021
0164
0203
fea3
005f
0113
021b
ffcc
020d
012e
020d
00cd
0101
fd61
fd1b
ff8e
fcfe
fe9f
fd8f
feb5
01ff
ff33
fed9
fd48
fc57
feca
00b0
0009
01a9
00f8
fe21
ff70
ff61
000b
feb9
ff76
02bd
01d1
ffbc
fe4f
00e6
fef1
fd3e
fc7b
ffda
0180
fef4
0076
ff4f
fdef
000c
02c1
0273
03f7
ffde
01d3
00ff
fde7
fea0
fd42
00a6
014a
00b7
0247
01af
feb7
ff8f
ff35
ff90
fdf4
ffea
01da
011f
feda
0182
0015
ffb2
008d
0019
0083
0154
0241
01e9
ff34
00a6
00bb
ff28
005e
fe29
ffd2
fe58
fce7
fc72
fe96
ff27
fd55
01ec
fe86
ff54
ff90
fdc1
ff38
fea8
00d2
01d7
007a
0047
0022
fecc
027a
ff3e
031d
ff47
ffe5
ffda
00a6
fe75
013a
0124
01c5
0067
0032
01f8
00db
ff98
00f6
fe56
fce2
fcf0
013f
02c1
0047
00b0
0185
fe82
0264
ff48
fdf9
00df
00cb
fff9
00cf
ffc7
0074
005d
ff7d
011f
fdc0
fea3
fe72
ff98
0256
ff04
fd2a
01ce
0427
039c
0326
fea8
019d
0040
01f5
0223
feb4
01ba
00f7
fcdc
fceb
fefa
ff6a
ff2e
02a8
ffe5
00d6
ffb8
02e2
ff72
ff31
fde8
005e
ff5f
ff7d
ff83
020d
01c6
007c
fd1f
ffea
fecc
fed1
ffc4
0120
fe76
0016
feb1
fe61
fe7a
fe34
ff85
00a3
fe88
0214
02ea
01b4
0156
fdd6
fccc
fdfc
fe60
ff30
fecb
0117
0046
0007
ffd8
012b
fe17
fecc
fdcd
ffd3
0262
0056
fee8
ff36
01a2
fd96
017e
ffde
0093
009d
00fe
0035
fdcd
00d6
feac
011b
ff90
0119
fff0
fe3a
00bf
fee7
0255
0033
0173
01f8
ffbc
ff65
fe5b
febb
ff4a
fdf9
ff11
ffb7
02fb
ff82
fe66
fe00
00f7
00d6
ffca
014a
fe13
0198
0232
ff2d
01ca
ff3b
fe55
fdf5
fd21
fe54
ffb0
01b0
0087
fd83
ffef
feb5
ff29
0218
feee
fed8
0142
0223
0112
027c
0117
00c8
fcff
fee9
0205
fe9e
ff9e
0130
0190
ff21
ff8e
026d
03c2
feab
fe34
fe62
fe1b
fffd
ffe0
0125
ffdd
fe0c
fde2
00d6
fe5e
00af
01c2
fe76
005b
feb9
fe40
fff6
02ca
021f
00c5
fec0
0315
0004
003f
ffaa
0296
02cf
00d9
00be
00c1
00a2
ff79
01a7
ff49
0108
ff2d
fe27
0099
fd51
fe58
0140
0138
ffff
fe5f
fe85
021a
0098
feb8
ffc5
0220
016b
ff47
ffbc
001c
0028
0250
fdcb
fdf5
00de
ff25
ffd4
006e
ff8a
0080
0182
0046
fef7
fe67
ff42
ff11
0042
feda
fdab
ff84
fe09
0097
01f7
ff84
01fa
ffea
fd8c
fe81
0098
ff28
0146
fdc4
ff76
0074
003d
feec
01b9
fc96
fd30
ff81
0290
0202
000d
014e
0042
0057
025b
01be
0062
fde5
0014
021e
01e3
fef0
fdb0
009d
013f
fea6
0016
0091
fe0b
0053
ffdb
0226
00d7
024a
0263
fde4
ff3c
fe78
ff95
003c
feb3
fd01
002f
00d8
ff89
01d4
fe27
0087
0028
0266
fdea
febb
00d0
fe58
00ad
0120
ff1d
fedf
009d
fddc
feb1
0090
0256
fefa
fee9
0048
fe62
0272
012e
0393
ffd4
010c
fe62
fdde
ffe4
ff5d
fe08
fcfe
028f
0067
0060
fe7c
ff3d
013f
006c
feb4
feaa
0349
00e6
00f4
fde8
0085
022e
00a6
0124
0085
ff1f
ff1a
00bb
0001
016c
ff44
00cb
019d
0214
01a1
ff26
fdfc
fd74
fc94
00ad
ffe6
feb3
004b
01f2
fdf5
ff17
0022
0119
ff32
0300
030d
00f3
01de
01b9
ffd7
0318
fef5
01e7
0159
0039
fecf
010e
0129
fda7
fe4a
fdcd
0175
01b4
02dc
ff52
fd33
ff53
00c9
fe8f
fe9f
fe30
ff9a
ffe5
0195
015c
0111
00ea
01c9
ff3d
ffd4
0259
fe64
0051
0053
01d7
011a
0133
ff6c
fee7
fd53
01df
ff96
00e8
00e6
febe
ffc2
02bc
020a
0195
00fb
00f8
0299
01aa
ff46
ff5c
ffe8
fe7f
00e4
fe90
ff7a
fe7b
fdf0
ff48
00db
ff86
0230
fd51
fd6c
005a
00da
fea5
ff80
fd26
ffac
fe8f
fef0
ff0d
ff6d
0076
fec7
0172
00a9
018a
002a
fcd1
fd09
0271
0242
ffd7
00ff
00bc
00c2
01be
0118
ffa0
00ea
fd3f
ffde
fe96
01a5
fef5
0211
01d0
0001
ff1f
018b
ff52
ff04
00ab
ffbf
0238
0124
0067
fdaf
0333
0097
fe66
fdf6
fe7c
feb5
02cc
ffd0
0032
fea5
01d1
0092
01c8
0063
ffcd
ff15
0111
01b4
0009
0102
fe32
fe39
00f3
0144
00f2
036a
0097
fd0d
fee9
006e
0229
fdeb
00e2
0154
0259
01cb
ff4a
fcd5
00ec
0272
feea
0016
ffda
fddf
fee9
fe70
0222
fe3e
fe41
fb7b
fe20
003f
fdbb
fda3
01a9
fdfc
ff0a
ffc3
02c0
01fa
fe6c
fddc
fd48
00c6
fff4
0342
00c4
fd8b
ff42
ffef
0240
fffd
009f
ff46
fe5c
01f7
023a
01c9
0066
ff55
fe18
00b3
ffa5
0128
feb7
008f
002d
fd7d
fcba
fce0
ff9b
fecc
ff57
0263
00d9
ff0e
0113
022a
fe56
008d
01c1
02a0
0247
020d
02a3
01de
01aa
fdda
0146
fe54
fe91
ffe6
01e2
00c6
fdf4
0078
fe86
0173
0225
ff31
fe54
01ae
00a5
009f
003e
026d
0037
0056
0146
ff98
013a
fde2
00b5
0032
febc
00ef
fd39
fd3e
ff1b
004f
fe86
fe8c
fd8a
ff25
01d2
ff13
fffa
01cd
0300
034f
02d6
0141
fd2a
fd7d
002b
fe6c
ff63
0094
ff36
001f
00aa
fe70
02a8
0168
fec4
0247
014a
046a
fe86
fe17
fe47
ffe8
007b
ff63
fd8d
01d3
fe0e
ffae
0084
ff99
011b
028c
0100
00bc
005f
0239
ffc8
00bd
fe3a
013d
ffb8
ff0d
0033
fe23
00ab
ff9b
0170
fedd
ff81
fe4c
00b9
0122
0303
ff23
fede
feb4
0056
011b
ffe7
01ce
fe44
0021
007a
ffbe
ffbf
0000
0166
010a
0083
005e
fe99
ff2f
ffed
fe00
fefe
fda1
fe69
01db
0176
01c1
00f4
00a3
fdec
01e2
00e2
0291
025e
ff29
0115
ff94
00f4
fee3
fe07
fd9a
fff2
0033
ffcc
ffdf
fe81
0196
010e
004b
fe9b
0134
ff81
0100
fe83
01b7
0097
ffed
ff45
ff56
ffd6
000f
006b
01fb
00e0
006f
fe06
0089
ff37
fe85
fe5e
feda
0117
013d
0269
00f3
0165
021f
0309
0335
0177
fcb5
007d
0110
00f1
fee2
016c
ff07
01b9
01c8
ff65
feb7
00d2
fd97
fd95
00c9
015a
fd91
fecf
fe76
fcbf
0169
ffaa
0046
fe4a
ffac
fdbe
00a0
ff1f
ffd8
fe4b
009b
ff47
000b
ff4e
0235
0082
03a0
ff93
0159
fe9f
0043
fe22
fe35
fe7f
015f
ff2e
00be
01a5
fd6d
fe50
0236
00f4
023e
02ec
ffa4
0278
0195
ff5f
fd69
02af
ff77
ff8a
0074
fe85
fdf4
fe99
0146
fed9
0183
0135
fe26
fc6f
fd99
fef5
017f
ffe7
0091
ffb0
ff51
ff9d
01a8
002b
00a6
007d
ff5e
fe81
ffbb
fd01
ff31
0043
fe2a
fe08
fe36
0083
ff86
0185
03dc
fd89
ffb2
fcc5
0036
fdef
fe56
fde4
feec
fec6
fdcf
fe13
fee3
fe8f
00ef
0170
fe1e
024d
ff86
020d
ff6b
001f
ff62
fee7
002b
ff06
fef9
0155
ff98
000e
fe60
0144
ff24
fdca
ffde
fde8
0274
01d9
fdee
fe43
017c
00e7
02a2
0351
0079
fee1
ffef
ffd9
fe59
ffd7
018f
014c
ff28
fe28
0003
fdad
ff4c
00d2
ffd5
ffcf
00d0
007c
ff90
012f
018c
fed5
00c0
0221
ff3d
022a
0013
ff79
024b
0372
fed7
007d
0015
0309
0140
0055
ff44
01fb
ff22
00e7
ff69
01f3
02c6
031c
02ba
ffc9
ffa9
feaa
015b
fd10
ff25
fe57
ff6c
03a5
0361
014d
0093
fe1a
ff00
fe16
fdea
fd6f
0056
fef0
0019
ff77
00f0
0177
003c
0230
ff5b
0187
037a
032f
0219
00bc
00b3
01c4
00de
016a
fcde
00b9
0031
0049
014a
0225
0058
00be
00b7
febc
00d4
fd9e
0168
fefc
ffd7
ffbb
0087
01b7
00ae
ff77
fe0c
01aa
fe45
fee8
fe5b
fd1f
ff4b
000b
fec7
fdbb
0032
0026
022c
ff43
0196
fe0a
feec
ff95
fec2
fe98
ffca
002f
ff2f
fde3
fd00
0165
0020
00ca
fe89
ffa8
ff9b
fe66
014d
ffb0
01db
ffcd
00bd
fef4
0067
fecf
fdad
fff7
feae
fd75
ffd4
ffa7
0293
fff3
03cc
00c6
0190
009e
01bc
fe66
ff22
fe5d
fe9b
fe36
fed6
ff38
020e
002a
00bc
fdd1
ff3b
ff80
00c1
ff18
fde2
fe93
ffc9
fdc1
007d
0137
00dd
fe73
fdfd
0010
fdf5
fe84
01f4
fddd
fe50
01de
0162
0354
007e
00d6
fe13
fdc0
ff26
0130
ff98
0057
ff98
feaf
00ff
030e
002e
ff59
0109
0035
ffe0
ff03
01d2
0013
022c
014f
fdac
ff64
00a4
ffdf
0318
00de
0051
0068
fe57
fefe
fede
ffca
fe40
fec8
0106
fe8b
fdef
ff63
fe1a
008a
0101
fea4
0126
fe4b
01ab
ff30
01e3
0041
00e6
ff69
01f5
0199
feba
01a6
0028
fc7a
fe01
feae
ff2c
fe35
fe5a
012f
fe12
ff18
fd4c
fe53
ff95
01f9
0041
0013
00aa
0257
0085
0289
ff22
ff01
0165
fd57
024c
0192
0061
fccd
fecc
fe9d
fee7
ff99
fe3e
ffbc
fe49
00a5
fee4
ffc0
ff83
0046
ff79
0226
fd92
ff88
fee0
ff85
013d
019f
00f4
0110
ff10
00e5
006f
ff78
fddb
fbd6
fd34
fec3
ff01
ff3d
018a
030d
feef
fd41
fff0
0142
02e5
fe27
015e
00c5
0100
ff2b
ffef
ffc2
01d3
0128
01b4
02b0
02ae
0283
ff48
fd8b
0015
ffba
01f0
fdc5
fda2
002c
ff3f
016f
0237
0185
fe90
00df
0044
feef
00d1
00b1
01f5
012b
018e
fe0f
0260
0274
01b2
00f5
ffbd
0220
01c2
fea7
fd56
fdcb
0106
01f3
ff26
fe11
0105
ffcf
fe6c
fe94
0081
feb4
fdc4
ff12
0099
fec9
0211
0184
ff2b
0197
0254
0465
0026
fdd7
013e
feeb
0152
ff7a
fe5c
fdce
0055
fef3
fe11
ffda
ff57
ff9d
0044
0050
027c
00f2
0284
01ce
fe7d
fcb4
fe37
00e2
0087
0017
ff46
ff55
fd97
fe90
0077
ff9a
0048
0191
0200
016a
ff30
ff2e
fe36
fe52
fee5
fe72
ff55
008f
011e
0186
fed2
0060
fdf7
fefe
0187
fe51
0056
fefa
ff4c
ff8b
fce4
fcca
0371
02b4
022e
feb1
01d3
fef7
fd43
000f
fedf
00c7
0166
0084
0069
0177
fe4e
00ed
023e
01b7
fe58
fdf2
00d5
ffee
fe7b
019c
fd93
ff03
ffaa
0085
02de
003b
feeb
ff33
ff75
01de
fe81
0004
02b4
01ae
ffcd
0290
febd
fdd4
00ce
fe09
00c1
ffd3
fd7a
fd35
ff95
ff99
ffc0
0030
01d4
fe57
0217
0401
fed3
00d5
fed6
020a
ff8f
ff7b
fdd7
fd16
0079
fda7
018e
fdc2
ff4d
0206
ffd2
ff1c
01ab
02ce
012f
00d2
ff4f
00f3
ffec
fdd0
000f
0023
0230
01ae
fe73
0074
ff1a
ffb1
016f
008c
0062
0165
02a4
00ae
02ec
0041
024d
fdda
0035
01bd
0003
ffbd
036d
ffd9
006e
ff11
00e7
fe70
fe2a
007c
fd16
007e
fd45
00c2
0271
01d3
00e8
fe45
fedb
febd
ff17
0008
fe3f
fe4f
fe38
015f
ff4e
ff43
00db
02db
ff27
00d8
fcc6
feb7
0170
ff8f
fefb
ffcb
ffd5
ffa6
01e3
0057
008a
ffca
003c
fd50
fd12
ff77
ff3d
ff86
ffb1
ff61
00f1
ffbd
ff5a
fed9
fee6
0081
feba
ffdc
0201
0234
01ae
0396
003f
fe12
0053
0040
00d7
fde7
0089
ff5e
fca9
fc70
fd6c
fe43
0314
0051
fee6
0060
0093
0300
00dc
0037
0147
0226
0147
0010
008f
fd94
01a2
fdf6
fecb
0086
0283
ff59
0035
feed
ff81
01f8
01e9
00c2
00cd
02c4
0283
fdf6
fd3d
002d
fde0
005a
fdcd
feb2
fe1a
016f
0238
fe73
0059
feaa
ffa6
01b7
00ee
02cb
00a7
029c
0083
fd5a
fd9a
0131
0267
fe8f
0179
fe9b
fff6
024e
ffee
0276
00a6
fd10
fda5
00f9
0110
0084
0031
02c8
fff6
01cb
fe06
01a1
fed6
fd21
ff41
020d
034b
025b
02d3
ff6f
fdcd
ffa1
ff7c
ff6c
ffbd
0091
feb6
fe27
fecf
001f
008d
ff95
006f
00d3
0131
0158
fef8
015e
ff49
fe81
fdc1
0178
fc0f
fd7b
fc8c
feb8
01fe
ff1d
0090
feab
0175
ff6b
0067
ffef
ff74
006b
fe93
febe
0052
feb7
018f
fe7d
fe90
01cc
0126
00cd
0158
00cf
0005
ff49
fe26
fe2c
01f6
007f
fe40
0159
fe99
00e0
fec9
fe14
019d
ff73
02ce
00c7
033e
ffb9
00b8
01ec
014b
fd34
00ed
fee3
0219
01f8
01a4
ff6d
0072
01b2
008a
004c
02a0
0268
02f9
0003
fd99
fd6a
0147
fe43
0193
ff32
ff58
ff9f
ffc4
023d
0036
001c
fce8
fff9
fca0
fd56
015a
0237
01f2
026c
00ef
0033
012b
fe18
0035
0000
fec5
00f4
ff17
ff78
0086
008a
ff4b
ffd4
ffad
0137
016c
fde3
ffeb
fecd
0197
01c9
ffb2
fef5
01d4
fe4d
fe93
ffc3
fd9d
01b9
008f
ffb2
0122
00c3
fe0f
014d
fe9d
ffd6
005f
ff88
ff20
fe9b
01ec
0175
fcc5
ff88
018e
025f
ff83
fea3
feca
01b3
ff76
fe05
fe5e
fecd
0257
ff03
0035
02a1
0123
01a7
01f6
fdae
fef7
00dd
fef1
fe8c
fdd3
0098
0223
fde4
ff0b
0120
fdf1
016c
0138
0180
fe33
fd84
fde8
0133
fe78
ff40
0251
ff7a
00d8
ff99
00a6
00cf
ff41
fe54
0190
01b7
0209
01aa
fc64
0028
fcdb
ff5f
00ad
fcd5
ff11
002d
fea0
fdb9
00c2
0094
0157
00e1
ff6e
fff3
fec4
ff4f
0124
022a
fe8e
0052
fe96
fd8e
ff46
0124
fe62
fff8
fd37
fe6e
0161
fee9
ff44
001a
01d9
ff3c
0009
fd28
ffb4
fe39
0013
ff41
ff62
fee1
fef4
fed6
014c
ff6c
fc87
ff92
fe38
ffce
0186
0172
fdc1
0206
fed7
0094
00bb
fff4
015e
ffa9
01c8
0254
feec
0193
fe96
ff51
ffe5
fe50
0007
fef1
ff33
fd0d
fdba
0004
fe50
ffee
01be
0105
0268
028a
01fa
fdfa
02b5
fddb
ffce
01f9
0167
01e7
01d9
fedd
fef5
ff14
fbe6
ff4e
ff2b
ffc8
01a5
0215
00f5
fe96
fd54
ffec
0046
01d9
ffdf
fe7d
0196
0205
0234
ff29
ffa4
ff78
ff43
fde4
fe96
ff2b
0174
fed1
fd16
018d
0174
0079
0003
029e
02c0
0307
021d
fe7a
ffaa
ffca
ffea
fe95
fd71
fd26
feeb
fe6e
fd24
fccf
feb1
00b9
ffd9
fe4d
0094
fe37
0316
0269
01bc
fe2c
fe56
fe1e
fdf8
fe6b
ff63
ff4f
fee2
fdea
fe71
00dc
019e
fe5e
00a6
00da
fe5d
0025
ff80
014f
fed3
ff1f
ffa1
fe6b
ffee
0134
0196
ff0e
ff38
ff23
ff6e
0007
0012
01f1
027f
013d
fee7
ff36
ff64
ffac
ffbc
fcb9
01b8
feae
019b
022d
01bd
020c
000b
0188
00aa
ff86
ffcc
0295
0243
0110
fe24
ff55
02d6
febd
fddf
ff04
02ea
037e
0054
0280
0167
01d6
ffd8
fda1
ffef
005c
ff3b
0109
fef6
0085
0088
ffa4
fedf
ff26
0185
0265
0062
0141
fe52
023a
ffa1
0119
ff0d
0285
01e3
01a5
00e1
fe9c
010c
009d
fd48
010d
0185
fe03
01bf
fdd4
014b
fde8
fe74
fe5d
fff4
fe92
fed2
fe26
00e3
002c
0178
fcf7
fcea
014e
0016
03b1
00ac
fdfb
fe12
0030
0003
01c6
fe93
ff94
fe5e
fe48
0083
fd20
fd46
00b0
fe4c
fe99
fef4
ffaa
fe49
ff51
0150
0076
fd28
ff43
fe6e
0084
fe1d
01bc
ff8e
0080
00bb
003b
012b
fffd
fdd4
00c8
030a
0145
0042
01c1
0179
0192
0194
0279
001b
028f
ff6d
fe75
ffc2
fefd
fe9d
00c4
0008
ff43
013c
ff48
0055
ff54
0169
ff14
fea4
fef5
0136
ff91
00b0
01f3
fef2
fee5
021a
ffc7
008e
ff2b
0035
fdde
fdd8
ffd8
02b2
fe71
003c
fea9
ff35
0129
ff88
005f
fd45
ff08
fee6
ff34
0280
0046
0304
0412
0039
ff0f
fe32
ff69
fed5
ffc6
027a
0030
fd8e
007b
0162
0083
0052
027f
0017
ff01
0188
0164
0358
fe9a
fed8
fd83
fe1f
0175
0068
01f8
0062
fee4
0104
0205
009d
00a6
ffc1
029c
ff30
0269
ff2c
ff60
ff85
fd16
fe38
01b9
0173
0071
ff2f
017a
0018
fe87
0178
ff51
ffd1
0196
02f4
0339
0035
fee7
fe37
00bf
ff3e
01fb
fdd6
fec9
fff3
febf
0231
0002
fe4e
ff63
0029
ff28
fe51
001a
0087
0020
fdcf
fdb9
fe97
0243
007a
00a0
0193
0166
fd57
00d0
01b0
0053
02cd
0221
ff79
006e
0238
005b
0103
fe2c
ff44
009c
032e
ff43
00aa
ff7f
fce1
009d
ff17
fe85
005d
022a
ff4c
fe7e
012a
0218
0116
fd1e
febf
fd3f
fffd
fdc7
fdb0
0014
ff5a
fcb3
fe1f
0178
0191
fdb7
0088
016f
0297
0226
00ce
01e8
ff10
0139
fd85
fd73
fdb0
fdc8
fd28
0110
fc8e
004d
00cb
00c7
ff1e
ffed
00a0
002f
011f
fe6d
febe
ffcf
ff17
fcc8
fdf0
001c
0067
0147
feff
0038
00d9
fdde
fe07
006f
fdf6
ffde
00c2
0052
0158
0233
016b
02b3
0198
00b6
ff74
002c
0077
fe0f
01e8
030d
ff91
feaa
fd82
010d
fee7
fe72
02cf
ff99
007f
0080
01c4
009e
01be
0224
fe70
00b9
ffe8
00a9
0145
fdc2
0147
00de
0105
fe08
00cf
ff75
ffff
fd6e
fe99
fe00
0201
01bb
fefe
017a
00c6
02ce
ffe8
ff6a
ffa6
feea
00e3
fecb
003b
ffdd
0052
fe0c
01bf
ff0b
00e0
ffda
fe99
febb
0194
00da
ffb8
003f
feab
fe20
fde7
0105
0115
0002
0165
ff78
008e
ff73
fda5
fe8c
0059
feee
00b0
0178
ff73
fee8
00e4
023a
02b8
0044
0183
0242
fda6
ffb3
ffb3
0185
018d
00d6
fd9e
fdad
009e
01af
fe0f
fcfc
0077
fed5
02c7
00ba
018a
fec5
fd43
00f7
01f0
02c4
01f7
01dd
fd77
006e
ff67
0290
0363
ffdf
fc99
fff7
fe15
0228
ffc7
0275
fec0
ff2d
fe11
fe58
ff7e
01f5
0102
0122
ff35
fd2c
ffe4
00c6
fde9
ff29
ff96
0093
ff6a
0155
01fc
fe88
fff1
ff76
028e
00f0
01e4
0102
ff3f
020d
fea6
015e
01ec
014c
fd6d
fefb
ffb2
feb7
fffe
0254
009c
01c1
004e
ffd9
016a
01f4
0153
00dd
fe1c
ff64
019c
01c9
02c7
fbab
ff7b
0082
01a9
ff88
feac
ffb8
ff92
fff8
015f
016e
003e
0217
feaf
fc9d
ffe2
0237
02d6
0163
0192
ff4c
fe7b
0003
feab
0081
01fa
ffef
fff3
fd8e
fefb
01a8
ff09
004e
ff35
002e
001b
0267
fe4f
fcd9
00e7
016f
0029
feec
023b
fed9
01f5
fe3e
fdca
002d
ff95
009b
fdd1
fedc
01f9
ff59
0034
fedf
01b4
02db
01e6
ff44
fe7c
ff91
0146
fdf8
fd98
fea1
0052
00ce
fe58
0192
fe6f
ff9b
01f1
0172
0389
00b5
0060
00db
ff0d
ff1f
0229
fd5d
001b
fe88
017a
0095
011e
fdd7
fefa
00bc
0267
0148
00f6
02c6
0130
00ab
00c9
fee5
0102
ffda
fff4
fecc
00c7
0056
01fd
01ad
ff1c
00b4
fd7b
0110
ff90
0226
fefd
ffa8
fd8a
0011
fdac
ff86
01fa
ff0e
01c1
006e
01f2
0182
0094
fe7f
0390
00a4
ff35
ffa5
ffdb
fe1f
0209
fdb4
fd22
013c
ff91
00cc
fed9
0177
ff4f
ff51
001b
ffa2
fe0a
02a0
01a3
fdea
fd9a
ff51
feb8
02ae
02a8
00cd
00e9
fd6a
014e
0149
002f
fe3c
022a
0178
fe3e
00ed
002d
00d4
01b4
ff0f
ff77
0094
0234
ff76
fe13
ffc0
005f
ffd1
031e
0015
00e1
fd7d
ff6d
fff4
021a
ff12
0123
fcff
fe61
fe83
0177
0075
01d6
0006
01bf
ff3a
0064
01c2
012e
ff51
fdc3
003d
fdc5
00aa
017d
fed0
fde0
fe39
0257
ffec
fd74
fd12
fe4f
009d
00e4
fdb3
fd8e
0042
005f
fd75
fdae
ff41
01eb
004b
fe81
0051
01e8
0135
025b
00eb
01f8
fe2e
fde0
fd57
00dc
0124
fe4e
0177
fece
0196
fe31
0053
ff59
ffd2
006a
ffc1
fe98
ff64
00df
fcd8
008b
ff22
00e8
fe49
ff7e
004c
0024
fe07
00d8
0039
fe3a
ff51
ff45
fecd
01a9
fd63
fda1
008d
ff82
0113
0141
feab
012a
fef7
0216
fe18
0008
01c4
feef
0063
001c
ff94
0009
fe45
ff55
ffc2
0285
ffa2
ffff
0062
0064
fd94
01d0
0126
0199
00e3
fdb7
fef3
fd13
fc70
00d0
0241
01a4
009b
fe9c
0014
0165
ffb2
fe6d
fe1c
01e2
01db
013e
01c8
00a4
fdd4
fe6d
febe
fe7e
fea6
0291
0373
02e8
fe72
fed5
ffcf
031f
0177
001b
0134
01e2
fe71
fdee
fd6e
fe51
0113
ff5e
00f6
fe9b
00fd
00df
0104
ffa2
008d
0245
01ae
0179
0048
feff
fe6b
fe32
000f
ff86
fd0e
ff58
ff99
0156
00eb
ff19
01e3
00fe
0103
0205
0067
fe60
fec4
ffa2
ffef
fef5
ff67
fed3
fea8
ff76
0135
019a
ffc8
0042
ffd2
00b6
01f6
010b
03d1
00e0
01b8
01c5
fdfb
000f
fe6a
0051
ff8e
00ba
002d
fe58
fcfb
fed9
00c7
ff56
01f1
01b8
020b
ff7d
029e
026b
0210
01c9
0239
fe71
fe6e
018a
fdd5
fd93
fd19
0184
013c
ff8e
fe1b
ff61
ffc6
0082
ff23
00ff
fd81
ff0f
fe46
fe02
0247
0175
01d8
00fe
fecb
ffd6
fe52
fe26
01c5
fea9
ffed
fdb2
fe2d
fddf
001f
012c
01d9
015f
0113
feda
fdda
004d
ff56
0033
0200
ff72
fd1f
fec1
ffb1
0071
fee5
fdf5
fcc5
fe77
fd5a
ff9e
ff59
02ba
fe23
006e
0167
ffca
0045
0126
0254
024b
fd9d
fdc9
fdb0
ff0a
fe55
ffd5
fe78
fe0e
ff32
ffd2
01dd
fdbd
000b
0163
fef5
ff93
fe04
0245
0093
01bf
ff77
017e
01b2
0246
0161
0028
ffe0
02b6
00c2
fef9
0207
ffd5
ff11
fcfb
feac
0190
0158
00cd
fd7c
0035
ff17
02a6
01be
0012
03c5
ffdc
01c9
fdcc
00aa
fe49
ffd8
026d
ff92
fe6e
01f5
02fb
00cb
0201
fdb3
fe18
0144
0037
014b
013c
fef7
008a
02b8
02f4
00b6
ffaa
01c6
ff88
ffd8
009e
fd76
fe18
fe0f
fddd
fdaf
00ca
fdfb
0041
ff59
0222
fe50
fd32
fe5d
008a
fded
01c8
02cd
01ce
ffad
030c
ff90
0018
009e
fc7e
fdd4
00b8
fef6
fefa
01f2
0097
fe8d
0217
fffc
001d
fe4d
0326
017f
ff06
fdb4
fdae
0048
fe94
feed
fcb2
013d
fe68
0213
0155
fdc6
023a
020b
02bf
0286
fe21
ffb8
0200
00a9
002b
fcfa
ffd6
00f4
0177
fe2c
ff9d
01a2
ff17
0093
fee2
fcc4
fd72
00c3
ff73
0250
0054
00dd
00c7
00d0
00ce
008d
01ad
ff59
ff85
0266
fe2c
0106
00f1
fe2e
fe70
fec4
fe51
01b1
fef4
00b3
fdbd
01e8
0078
0034
fdd4
ffa5
ffa5
ff3d
00f0
ffd9
0320
ff8e
016a
012b
0089
fefa
0143
00f8
fd6e
006f
fe03
fe0d
fdd3
fd59
008a
01e3
fd6f
ff53
0023
ff01
0023
0275
042c
0056
020c
0239
0178
0085
0040
ffeb
ff75
fe07
fed7
005f
0163
fe41
ffb4
01da
0029
007d
fec0
03ae
00cc
024c
027b
fde7
008a
ffcb
ffa5
fefe
fd3b
0176
0026
fe85
ff1f
fe9d
019f
fda1
ff69
0097
0317
0146
ff5d
00e6
feb9
ffa9
015c
fea3
fd83
fecc
fd88
00d9
0107
02f4
fee7
ff80
0108
ff38
0118
0027
000d
fde3
00a9
ffe6
020c
feab
ff05
ff0d
01b6
fe2f
0179
fe9a
006e
0191
fc81
fde8
fd3e
fd24
00e8
fd9d
000a
fe32
fdc2
ff18
fe8e
fe68
ffb5
fdb7
0091
0049
0080
ff59
ff6f
ff14
ff91
fe83
0070
0187
fdbd
ff28
0009
024a
ffc7
fd82
feb3
feb2
ff8c
01f7
005d
ff67
012c
ff43
0162
022f
ff53
001e
fed8
007a
fe71
013d
027d
ff4a
00bf
fe77
031d
ffcc
0120
fd9e
feb8
0185
00fe
ffd1
0140
fe5f
ff2f
ff27
00d1
fe57
ff2a
fde0
fdea
ffda
fdd2
0064
0137
ff9f
fce3
fcd8
fed8
fd75
00ec
0087
ff8e
029f
00f5
014f
00ff
fcb6
fd7d
fe0d
fe44
00e0
0075
ff93
ff21
ffb5
01dc
fee2
fe50
0109
0202
ffad
ff6b
fff6
008d
0056
fd67
ff40
00c5
ff9b
01b9
008f
0120
0231
02a9
ff6a
02f0
0142
fdc9
fd18
fed6
0258
0293
fee3
010b
ff70
ff33
00e8
0232
0264
fe83
0184
00c3
0077
0227
fddd
0342
ff38
00a4
000b
0032
feb6
011c
0046
0270
0026
0331
02f8
0181
027e
feb9
ff8d
03c5
0126
01ca
0046
014c
ff74
0291
00b9
002b
fec0
fe11
ff99
002c
0093
0039
ff09
015d
ff2c
026b
ff2f
00ec
0101
ff54
ff94
ff83
ff41
02cb
0023
0360
0157
ffc0
fe87
ff1a
fd5b
ff9d
fe7b
fe92
ff3e
0022
fdf2
fd83
ff85
0001
008a
0201
fed1
005f
fe2d
fd81
0128
fd48
ffed
00c7
fff4
0078
fec1
fcbf
ff12
ff3a
ffa2
fcfd
0188
022d
ff58
02cd
0043
ff71
fe3a
fcfe
ff5a
fde4
ff38
ffb1
ff15
ff05
fefd
fe01
ff93
ffad
ffb4
0040
01d1
0005
021a
0097
ff2a
00ed
01b6
003a
ffe4
fe58
010a
0176
0350
ff9f
01ea
feea
00b4
00b8
017b
01b8
ff36
fd99
0110
0196
01b4
ff32
ff42
ff30
0199
ff46
00a4
0295
ffc1
0308
02d2
00e4
0137
0130
0147
ffd7
010b
ffb0
ff35
ffd6
ff10
fe6b
ff26
ff1d
006c
0102
0011
022d
0169
ff26
0224
ff4e
fee4
0077
ff28
018e
00ef
ffa8
02ea
fea0
ffc6
033e
01d6
017e
0089
fe77
0051
0009
fffd
013f
039d
0036
ff3e
0165
fe03
fdea
ff23
fee3
fe5f
ff51
ffce
01be
ff70
00fd
0012
fe09
000f
0200
013f
027e
ffdc
ff14
fe63
fdd7
fd1d
0132
013c
ff44
0083
0217
fedc
ffd5
005b
01e9
0007
ff4b
00d4
00ce
fe17
ffa6
ff1d
00f7
007b
029c
01cf
ffb3
0154
fe63
003c
01ac
fd9a
ff16
fd87
fe9f
fe77
fde3
002a
fd58
01ad
01b3
00c2
feaf
fdd0
fdde
fea7
fcee
fcb6
01f2
0265
01d8
0131
ffba
008d
fe7d
fdc6
ffb6
0138
011a
fe1a
fd8a
fedc
0199
0068
03db
0108
fd6b
00ab
00bb
fcf8
0024
fdee
00e7
fd9c
00ca
fed1
fedd
00c0
ff86
0099
002d
0158
004f
0191
013c
0033
fded
fe59
ffb8
0150
fec3
fd3c
01e1
ff22
013c
00e7
fdb2
fd53
fcee
fee0
febb
fede
01a5
01e6
0113
0101
ff77
fee4
0101
ff1d
0087
fefc
024b
0203
02f2
ffad
ff36
fee9
ffad
fe92
027f
016c
0061
0110
011d
fe20
01a5
ff9d
fe6e
00b0
0137
fe80
013f
ff8f
fed8
fdcf
00c4
0119
013e
015d
fd96
0055
01c0
ffe0
ff7b
fee9
02ae
00aa
020e
00e6
0273
ff73
fe5c
ffcd
ff7e
ffc9
ff8d
01d1
0091
0049
0048
ff3a
ff88
00c9
ffcb
005c
0207
ffa2
ff15
019e
02da
0206
0220
00a7
012a
fee6
fe47
01c5
ff56
fe12
fe79
ff7a
ff2a
fe41
ffbc
008e
ff98
fedd
00e4
fead
0064
000e
01f9
020a
fe44
0234
02ef
02d2
01e3
fd4b
01f2
fed1
fe40
00fd
ffd1
020f
fdc5
0118
ff12
ff03
ff54
fda4
001f
00d8
fea8
00e8
02a2
ff9e
fffb
feb4
ff57
00b7
002d
0082
0109
0099
02ba
fe7f
fe82
0203
fdda
01cf
00bf
0127
fec0
0071
0142
fed3
ff43
fd91
0003
ff86
ff91
0270
016a
0168
ff8b
fdfa
ffcc
0179
00ce
011f
010a
fe21
ff46
fbfd
fe42
0187
0171
ff41
00b9
fe8b
ff78
fec0
0237
0084
fde6
fca1
fdd2
ff7a
fef3
013b
fe71
fdef
fe8a
0283
ff51
025a
028b
023f
fe68
02a1
0024
029a
ff72
011e
008b
fea5
01b7
ff9e
00e7
ff07
ff95
0222
013d
00f8
01bf
ff18
01e7
0243
030c
ffdf
ff2e
0179
ffe0
fe99
022a
0058
fea1
fd5e
ff99
ffa2
01f6
feb8
0211
01f5
004b
fe60
fe33
fff6
ffcf
013f
ffd3
ff9f
ff2b
01e9
ffd0
00ff
018f
0181
feac
fdc9
fd48
00ce
fec0
015f
0141
fe89
ffb9
009c
fe46
fe34
0219
