fc32
0171
037f
0237
ffd7
023a
fe56
02f5
fea0
04b5
fe1c
029e
fce0
fd32
ff62
ff2e
01b2
fa32
fc51
fdd5
fd37
ff5a
0360
ff6c
000b
00b2
0150
0000
ff58
fee3
fc72
002a
0307
0601
0138
fe8d
fb73
ff55
fbee
01dd
ffed
02c7
ffd9
ff6c
03aa
0204
031e
01c5
fdfd
00dd
fdaf
fc6d
010b
fde3
03ae
ffd6
fe67
0036
fc62
fc7f
020f
029a
0032
facf
023b
03b5
0383
ff93
fff5
02c6
ff15
fda3
fda3
fddf
fccf
00f9
fb62
fdcc
038c
01cf
fa8e
0461
fcc5
040f
fc2d
ffbc
005a
fc4b
fb3d
00cf
fd57
04dc
03c3
0226
04be
006c
fbd0
00f6
fef7
fce1
fd5c
fb67
043a
01b1
0407
fbe6
fe59
0084
fc1a
0356
fd3e
fcd5
0075
0100
02de
ffab
fbde
feba
febf
0141
ff7a
02c6
033c
0358
fc99
0089
fc62
00ef
fedc
0327
fd1f
0128
00a0
fca4
01e5
0057
0141
fdb1
ffdb
fd3e
033e
ff4d
03e6
fc52
faaa
fcf6
0156
0431
00be
fc2f
fc6f
fd3c
052f
037e
0180
fdd0
020a
fd5b
043a
002a
0388
0350
fbe7
fbd0
fdbf
01fe
fc9f
0474
0171
ffd4
023a
01f5
007d
04ed
ff3e
febe
0149
ff0c
04ee
fcdf
fb1d
fd74
0323
fe91
0292
fed0
01fb
03d0
0011
0329
0266
fe0c
0106
0310
fc28
0120
00dc
fbcf
fef9
008d
fc6b
fcb0
fcdd
002b
00d1
fe36
fd3a
fd83
00f0
027b
fb5f
f9c6
fbec
0003
fd91
ffca
014c
00f4
fdfd
01a7
ffdd
0409
fc01
020f
fec7
fed8
fb50
fdaa
021c
048d
01d0
00e2
fd99
fc86
ff65
fc2b
02f0
ff28
fc05
0327
ff9b
00c6
ff5e
fc18
fada
0390
febd
feb1
026f
ff59
0000
022b
ff65
feae
fdc3
fca3
ff12
032e
02a2
ff0b
030f
006f
ff1b
00b9
ff80
fb77
fc7d
fbdc
fd27
fdb4
ff2c
039a
fd67
ff1a
fd20
fe1c
fcab
012a
009e
fb86
fdb9
fcee
ff28
fc70
02ea
fd10
fcfa
030f
01b5
0307
005e
fc61
fe0b
0079
03af
012f
fd8d
fa02
fd71
fc30
04bb
fd9d
0032
fcee
fea2
01a8
fe75
030f
fbea
02ce
03ac
fdc2
008a
0048
fc2e
ffa9
fdfc
044b
fe67
021e
face
00a1
fb9f
fd0a
ff55
fe8c
02a6
0282
03c7
049f
fef2
fc7e
ff8d
0513
048b
02bb
00a2
fc7c
ff68
035f
ff3f
ff6a
011b
fcf9
ffad
ff0a
fe8e
ff48
fb34
fdb6
fe79
0314
0201
ffe3
0459
fe43
030b
fe42
fec6
04c4
fd1f
0175
fcad
fd10
fb43
fabf
007c
026c
fda7
fe1b
01ce
fd67
ff05
00ec
fae8
ff69
fb66
fe6c
fd3e
fae9
0388
0269
ff4a
fdde
00e1
013a
02d4
ffb4
0247
fea5
03aa
01dd
01e3
fff6
fbe1
ffaf
fc9c
fe9a
0552
fc9e
fdfb
ff0b
fc6c
013f
0782
01c3
fe4b
04d7
002c
0043
01f7
017b
fd96
fd43
058f
02cf
02de
0019
0432
0194
002d
fec6
fee9
0261
0322
fd6a
fd23
04d4
027a
fbff
fe5e
fbf0
fcd2
015b
fd25
021f
019b
04bb
0076
01a9
febf
fd90
fff7
ffc8
05d6
0385
0095
00af
fcb7
fc90
065c
fc1b
fe97
fba8
fb63
02de
fe90
0345
00df
fd3e
fefc
0404
01d7
fe0b
00c0
0096
ffd1
015f
ff74
0459
fe1a
04dc
01cc
fe5e
ff52
05f2
01d6
ffc0
01fa
0314
034b
0395
fc4b
fd13
ffb5
fd3e
fd6f
035c
0058
039e
fe65
01b9
0360
0474
fe10
0169
fd4f
03c9
0343
0115
052e
0215
0329
0438
ff0f
fd09
0250
015e
0278
fef8
fe3c
01ca
fe25
fbff
fdfb
03d3
04d0
fd28
fca9
fb38
0385
0007
fb0c
0422
fdab
fe49
fee6
0284
0288
00e8
0262
ff0c
01a4
032c
fbc9
0352
ff61
04d4
ffd6
0063
01c6
fb63
fd35
fb99
037b
fd0a
0395
0127
fc12
ffbb
0311
ff9b
fb2e
0154
02aa
ff1a
0450
04d2
fdc9
fbdd
fd83
fe9c
02c2
03c1
fe18
ff75
ff8e
0182
00c7
fe4f
0005
ffc7
fd56
019e
fb90
03ac
ff9b
02a3
027d
0385
0198
00f6
fd8b
fc4f
fc1b
ff98
fefa
013e
fc75
fc2a
0072
fed8
fd95
000a
0266
0303
033f
03d7
ff78
0441
02af
fb09
fd70
0603
004f
02a6
fd3f
fb36
fe06
043f
ff98
0035
ffb4
fe2a
0410
020c
fdfe
0047
013a
fb2c
fb71
fffc
fc1e
fd96
0433
fcb9
03bf
fcca
00fd
fe78
0000
fd0d
ff78
fd50
02dd
ffbf
01be
fec3
fd9e
ff33
046e
fda0
052a
046b
0395
ffac
ff16
025a
ffd4
05b4
ff7c
0189
0472
fed3
ff58
0028
04a7
fc84
fcdb
0340
fe87
00e0
ffbe
002a
03ad
fd95
0580
0353
03fa
0459
009a
01c0
fecb
fe67
00a1
0016
fe73
0158
fc23
026b
020e
02e1
038b
02c0
fcfb
fec5
ff3d
02f4
fec2
0520
fe5a
01c2
fd73
fe45
040b
007d
03a0
0091
fdd6
fcb8
fdf8
00cb
fde7
ff16
012e
fca7
fe14
04c6
0128
022c
fdcf
ff85
fc33
ffe0
fe33
0419
fd5e
0096
0437
03fd
01d9
fd1b
03bf
0115
01f6
03c6
0200
fc2f
03f7
fe8e
ff69
04ff
0004
feaf
01c4
0164
fc1a
fd4c
04c1
fd53
fc1c
fcb9
0158
0514
0046
ff7f
fdc7
047b
fcf0
fd07
0195
0256
fed4
fced
04c9
fd11
fd76
fd83
fe7c
fff3
fd10
0253
0518
fd36
fcf4
0304
fe87
047f
fd7c
fdb5
02e4
fb30
fd80
fff9
fc61
fdd0
ffe6
ff93
ff2d
fe7e
fb6c
0274
fe95
fce6
0027
0100
fefc
020a
00eb
021a
01f5
0358
fd55
034f
02d6
03de
ffc1
01fb
0401
fe2d
0290
026d
006b
ff41
fcbf
fb06
fef0
0122
0022
fe80
fd67
fb3e
fba3
0484
0175
fce7
ffce
01c6
0147
fefe
fefa
fdf3
ff50
fbd7
0116
fb23
fbad
fb63
0051
fbef
ff3e
fc8e
0284
00a0
0067
01ca
fce3
0007
fc3e
03c6
04b6
ff9e
021a
fde1
000e
ffd8
05a8
0218
00a8
fc45
fbd5
029d
04fe
ffc6
0049
031b
0097
03bd
0573
ff13
ffbd
fd3f
00a9
030a
fda3
0056
01e4
04bf
03d6
ff48
ff6c
03cb
00c8
0098
fc06
0156
00a2
ff04
018e
fef5
04c3
00bf
ff5b
fe19
00da
02aa
ff65
013e
044e
ffb0
026c
025b
0102
fefd
0103
01d5
02fd
fef5
fd4c
fdbf
0446
ff75
fdd9
fe74
02d0
fdb9
fb12
feba
fc5f
0275
05ce
fd40
fd40
01b8
00ae
0480
0230
0148
fd44
fd3f
ff32
fb91
0429
0332
fcb2
fd9e
feb3
fe28
ff3e
04e4
01e0
fed1
01d8
fee2
02d3
fe1b
05ba
fe86
04cb
00ca
fbe2
fe22
fdb6
0257
0530
ff0a
ff38
008f
0107
019c
fec9
03f4
003f
0254
0154
ff6f
023c
fcbe
0067
034a
ffb8
fc2e
fd2c
036d
ff71
0354
fb9b
017a
00f2
fe8d
026c
fa31
fbbd
0450
01b0
000d
fc8a
0056
0435
fdb7
fe1d
fbd6
00ce
ffc1
01ee
01e1
ff6f
ff2e
faa5
049c
ff62
0011
ff7f
021a
fe48
fcad
03b0
fc6d
fe2d
fda2
fdbc
fde4
016f
0032
ffb4
ff0e
ff7f
ffbd
02cf
019a
fc40
ffe9
0335
0393
02bf
03ac
0129
fc57
03f3
fce7
00d1
fcbe
03c8
faf2
