ff61
014b
006e
fe3d
fee3
ff14
feab
00da
003b
fd33
0098
0031
008f
00ce
0190
0164
febf
ff1d
ffc5
fe3e
ff6f
0069
01aa
0069
00fd
018f
008c
ff4c
0059
013c
ffd1
ff7b
fee1
fe6d
0162
ff43
ffd0
00f5
fec6
02c1
00ff
01af
011b
0210
028b
028b
ffb1
013e
ff26
fe17
ff6e
fdd9
00d5
01b8
0130
fe87
005b
fe61
ffc6
0174
00e1
fe9b
fdb0
ffe0
ffff
0090
ff92
007a
01be
018d
ff26
0190
0108
ff43
fe04
fd7a
fe6c
0059
0259
01c8
0013
ff68
002a
02d7
015c
036a
02ae
01e5
00b6
fdf9
fe9d
ff51
fe6a
ff85
fe56
ff82
fe20
fe46
fe42
0000
feb6
fed0
0000
0003
00ab
0118
fdeb
feb2
010e
0010
014d
0051
02e1
026c
025d
0261
02bc
0100
02ee
0192
0240
03f3
038a
034e
01ce
0302
02e4
015b
fede
00a5
ffad
fd80
0079
ff9c
fee5
00cb
0053
0132
0077
00e9
0063
fe44
ff1a
ffc9
001a
0041
fde2
0172
014a
007b
feef
0019
fde7
fcd6
fdf4
ff57
ff9d
00c8
00b8
ffb4
0277
0281
00ec
02ad
01c3
01c5
ff42
ff29
feed
ff95
fcea
fe19
0133
ff12
ff7b
015a
fe34
fe0e
ffc7
013f
fee2
0037
feec
ff2c
ff14
001e
ff3f
ffdb
0296
ffcd
00fd
ffa9
ff5b
001e
0217
feea
001f
fe4c
ffe1
ffcb
00b6
fee4
ff1f
ff29
ff4c
0140
0050
ff5d
01ab
fe1d
fe65
0057
ffec
006c
0123
ff1f
ff9b
ff1d
0026
ffec
004b
00fc
0006
fdcf
fe43
007d
fef0
feeb
018b
037d
0378
02ed
ffb5
ffbf
01c4
000b
00a3
00ae
017f
0195
00e1
ffac
007e
00cb
0192
009e
019a
0076
01f1
00e5
ffa1
0184
ff86
0020
0067
fecc
0053
00c6
01dd
ffee
00b9
fdc1
fe98
ff06
fea5
005e
fdcf
ff9a
ffb2
0132
ffd7
fede
0091
ffc2
ffcb
fe4c
0011
00b6
fe43
fecb
ff2a
fd9b
ff79
feca
005d
000d
020b
02d2
ff71
fe2c
fe3d
ff19
0011
ffde
ff95
0102
0064
0060
00c4
feb0
fdbf
009c
019a
fdd2
fd1c
fed2
fe99
0088
fedc
011f
00e9
0046
0171
0019
028e
00fb
ff2f
0130
ff6e
feb8
ffce
fe6c
fe98
fef3
ffad
0151
0071
ffde
feb2
ffd9
fe63
fe8e
ff02
ffed
fe74
fe3f
00cd
01ef
fe6b
fe9b
019e
ff91
0097
00bc
ff7d
00f2
ffc9
0064
015e
ffdf
fefd
ff0d
01f9
feed
fd91
feb8
0026
010b
01f0
01e9
fe25
fe46
fdff
ff61
feb4
ff65
00e1
01c3
005d
ffe6
ff63
fd12
0033
01d7
0078
ff40
ff3e
002a
0181
ff5d
feff
0278
0182
fed2
027e
029b
0209
028c
023e
0156
ffd4
fe88
0057
0125
011e
ff6a
0102
000f
fead
ffca
fe21
ff8b
ff30
fe50
fe61
ffa3
fe22
0006
0006
0003
ff1e
000b
fe6a
0136
0039
ffee
feeb
ff2e
fedf
0082
ff0a
005e
00e1
0140
0110
02c2
031c
018b
016a
fd4a
fe37
fe41
fe18
fda3
fffa
0053
feca
fdde
fe35
ff2d
ffbe
008f
ff8e
ff93
ff1c
0051
ffb8
febe
ff8e
fe2e
ffa5
0104
ffd6
0098
0152
00bc
00e7
ff40
ffc9
fec6
fec2
fec3
ff80
01cf
034b
03e7
0220
00fa
fe0f
0076
004f
ff59
0095
0142
0058
00c5
019d
ffd7
018a
0298
0221
00f2
009e
ff15
0232
0020
ffe8
0209
feb7
fe70
0012
008d
ff5c
ff44
ffa2
feba
fdfd
fe72
00e8
0083
0148
ff06
0154
0162
fe91
ff53
010e
fd77
fe0b
fea6
ff3e
ff6b
fde4
ff8a
fe04
001d
feca
00ba
01c8
01ef
0008
0074
fe28
feae
00e8
0217
0100
0130
fee7
fd40
011f
01ab
012f
ffb1
00bb
00b8
ff59
002a
ff7e
008c
ff25
fdc5
fe72
00f8
fe9f
0042
002d
ff8e
fefe
00c4
ff82
0122
00db
0234
0043
024d
0108
fee2
ff22
ff91
007e
020c
01e0
ff53
ffc7
ff34
ff39
00c3
01e5
fee2
fd27
feaf
007e
017c
01fd
007a
007a
01b3
0242
0085
fe1a
fe69
fdc0
00ae
0016
fff6
ffa7
000f
00ef
ff34
0038
ff73
01d2
0055
0093
00b7
ffd0
0076
fff1
0091
003d
ffd8
006f
00ac
fe47
0165
003d
0204
ff74
fddb
feda
0211
ff8f
fee4
008b
00ec
ffd0
feb1
ff2e
0152
ff79
0094
fe91
fe3c
01a5
0049
002c
0200
ff39
febb
ff15
0017
01e3
ff99
0170
016f
001a
01ac
01f4
0294
00ac
fecf
fe4c
feca
fdda
ffb1
0020
ff16
ff3f
00f8
fdc3
ff38
ffb5
01d9
0129
ff2b
0042
ffb3
01cb
fe4b
fe7d
fdf6
ff1e
00e5
0061
feef
fefa
002f
005e
fd5d
fd2e
fe5e
fe75
0129
02a8
007f
004d
0025
0092
001c
fee1
005e
004a
fe7b
0153
ff7f
024d
fee7
003b
fea4
fdaf
fe31
01a5
0212
01c4
0012
fd98
fc95
fc92
fd00
0004
fdff
ff30
ffd5
01ba
00e4
0075
0003
0081
fe19
ff44
00c8
fef7
00c9
0027
ff24
fedb
fea0
ffac
fe0a
fe47
ff5b
0047
ffc4
0132
00ba
ff0b
ff0c
ffc9
0020
ff8c
011a
ff85
fee8
0015
0045
ffc8
0003
fefb
fde7
fe60
0149
012e
018f
ffac
ff05
0193
01b4
fefc
00c3
fe42
ff24
001a
fead
ffff
005a
fe9c
ff27
00d7
00fa
feee
0134
ff39
00c8
ff2d
0080
feb1
fe06
ff5a
fd02
ff07
0000
ff90
fff8
ff83
ffc9
00c4
ffd3
013c
019b
0240
00de
01af
000a
ff25
ff64
00c2
fedd
010f
009d
0165
00d9
feea
fee4
fda4
feec
ff29
ff80
feb9
ffaf
01af
ffd3
006a
ff54
ffb3
0110
0281
024f
ff95
fe1f
fef9
0034
ff74
0105
fff9
000b
021f
0203
ff92
fff0
feca
00f1
ffc7
0032
ffe8
ff43
0053
fe1e
ff7a
fef3
fdcf
fe6b
ffc1
fdf8
0031
ff72
00b3
0038
ff3d
ffa5
0037
ff1a
fe0b
ffa0
013a
017c
005b
016e
0076
fe53
fe21
ff8c
fe3a
006a
0156
febf
0046
fe9b
ff7f
0056
fe10
fe2e
fe0f
0162
ffc5
fee5
ff0a
fec5
feda
0021
ff29
00e3
fdd6
00ec
00cd
00dd
0060
008a
ff8b
fed5
018d
000d
fd86
fed7
ff2a
feb1
ff57
01f6
0103
ff2a
ff5f
fff5
ffc0
ffb3
fe48
00e2
ffb9
fdd1
ff47
006a
00e5
0014
0085
fe40
ffeb
feb1
002c
0043
fe91
ffcb
fe54
ff96
0058
014f
0054
ffe8
ff90
0148
01c8
00cf
ffe8
fe65
fecf
fe8d
fef2
0086
01c8
01ba
00a1
0122
ff8b
ff68
00b1
fddf
0114
00e6
fd3a
feb7
fdbe
ff26
008d
00de
fd61
fecc
fe66
00f8
ff1b
0174
ff13
007a
00b4
00f0
0040
fee6
fe76
ff6f
012f
ff3a
003b
004a
ff16
ff7e
ffb2
ff06
0099
0005
0084
ff34
fe23
fe57
fec8
fd85
fd10
fd5d
fe98
fe5f
fed1
027a
0081
0145
01ae
ffc7
0142
01b0
0247
00a8
ff4b
024c
01f1
002d
ff4f
fdf1
ffdc
fe90
0064
014b
004f
ffc9
0023
01af
00c9
00de
0033
0033
0058
ff71
fe3e
00e7
ff4c
0063
fda5
fd85
fc9b
fba6
000b
fec0
00f3
01ed
01cc
007d
00c6
fe6c
ffea
0058
fffd
fe05
0036
feaa
fed1
fd81
fe21
fe09
ff75
016f
ffd7
008a
fe5c
0057
feff
00a8
0349
022c
021b
0054
fedc
ff67
00d6
00b6
0229
ff2d
012d
fee0
fe78
0062
fe03
00cc
01c7
0226
0037
01b9
ffe5
ff4c
ff31
00c5
fea0
00f7
008e
00db
01c4
fe8c
0060
00a3
00dc
ff87
0086
ffa0
fea9
0128
0207
01b2
ff2d
0010
fed1
ff43
008b
fede
0136
01a2
0019
fedd
fefd
fea2
fff8
00a4
ff6b
ff50
0070
01eb
02bc
01b5
0122
ff16
fe92
febd
004c
fe5b
fdbb
fde5
01ed
0095
012b
00ed
00be
00e8
ffe3
0001
0138
008a
ff1a
fe2a
fe1c
ffe4
ffc4
ff42
0083
01c6
01f7
0198
01f7
01c5
013a
fe90
0160
ffe4
fd83
fded
00a6
00ab
01fc
fe93
007a
ff89
fd4c
fdd2
0005
fe0e
001a
0148
01e0
fff7
ffe7
0188
0130
fff9
0166
016b
00d9
0158
019f
0184
0054
fe99
00fb
fede
01f3
0218
02a7
0200
015e
0221
00e1
0220
0157
007c
ffd8
ff8e
fff8
ff2c
0253
01ba
01fc
0073
0131
0099
ff7a
013b
fed1
0043
fe8c
0182
fe98
004e
0008
0059
020e
0040
015d
ff15
001f
00f6
fffa
01e0
0218
00a4
016a
ffde
00ef
ff1e
ff2e
fff6
fef2
ff45
fede
ffa6
fe94
00ae
00bd
ff31
ff3b
0074
00e0
006a
0148
0116
0084
00e9
ff81
0163
00f5
fff7
fef5
fed7
0068
0042
ffb1
ffa1
fc62
fecb
0198
01c7
ff52
ffad
ff6c
ff31
ff14
fd6b
001e
0002
fd15
ffbd
feac
0078
0033
ff2e
ff75
ff2c
fe91
ff8e
ffb2
fd67
ff97
0170
fef2
fe97
ff86
ff35
ffe9
fef0
fd60
ff27
00df
feb5
ff8f
0087
ff3d
0118
fff3
feb6
fdea
ff21
0014
0204
020b
ffe8
ffbd
00c2
00c4
00b2
000e
fff8
00ec
0025
ff08
fea4
fe65
fe93
fe62
ff4d
001a
fea1
00ab
00c0
0054
00bf
022d
fe96
fe79
fe45
0153
0152
02f8
039c
024f
0167
00b5
015e
ffa1
014f
ff12
fd8c
fe51
fe27
000a
ff20
fea7
ffc4
025b
0209
00b7
0124
01b6
001c
feaf
fe74
00ec
0067
00b5
002e
00d5
ff5d
0014
015c
003f
00d4
ffa5
011d
0215
0108
004c
fe7e
ffa3
feea
00b2
0022
000a
ffaa
00f8
0017
013c
00fe
ff0a
ff05
01e1
00b8
013d
01e2
ff4c
0041
02ed
02c7
0209
ff77
ff92
01bd
feec
0052
0097
fe2d
fe15
ff23
007b
0044
ff19
ff27
01d0
004e
00e0
00da
0183
0154
ff6c
ff6d
fea9
ff81
ff10
00f6
fce1
fd5c
fcc4
fcd7
fed1
010a
0175
01e3
02fc
01cb
006f
0014
00a3
00a4
028a
02a4
0113
ffa4
010d
008a
019d
ffd0
011f
0054
ff17
007d
0017
013d
003b
ffb9
0090
018c
0179
ff6e
00ee
0075
0119
0071
0287
ff39
0009
ff7d
ff01
fefa
fe93
011d
014f
ff9d
ff31
fe29
fe83
012e
0128
ff35
0166
ff1b
ff2e
00f9
022b
0291
0093
fe12
febb
ff22
0147
0090
0070
00a2
00bb
ff16
fe91
ff48
ff06
007a
00a6
ff19
fe90
0070
015a
ff84
0120
feed
fe02
fec9
ffba
ff7f
fde2
fe4a
fd8a
fe60
00af
fff3
fd2c
ff3f
fe4c
ff77
ff2d
0164
0117
0111
fde5
ffa3
00bc
0269
020f
026e
0371
02d1
0189
ffdb
fdd2
fdca
003a
fed3
0042
0056
fef6
fdcf
ff5b
ff3f
fef6
fec9
0009
fffb
ffea
fcce
0138
fefa
fe0c
fdfe
fd54
fdd2
ff6e
ffd3
009c
ff3a
0072
ff1e
0195
0009
ff19
01a0
027f
02dc
ffe4
ffa7
00ca
00d2
0123
001e
0229
01a5
0072
0047
fe39
ff44
0077
fff7
01e9
00d1
0117
002d
fe08
ff36
ff0e
ff82
fe39
fea7
00cd
000e
fef0
ff8e
fe76
00bf
ff84
ffc8
00cf
fe74
ff80
0133
ffcc
0192
0090
003b
00c8
0220
01bd
0041
0289
02a4
ff30
0151
001f
fee9
002f
0067
fdb9
fdc6
fe91
00eb
00de
00d3
0072
01c7
feea
ff4d
ff97
0170
0057
00bd
0162
feba
00f0
fee0
000f
0105
007a
ff54
0151
ff40
fd84
fe2c
ff53
fdec
0070
00bd
fea9
ff4c
006c
fe51
0009
01a7
fe73
ff19
0200
0354
018d
02af
0010
ffdc
0042
0040
00e8
0186
feff
0072
0015
ffa5
ffa7
ffa2
00dc
0115
0006
0283
018a
009e
ff0c
0163
0209
ffde
004b
0281
ffae
010e
fe55
0096
fe24
fe44
0188
feb1
ffee
00c4
00aa
01ad
0277
01ed
000a
fec8
fe1a
0078
feef
0026
ff58
fec5
fe16
fee6
000e
0134
ff83
fe33
0013
00dc
ff62
002c
0179
fe8a
00e2
feb3
ff4f
ff54
ff72
ff8d
feb1
fea4
fc50
fc9f
00ee
017a
ff91
ff2a
fca3
fe10
0048
0156
00fa
0400
011d
ffe4
ff77
00ab
006f
fea7
015c
014b
ff72
ff64
ffd2
0150
0018
0007
ff88
0050
0074
0029
ffd8
ff79
008a
008d
0012
0053
016d
fe96
ff4d
0048
fe7f
fd84
ffe7
fffb
fd53
fe9c
0085
fda5
fe52
00fc
ff30
ffc0
0155
002f
00df
0056
fff7
01e8
006f
febf
fdf2
009d
01ac
01e2
ff7d
01b8
ff6c
011d
ffb0
fe53
ff48
ffa9
fe80
0163
0167
ffc0
010b
ffb1
ff63
ff8d
ffd1
007a
ff94
fea7
019c
01c4
005a
013f
00d4
0085
0018
feec
febf
00d7
01db
00c0
01fe
0081
ff3b
00c3
ff96
01d7
002e
0001
fe1d
ff48
fec1
0169
000e
002a
fed6
ffa2
ffac
fddd
ffb9
fcc4
ff13
ff16
00e1
001f
00a1
000e
ff0a
0258
01a2
0023
00b0
00f2
ffcb
0086
0163
005d
019d
fe5a
fe25
0010
0048
feda
0174
0085
feeb
fe95
0032
ff16
00f8
fe27
fddc
00ba
0049
0027
013e
ff86
fe63
ff1a
fecd
0165
01b8
ff38
01bf
ffae
014a
ff24
fde7
fcd9
fe7b
fe7e
003d
003f
0067
ffcb
fdef
ffd2
fde7
fea4
fdd1
ff50
fde6
fe5b
0002
019c
fe75
fde2
fe47
01bb
00c1
00e6
ffeb
fd59
002e
0131
006b
ffc7
002b
feb2
fdff
fde7
fdc6
ffe5
fe40
010e
fe39
ffd5
0259
011a
fd6e
fdd5
fd39
fe04
ffae
006e
ff6f
0106
0195
ff2b
fea7
fffa
0035
01cc
ff75
0052
0041
0035
01b0
ff3d
01bb
fe2a
fd96
fee6
ffaa
0153
fe38
fe32
ff4a
017b
01bf
01ac
fe69
fe66
00a1
00de
fed3
ffd2
fe57
fed6
02d6
03bc
01da
010b
ffdd
01b9
fe9d
ffc7
0062
012b
ffb0
ff0d
fe52
ff9b
ffc5
00fb
003f
ff95
fe1c
0048
0146
0148
018b
ff80
0131
002c
0026
ffbc
000a
ff5f
00a5
ffca
ff84
0099
ff59
ff51
0041
0085
009c
ffd6
019e
02ee
0277
002f
fe79
02ce
0261
013c
0128
011d
00cb
fe55
ff0d
ff5a
005a
ffcb
fe28
ff79
00d4
0068
fe5a
ff9f
0052
fec1
00ed
0005
0008
0122
0061
ff0e
ff50
ffd6
0153
01ad
01ec
003e
0051
0177
02b7
00ef
0325
01f9
ffac
0123
013d
02a8
018f
0169
02c9
0091
fff1
ffa8
0147
0217
006b
feaa
001a
fdf0
fff5
0114
0085
00bf
0064
0010
01ba
ff32
00bb
fee2
ff86
0172
00f4
ff63
0029
ffde
fea6
ff43
02c0
00ba
006e
0216
0097
00b9
fe81
0023
ffc9
ffd2
fe50
0008
fdfc
fd08
feae
0218
038a
0064
007d
fe3b
ffd5
0079
01c0
01a1
ff64
fed8
0014
fffc
fdeb
fdf5
008f
0100
003a
008d
0031
fe28
fdb9
feed
01f1
ff60
0058
008e
feb1
009a
003a
ffee
ffc9
fee3
fd84
ff29
feff
fde1
fe5e
ffe4
ffe7
02ef
ff6c
ffe4
fea0
011b
feb0
0142
00ec
fef9
ff5b
fff3
0019
fe5b
0073
0006
fec9
006e
ff7f
002b
ffff
00cb
fece
0058
0175
01e4
0321
034e
0283
0020
0082
fe59
fd10
ff59
fe90
fe84
ffbd
0102
ff1e
ff64
fe5b
feca
fe55
018d
0031
ff23
006e
0079
0001
ffcd
fe81
ff30
fef7
ffc2
fee8
ffbf
0162
fea2
0136
ff21
fdce
ff94
013b
fe49
fdbc
fedd
fdfb
ff91
004e
fef0
ff36
0117
fe55
fddb
fd8e
fe6f
ffcc
fee8
fe97
feee
0162
0116
fe51
fe38
fe78
ff4b
00de
006b
00e8
ff50
ff1f
fe4f
ff9b
0054
ff20
ff8d
0010
00ad
fe29
fda2
ffaa
002d
0039
0201
0255
ff8a
fe5f
004d
ff78
ffae
fed2
004e
ff12
fe37
fdf2
0028
0010
0208
ff76
0131
008c
000a
fdd8
0012
01c5
ffc0
fe60
fe9d
ffa2
00f1
ff7a
00b3
01d1
00d5
ff0c
ffe5
002a
016a
0013
0030
ffda
0156
fe69
000e
0059
fe9d
019a
ff66
ffdb
ff8b
ffc6
ff6b
ffb9
ff0b
fd47
ff76
0255
0132
0191
0000
fdfb
fef6
019b
03fa
0178
fe5d
fe32
fe88
01a7
011f
ffd9
febb
0073
0350
0310
0177
000f
007d
00cd
ffe2
ff3d
ff88
fe07
010e
0199
0069
00d1
fe5c
fde3
febc
fcd4
001a
fdcb
fdf5
01ac
015c
ff19
00b8
0193
00a2
ff22
ff3b
0085
0121
ff45
0160
0171
013c
fd5f
0032
008e
ff5d
0103
0097
0007
fdf0
0139
010d
0095
fce8
ff03
fdd1
fc34
ff82
004c
008c
00f8
fef5
0119
003a
0028
0128
fe20
ff51
023f
014b
ffa9
00d2
ff0f
fe27
0063
00ed
fef8
0064
0096
ff3f
ffd7
0031
0021
fe56
fe8c
fe21
fe2a
ff1d
0145
ff1f
ff75
ffd3
0211
0168
00e7
00d8
01ff
01da
0137
ffa7
ff25
ff3d
01b6
02de
00b8
014c
013f
01af
ff32
000e
fda1
000e
ff62
00b0
0245
ff2f
fe54
fe02
007c
fee6
ff84
002b
fef1
0041
02ff
0092
0111
fe93
ffc5
fd68
ffc9
ff2b
fd81
0010
febc
00a9
ffa4
006a
ff4e
fffc
007b
0245
0108
ffdc
0090
006f
fefa
ff2b
00bd
ff95
0074
00f1
0168
0023
0053
0174
ff77
00fb
ffdb
ffc2
0010
0081
feb6
fffa
fdb0
01ab
000f
0121
ff6d
ffa1
007b
006f
0147
0087
fe89
fe8a
003e
0144
005a
0083
fed0
fece
0085
007d
01c9
0019
005e
00c5
0236
00a3
013e
fda9
fd69
fd61
0108
000d
ff2c
ff4f
003c
018a
0141
fe03
fd63
fec3
0004
fff2
fe78
0164
ff78
00e7
fe8f
fe5a
fe08
fd92
0019
02f3
011a
02a4
0228
fea2
010f
0283
0102
028d
00d7
0104
0104
ff2b
fed4
005d
00f5
0179
00ce
fe63
00fd
0132
fe5d
fe46
fe70
00f7
fe4b
0111
ff2d
00c4
01ff
01c6
0268
01cf
002f
ff9d
0140
fe55
ffab
ffaa
fe29
013a
ff6a
fef0
001a
fea2
01f6
0127
fff0
fff4
ff32
022e
0045
018c
01bd
00ab
feae
fe02
fec7
ff61
009e
fea4
febc
006d
00b7
ff14
003d
013e
020d
ff5f
ff4b
fe04
00c3
00e3
003d
0170
0104
fec9
fe5d
fe8c
fdd7
ff14
00bf
00a1
fef5
ff69
fd94
feec
fffd
0166
01e2
01a5
0083
0166
01d8
00a1
ff3c
ff2b
fe95
ff06
ffa3
01ac
fffc
ff06
fff5
fefc
ff7f
0146
ffa0
0070
fffe
ff07
001e
007e
fed9
0063
013b
019a
0218
ff29
0095
0011
ffd1
fe10
fe94
fe0b
ff85
ff3d
ff3b
fe24
008c
ff44
0032
ff4e
ff1f
01ad
0194
fec3
00f1
0238
ffa7
ffd1
0043
0116
ff5e
01c7
002b
fce6
feb5
fd84
fef6
0091
ff2a
ff64
00b4
ff3a
fff4
ffe8
fe32
fd32
ff54
0079
00be
fdf9
fe29
fd06
fe8e
ffd4
01e5
ff6c
fee7
ffcb
fea8
fece
ffad
014f
fedc
fe92
011b
007e
01bd
ffcf
0145
017f
fe7c
fd00
fdd0
ff3c
fe6c
0049
ff58
002c
0134
ff76
ffce
00e9
0160
fd88
ff97
fe73
fe9b
00b4
ffd1
0089
feb4
fe7e
fffe
006e
004c
ff0c
ffca
013c
01ae
0150
ffbc
0196
00b0
ffd9
018a
ff72
fe62
006b
00f4
010e
ffde
00df
ffad
ff8d
fff8
ff53
010a
ff9e
0005
0157
02cf
00c0
fdf3
fff2
0155
ff25
fd89
fda1
ff39
009a
fe80
ff93
014d
00dc
0118
00d9
0171
fea1
ffa3
ff18
ffd8
ffd3
ff6f
ffab
ff9a
ffce
fe7c
fe6d
ffdc
ffee
fefe
fecb
fdfd
0097
ff7c
fe84
fed4
fe4d
00d8
0028
024a
0066
0115
0219
022f
00da
ffd7
0160
017b
005b
ffab
0128
0114
015c
ff9b
0040
020f
fed7
ff85
ff38
fff2
fe26
ffb4
017e
0071
fe89
fe7b
fe68
012e
0039
ff26
00a6
00f3
ff12
00c5
006f
ffe7
ff76
00d0
ffa7
0062
fd82
ffdb
ffb6
fe91
01e5
0098
0153
01cd
001c
000d
01d7
01eb
00b0
0250
0061
fdb6
fdba
ff26
fe60
0073
fe76
00ef
ffc8
fe70
ff76
fe87
005e
ff80
ffe6
fec5
feb0
011a
0156
fffe
01c9
01c0
ff20
ff9f
026c
000c
0051
ff73
ff3a
fe5e
ff30
ff89
0235
020d
015e
00e5
00d3
ffc7
fea0
fe67
0043
010a
0035
ff64
00d0
018f
00e4
fec6
0179
0232
025e
00f4
030f
00fc
ffaa
ff4b
ff99
ff43
ff06
0187
ff3e
018d
ff9f
ff6f
ff4b
fe37
ff14
ff21
fdce
ff1a
ff31
fffa
ff4d
01d8
02b7
ff67
0048
013c
fff5
019a
01ae
0030
00b7
fe4c
02a1
0114
00a0
000a
ff93
fe1f
ffce
ff58
ffd5
0156
fec4
00a6
ffd4
00a3
00c2
fffe
0125
01ce
01d8
0051
009e
feb2
0048
0050
0287
01bc
0160
febe
ff0a
00fb
00cb
001a
0047
00cd
0174
0159
02ab
016c
002f
fe7a
fe90
00d0
fedf
ffa5
00a3
01c2
0199
0215
0129
01c0
0142
01a1
fe92
ff1a
001c
ff47
fedf
ffe8
0099
01fb
01f0
ff4f
fe6e
ffae
ff27
fe9a
feae
fdff
fec3
ffc2
0173
ff7e
0032
00d4
02eb
00d3
001a
ffa6
ffd8
0060
fee9
0246
0172
0091
fec6
fed8
fd92
0071
fe6f
0073
001a
0108
ffab
ff21
00dc
018f
ffa3
fec5
0190
0195
0316
0185
ffd0
fe75
fdcc
0066
0077
ff7f
00c1
fff0
ff03
0247
002b
0009
ff76
fe90
ff7e
013f
feb2
01b7
ff60
fe49
fd4a
fea6
fdc8
0013
0042
0040
fe6b
ff17
0138
fe4d
00bb
0156
0125
0339
0039
ff25
ff45
010f
ffcb
ffa3
0081
ff79
fff1
fef8
ff44
00f2
00d7
fee8
fe73
fe7a
013a
0122
0055
ff17
fe5b
00b9
00af
0006
ff91
003c
fe79
007d
024f
017d
0031
ff7d
00f9
ff2d
00cc
fdcf
fdce
fef4
027c
0051
ff46
fdf4
fe59
025e
02f7
01e3
0006
0063
feb3
fda3
00dd
00a0
fe54
fea2
ff2e
006b
0018
01b2
006f
fde2
ffcb
fe26
ff47
fff9
0160
030c
00e8
ff56
fef0
00b6
ffa2
ff27
00fb
ffa1
fed3
ffe4
ff1a
0120
009d
0257
0082
fec7
fe80
ffed
01f4
01f9
014f
0185
fff3
0100
016e
fe65
ffb7
01e5
019d
fea8
00a5
ffa2
fe68
0158
ffa3
00c1
0089
ffb8
007f
fe61
ff3a
0022
fcca
fef4
feda
ff9b
00b6
00fc
ff39
006f
fc9a
fc7e
fecc
ff39
fd71
0003
fefc
01a2
ffbb
fe61
00c7
007f
fedb
ff46
fe8b
006c
00fe
0184
00df
ffa7
0132
006a
01ba
0023
fea2
0158
ffd1
0050
00c9
0123
ffcc
fe84
ff23
fe41
fe07
00f7
005b
006c
ff67
fe6b
001a
00fa
ff64
fead
ff85
ffa9
0031
fda9
fe2e
feaf
ff41
00ae
ff26
ff9f
fea7
ffb9
011f
00eb
017a
feed
002f
feec
ff3f
02bf
01c2
ff2c
ffac
ff3d
ff66
fe87
fea6
fe9f
fefa
fc79
fe73
fd36
ff0d
004c
ffb0
00aa
0094
fef8
0127
0171
fe49
ff68
fea4
ff30
ffea
01c0
004e
007f
0010
fe6f
fe22
fe86
010e
0117
0234
01c9
0017
ff63
0002
ff71
01c4
001a
00a0
fe92
ff1e
0269
019c
ff6d
0111
fea9
00e4
fffc
ff43
fd9a
fdde
00e9
0188
ff7a
01a7
feba
fe46
fe8c
ff1c
0059
0161
fed6
011f
ffa2
005d
feef
00d3
008b
00f6
ffcb
ff87
ff6c
ff21
01ac
013b
ffb8
0044
0223
ffa2
0034
00a0
004b
0184
0160
0039
fef9
ff66
00cc
00cd
fe61
0052
00fc
00e9
ff4e
fe37
fb89
fe6f
004a
0004
fe05
0064
ff90
fe02
00a5
0130
ffe1
febd
0135
014d
00c2
fead
ff2f
013c
0182
ff66
0203
00a7
ffb4
ffba
011d
003d
febb
fe15
fe7e
ff81
00da
fec9
ff07
fe9d
fe38
fe56
008a
ff5f
ffbc
ffe0
ff5f
feb6
0221
01ec
0195
fdf0
fd2a
ff30
0084
01c0
00e0
ff03
ffdc
01c3
00a0
00ef
001e
027f
0091
02a4
ff44
0000
ff5e
fff4
ff17
000f
ffe6
ff0c
fd54
ffc1
0122
00fb
0095
0005
fef6
ff4a
0056
0146
0009
0029
0102
0099
00a9
fe7b
fd29
fd98
ff79
0002
0119
fecf
0013
fec5
fe58
fe4d
00f3
01f6
018c
0117
002c
ff63
01b8
00e0
fe36
fee2
fecf
0009
0046
fea4
0023
01e3
fca9
fd57
feda
ff7f
fe73
00cc
0096
ff96
fe04
00db
001b
fea0
fed6
feba
fd16
ff32
0057
024d
0124
00aa
01ba
ff78
0006
0065
ffde
01d9
ff6b
0093
ff1f
00ee
ff00
fedd
ff0c
ff85
fe6a
fdf5
00ff
00ad
0104
ff8a
ff44
ffe8
ff42
fea1
0002
fe1b
fce3
fdea
007e
ff99
ff1f
fea8
00d7
01be
0024
0082
013b
016b
01a5
ff3f
0176
0105
0110
fe69
fe12
ff0a
0084
001e
ff2b
012b
fec5
ffc6
fd68
fc56
fc12
005f
01c3
ff42
ff51
feb7
0019
00f1
ff37
0133
ffa5
fc59
fc9a
fe6c
ffeb
00df
fdcb
fe2b
fe95
ff43
0152
ffd3
020b
0041
fe96
fe98
fe3a
ff63
010e
ff84
0085
02d1
01e8
ff40
00df
0024
fef1
ff02
ff4c
fe7d
fe3c
013b
0275
0142
00d6
0274
ffc7
ffe1
019c
00df
febb
fe06
0123
ff33
fdca
fe8c
ff4e
00a7
028e
0149
ff34
003a
fe7b
fe25
fe8d
00ae
004b
0171
ff21
fe89
006f
fec3
fff2
ffc1
00ff
fe9f
002a
fddf
fe41
007a
0202
00b7
00df
0198
025a
0286
022b
ffe9
ffe7
ff4c
0084
ffd1
0173
01aa
0096
0295
0194
ffc8
ff4a
feb7
00b4
fff1
fe95
fe4b
fef9
0111
00b6
ff88
0185
ffbb
001d
fde7
0032
0327
0271
0250
0057
ff8c
0032
ff33
fe7d
ffbb
021b
0098
01d7
0066
012d
fee4
fff8
00c5
ffb9
0043
ff09
fda7
ffab
ffdd
0021
0066
001d
00cb
ffb8
fe62
0007
ff2e
00c6
ff56
ffb4
fff3
0132
0137
ff60
0104
01be
007e
01e7
029e
0185
013a
ff9b
0023
01f2
0183
0029
fffd
ff73
00af
0192
0295
00fc
01b6
00c2
00e8
ff3d
0117
01ed
015c
00d1
ff6f
fe70
0110
000a
ff7e
ff59
ff3b
fd56
fe2c
fe3b
fda6
fd58
0078
ffb1
ff64
0172
01b7
ff18
01db
feda
00d2
0029
ff63
ffe2
ff24
fe9a
fe82
ff33
ff42
000c
00e6
01e6
01a4
0192
0186
0228
000a
0192
01d8
ff6b
ffbe
fe5c
ff82
0097
0217
005d
fe96
fdf2
0100
fd7c
fd53
ff25
0024
fe9c
ffae
ffd2
fd88
fead
0127
00a8
ffda
fef5
fdd3
00e4
0111
fe26
fdb3
ffcb
fe86
fe40
ffba
0031
00fc
ffa4
fe38
fed8
fea1
fff3
00d3
fff0
ff49
ffd9
fe0d
0058
0029
0041
fe35
0076
00a3
ffb7
002b
007f
feec
fe7b
00c1
fe64
fe4e
feb6
ffbd
ff77
01e1
017b
ffb2
0053
0109
ff6f
ffe3
0262
0254
02e7
000d
fec0
00a8
ff73
ff71
fff7
0103
ff73
0016
0057
01b5
0056
01ce
01cb
ff03
ff2b
0020
ff00
00d9
013d
ffbd
ffde
01ba
0183
fff6
004e
01ca
00c5
0071
01d6
008b
fe59
0185
0120
007d
01e5
fffc
01be
fe1a
fe3d
0082
0022
fea1
00d5
008c
00ce
ff06
0043
fee8
0114
00ba
0154
004d
01ba
fe5e
fe87
ff9b
ff05
0004
0051
016d
0108
003b
013c
0071
00d9
00cd
ffab
0098
ffdd
ffeb
fd88
ff02
ff46
0260
03cd
02b1
0090
fefb
0031
0138
01f3
00da
01ff
ff20
ffe8
00b7
ff5a
0007
0157
fff5
0019
0162
007e
00ad
0001
0181
01d0
0147
0234
0170
0372
01ff
022d
00c7
00b5
feb2
01b8
0121
ff7d
0051
ff8a
0190
ffe4
0264
01b6
001b
ff57
0130
0153
ffd2
0100
025a
fe9f
ffe8
ff76
ff45
01d5
ff9c
00dc
0090
0119
006c
011d
ffe3
02b1
020c
0121
ff57
ff5d
0268
01db
01eb
01fe
006b
fffb
fea1
007f
fe89
ff4a
00fe
00bc
007f
010a
fe00
fdf9
fe4d
ffe7
fee1
ff3a
fef0
fedf
0016
ff6a
00db
0182
012a
0016
fea8
fded
012d
0013
fec1
fe8a
0041
fec9
0016
ff9e
fd7e
fdf2
ff70
ff0b
ffe3
fee9
fcc7
00de
003a
00c3
0096
ffdd
0216
02da
00cf
ffff
ff98
fed8
014b
ff34
febe
fff7
feca
00b2
0018
fee2
ffc3
ff28
0139
009c
ffd4
fe21
ff79
fd7f
fee8
fe6a
00c3
ff5d
fed3
ff96
0062
0083
00fe
0143
ff5d
0006
0089
ff40
01ee
02b8
0184
ff39
00da
ff6b
ff25
feaa
011a
01a4
004d
ffc1
ffc3
fd65
01b5
0064
00b2
0112
fce9
ff86
00bd
feb1
ff66
fe30
fdce
fef4
fe4f
fee5
ff50
ff25
fe5a
fc84
fe5e
fe0f
fe59
ffc0
0234
fe5f
0069
0150
0043
00e5
00c7
001a
00a3
0050
fe86
00e8
fead
001b
ff05
feaa
fe50
fff6
fef4
00fc
ff88
fee0
fe65
ffdc
0084
ff0e
fffd
ff6c
fea6
0090
006d
015a
ffea
fdd1
ffdf
fe26
ffbf
fee4
0159
007c
ffee
fdee
ff53
fefb
00c7
fd75
fff5
fdf9
ff67
fedb
ff50
0084
ff0d
00a5
fe9a
ff25
ffad
01a0
003c
fea1
006d
ffe4
fdaa
ff22
0159
020e
ff9a
018d
011d
ff90
013f
00de
0028
0207
ff17
feb8
fe09
0001
011e
ff93
ff28
ff44
01d4
fed5
fe81
fef2
ff57
fef2
ffdf
ff15
01b4
0187
fff8
00f1
feee
ff55
01a9
012b
004c
0031
0167
ff8c
fe83
01f4
01bd
ff92
01db
ffaf
00ce
0045
0003
ffda
fdd0
00b9
014a
fe23
ffb9
ff72
fd36
fcab
feff
fec8
ffda
fe9c
fca4
fb4a
fd94
fd94
fd7d
fe44
fdcb
fd5d
fcc6
fffe
008d
ffe6
00b0
ffa6
fee5
fd52
ffbc
feea
fe66
ffdd
fdec
ffb1
0004
fece
fdaf
fee9
fe04
fe60
fcb0
fe32
fd15
fd1f
ff36
004a
ffd1
ff62
fdf0
fec6
0147
ff5d
0109
ff57
00a1
fe84
0131
00fe
0007
0015
0096
febe
fed2
00ca
fe6a
014c
0003
fff2
0072
ff77
ffbe
0058
00af
0078
ffd8
0138
00c4
ff45
00de
01b7
00e7
ff51
fed5
ff3c
0156
015d
0054
fef3
01d7
ffa3
ff15
0148
fe8d
003c
fe72
001a
ffc5
012d
019d
fffa
ffe0
ffa3
0220
002b
ff40
0151
0120
0031
ff67
ff66
0154
fe3b
fec1
fee6
ff8a
fe02
fead
fe2a
002e
0115
ffb9
fecb
ff6b
fe1e
0131
00c3
fe48
ff75
ffea
ff49
004e
fe9a
013a
0110
0103
fec1
fea5
00b0
0043
00a5
00a3
ffb8
0035
0121
ff0d
fff6
01b5
009c
0102
01e6
0122
011f
007e
feee
01d7
0341
01b0
0024
0014
016e
ff09
0074
ff5e
ff39
00db
00c0
fe51
fe71
fe87
0100
fffc
00ba
0082
ff66
fe8c
fe8f
fe8d
fe6b
fe76
00c4
ff9b
0097
0114
0030
fe4e
fff6
fe6e
fff8
0048
feb2
ffd5
ff87
00f2
0055
fef6
00d3
ff8e
001a
ff45
fe82
01fa
ff9c
ff88
ff01
0084
00e5
ffba
fff0
ffe4
ffc1
001d
ff64
fe31
00cf
0014
008c
ff88
0298
0096
006e
ffa4
ffb0
fe26
fe04
fe89
ff37
000c
ff29
01c8
002f
fed5
0050
00ec
000b
ff8d
013c
feaf
00f7
00fe
01b8
ff20
0033
011c
ff1e
ffd4
01f3
ffb7
0145
fea5
fd51
fd14
004c
ff6b
ff17
01e0
00be
00f5
024e
01b2
0085
fece
013b
01e5
ffd2
fed0
fd95
ff1b
fe48
fe5f
fdad
fdf7
fedb
fe9a
005d
ffbc
0184
00a7
0089
004e
01d0
0018
fff6
fd70
fdf0
fe00
fefc
fe08
ff31
fd5b
ff95
00a6
0203
0029
020a
006e
ffd9
0173
ffae
fef4
ff49
00ee
ffe6
01af
0127
0025
fdca
ff69
fe84
0032
fe17
002e
ffb5
000c
ffa7
00e1
00df
010e
fd91
004b
0003
0074
009e
005a
0048
013b
02e0
ffc8
fec0
ffd2
013d
0167
01c0
014d
fd15
ffb1
fe97
ff17
fe3c
00b3
00a1
ff72
01f6
ff94
016f
fef9
0051
00b8
0091
0175
0203
00b6
ffc0
fe54
fd72
ffbf
ff85
ff03
0296
0009
ff92
00da
00a6
ff43
ff62
00c7
fe44
00da
00c0
01cb
ff2d
0103
0213
fdeb
fdd0
ffb2
0010
ff37
023b
0248
ffdb
006b
0126
ffd2
0000
fed2
00d6
fe9b
ffac
ff8e
0003
ff14
014a
ff2d
015a
fef0
fde4
0072
fea0
ff29
00d7
ffab
fd6e
ffeb
ffe9
01d8
ff7f
00b9
02ad
00b9
ff74
0203
0126
fdd0
0030
fe9a
fea5
ff95
00b6
0146
0151
018b
0107
0239
0160
fef7
00f8
0008
0064
0037
fe80
ff9d
fe38
fef3
0039
ff4f
01b3
fdb0
feee
ff3a
0038
0058
0073
ff86
01eb
01b1
008e
fed3
ff4f
00df
0009
ffa9
ffdd
ff7f
fe37
fe02
fe0d
ff3c
ffee
0107
00bf
ffd7
0145
011d
00d9
01a4
0100
01f0
00ba
0033
ffc8
0097
00a2
ff5a
0124
ff06
ff70
ff88
ff47
ff93
ffd0
ffd0
0024
00ec
fec9
fe96
ff6b
fd91
feee
ff51
0234
02cb
0230
0209
011f
fef8
ff3f
007f
ff5b
ff70
fe38
febc
00a9
0078
0024
fe80
0152
0160
ffab
02b5
0143
02c3
016a
0122
ff32
fde9
ffd2
fff0
ff66
ff19
ff26
ff08
ff02
ff4b
fd29
fee9
ffa7
0147
01c9
00d9
02be
0056
0158
ff46
ff4f
ff5f
0234
0162
ff36
ff51
ff78
fee0
fd89
fdc7
fdba
0157
ff51
000c
00ae
004c
0231
0008
00d5
ff9f
ffed
fe13
ff5a
fded
fe62
00cb
ffa4
0198
ff3b
00cc
0083
0206
0069
fff9
01db
ffda
feb1
0010
ffbd
ffcb
00f4
0128
ff1f
0176
0157
003b
fed4
fef2
ff43
fe47
0029
fee2
ffe2
ff38
ff32
ffac
ff44
fc2c
015c
feb3
00d8
ff2f
fe66
fc80
ff01
ffd4
002e
fed7
02a5
0130
ff26
0188
0012
ff02
fed3
fee1
0141
00af
01de
00be
01ff
0191
0366
01c7
00e3
016b
ffc3
fff0
0067
feea
017c
ff15
0192
0252
0205
feae
ffde
ff5d
0119
fef4
ff8e
ff11
fdae
fe3e
002a
0008
ff5d
0209
0161
feff
ffbf
ff2c
01e9
001e
feb2
01e7
017f
0172
ff16
fead
00e3
00e2
0189
01e8
00e4
ffd8
ff4f
ffda
fe03
fef5
feeb
008d
ff06
ffea
00bb
00cc
019e
feea
ff03
0113
00d8
018b
015d
01a5
00bf
0146
019a
ff95
fe74
0042
ff9b
fd23
ff6d
00a9
001b
ff90
fee4
ff8e
0059
0155
ff71
ff93
ff30
010d
00fc
01d9
020b
001b
00f4
ffed
0058
ff47
fd7b
feea
ffee
0075
01ca
013a
0112
fed3
ff4d
00df
fe96
ff03
00d6
0041
003b
fdf7
ffb8
fefb
0005
ff2c
005c
ffe5
fe8d
00d9
fe40
ffc6
fe10
005f
0083
ff5f
021d
00a3
0264
00af
013a
ff49
ffa9
0033
008f
0149
007b
0204
016d
0207
ff6a
ff44
02c7
01fa
0023
002d
fdd8
ff40
fdf4
ffb3
fe43
012f
fe82
003a
ff87
fee3
0014
ff47
00e8
ffd9
0059
fd0c
fef6
00ed
0135
ffe9
ff8d
018d
ff95
ffa2
00dc
fffa
00c4
00ac
fe25
fe33
ff41
feb9
0045
0082
ffe8
01d6
015d
0232
ffce
ff89
ff31
0022
ffa4
01b2
006f
ff18
00f4
0135
00e2
fe4f
ff61
00b1
0074
0165
00bd
ff56
0210
008c
0092
ff35
fed6
ff2e
fddf
ff8c
fdaa
fe0c
fed0
fd6d
fea0
011a
011a
ff0d
00ae
012f
01d2
01d1
00e2
feb9
0128
ff69
ff6f
fea4
014d
ff9e
ff59
ff13
ff14
0038
0099
0148
01ce
015b
0104
fe8f
ff2c
ffce
01f9
ffe9
0151
0132
0075
fead
fec5
fead
01f9
00c2
fe0c
fe6a
fe81
0022
ff3f
ff05
00b3
ff32
0035
ff63
0150
fec7
fe77
fee3
fe5a
01cd
025d
ffb8
0035
0103
ff8e
ff6d
0179
0131
ff42
0026
022c
ff85
00cc
00c1
ff69
00a9
fedd
ffd3
fe30
ffa5
0205
0123
fe99
ffad
0010
fefb
fe87
00c2
0154
ffec
005a
fe06
fee3
ff54
ff39
00a8
00e2
013b
00a7
ffcf
fe2e
0092
0326
02a8
0001
ff97
00ed
0128
02c7
0116
0145
ff5b
ff05
015b
007a
0072
fe8d
ff18
ffd2
fe7c
ffab
fece
ffc1
00c8
ffb2
000e
016e
0125
00cf
01f4
feeb
01e5
01b7
ff79
feaa
0096
fe06
fedb
006c
0121
01bb
fea0
fed4
ffa7
0029
febe
fdc0
0102
0035
fe82
fdf2
fed6
ff05
001d
0273
ff38
fe69
ffb9
ff37
ff93
ffd3
0280
02e0
0256
fdec
0256
0240
0019
ffdb
ff5b
0058
fe91
01c5
ff36
0255
00d4
ff2b
fff3
fe5d
003c
ffbb
fead
0017
fff1
fe76
fe89
ff1c
0074
00bf
fe5b
fe75
feea
0174
00bb
ff33
0004
0061
ff73
ffa3
ff33
00cf
0294
01a5
fcf8
fe99
ff7d
00bd
0120
011a
006a
ff7d
007a
009e
0012
ff0c
ff63
fdc3
fef3
01a0
00a5
ff6e
fe63
fd64
ff6b
004d
0073
0053
016d
ffbc
024d
0176
024e
00c5
00a1
00af
ff13
fdc9
fe1f
fcac
fe50
ffc4
00f8
fed2
ff12
00ee
016f
013d
00dc
0121
00bf
fdfd
ff9e
00c1
fe60
0082
fdf3
00a0
0190
007d
002c
fdec
00d9
ffad
ff17
0189
0284
00de
01a0
015b
ffbc
011b
fe7e
fe16
fdc0
fda8
fe7c
fe2a
fed3
0076
002f
0166
015e
fef8
0144
0085
feda
ffe1
ffba
0062
ff17
ffcd
ffd6
fee3
00e6
fe17
ff2b
ff3d
009f
0152
00fa
01c8
01b0
0022
ffde
0100
019e
00f7
ff5d
0051
fe9a
fd27
ffe5
0037
008d
00e4
022c
ffef
fece
fddc
fe7d
00d8
ff63
ffb8
008d
ffc0
fddb
ffb6
0070
fff8
00b2
00a2
ff20
011e
fe81
fe6e
01de
022f
01ca
0172
0072
0002
ff0e
0106
ffe8
024f
0081
0049
ff7e
ff41
fe1e
ff3a
fdc5
ff78
fef8
00d1
ff4f
ff57
fed6
feb4
fe78
ff5e
fda7
fde1
ff41
ff4f
fe66
ff62
feef
ff7e
0011
03e7
030c
0055
0111
0006
0316
0378
0220
ffd5
fff9
01a5
0112
fefa
00c5
0014
00b6
ff77
007a
0189
01a2
011b
0198
fe99
fe20
fd73
ffe3
ff08
0023
fd14
ffde
ff95
ffe7
ff26
fe37
fdd1
ff4e
0113
0031
0168
0278
ff3a
fe23
fe16
01bc
033e
0108
fed3
fe96
ff27
0007
ff4d
ff7b
0134
0099
012c
ffd6
0045
fee7
ffcf
fffd
0081
fd8f
fe39
fd2f
feac
ffd8
0146
fe74
0044
fe01
fe38
003b
ffcd
0015
ffaf
ffdc
ff0a
0090
fffa
ffa9
fedb
ff79
01d1
012e
02bc
0254
fef7
00a8
003f
ffde
0129
014d
0269
0041
00f6
0078
007f
0027
ffb4
fe63
fdc9
ff0c
fe60
fe05
ff01
ff5b
fe47
018e
0149
000d
0051
0135
004a
00a0
00a7
0018
007c
ff3b
fde0
ff73
010d
01a7
ff7d
ffa4
fd4f
fdc7
00b5
ffc1
fff9
0058
fedf
ff39
000a
fe51
026e
0259
011e
fe64
009b
ff7d
fea4
0004
0346
00f5
007c
0017
0068
0086
ff46
fe9b
ffae
ffa6
0036
01cc
02d8
0226
fe42
fe53
fe9d
ff27
ffc8
fd36
0002
fe0a
fe3d
ffd1
ff47
010a
fec8
ff73
fe36
ffd4
fea9
fed8
fff5
00c6
ff6e
fe7e
fffd
00f0
feda
ff62
fe35
ff36
021f
0195
005e
ff4d
ffe9
ffc8
0005
febe
fed4
0096
00fd
ffab
026f
01fb
006b
fe42
fe9c
021d
008b
0258
ff99
ffa8
fe41
ff22
fed4
ffdb
ffc9
ff97
ff78
0120
0260
0298
01a4
00e4
ffeb
02f1
0121
ff14
ffb6
00ad
0077
fe06
0005
01c6
026c
00c4
0198
fe03
fcd9
fdc1
0041
ff41
01a0
018a
0185
fe23
fee3
01b6
0091
febb
ff8c
0073
ff69
0046
00e3
014f
0090
ff9f
01ad
0075
0016
ffd7
ff43
0052
fecd
01c9
00be
fecc
000a
0061
ff36
ffb1
ff49
00bb
00ce
fecf
fea5
fdbe
fd80
0029
036a
00ea
fe93
ff4d
001d
003a
fea5
ff3c
0125
016b
015c
0167
01ba
0163
fec7
0025
fed0
00a6
ffc7
0101
0227
0101
0250
ffc3
feea
007d
0282
00aa
00a8
ff02
ffbb
fd4a
fdbb
fdc3
fffa
ffc8
0115
00b7
0058
018d
005c
fea1
0164
ff59
ffef
ffd2
ffdb
0087
ff5b
00f4
011c
01cf
008b
ff23
01b2
fe95
ffec
fe75
ffe3
feee
ffef
fdf0
fea3
fdfa
fe7f
020b
03a1
034c
0071
0078
fe27
fef9
001b
0084
ff4e
0063
0201
fed5
fe90
0061
0018
0122
00df
00ce
003d
024a
004d
fe5e
ff36
0075
fe01
007c
005e
0167
01d9
00e3
feef
ffd0
fdad
ff9f
fd63
fecd
fe86
ff9e
fe1c
ffb5
006e
022b
02b7
ff2e
0097
0178
0036
029a
ff98
014e
feb6
fe00
0013
ffc8
fe51
0086
028f
01a0
004e
0171
ff04
ff4d
ffda
0086
fddf
fe09
fe6c
ff81
00ad
00a3
003b
febc
feaa
fd26
fe48
fe8f
fe82
ff01
01cb
01d8
008b
016f
00e6
0015
fe9f
fef4
01d0
021b
0110
ff73
fca6
0027
ffa1
ff4f
0005
ff83
0343
0192
0103
fe1c
ffe4
004e
fe6c
fef0
feb8
ffad
febe
ff99
fff5
ff9c
fd63
fdb3
fee8
ff86
ffef
0006
fcf2
00ab
0090
02bd
0141
0183
ffa1
0186
0133
014a
ff03
00f0
00bd
fff7
ff7f
fe35
01ed
feae
ff0a
016e
0192
ff22
fef7
fe43
fef9
ff0f
00ad
0115
fe4a
ffac
017a
0030
fee0
00a8
0066
fed8
fe08
00b7
0093
febe
023d
01b3
00ec
ff2e
0087
fef4
ff02
ffd0
0191
0046
feb9
00d1
0088
ffc0
ff14
0107
0013
01af
01b7
0116
006c
ff2c
0065
fdd4
ff47
fe20
0102
ffeb
009e
ffdc
ff8f
ffc3
0276
fe8e
fe94
001e
00eb
ffba
0020
ff92
fe39
fe66
fe84
004d
ff88
ff64
ff79
fff9
ff6b
fedc
013c
0284
fedb
fead
010e
002f
fea1
fdc1
ffb7
feba
01ed
feeb
ff6c
0079
0089
001b
00e7
00c5
ff2b
0079
ff1d
014d
ff38
0042
ff18
000b
0237
0284
005a
ff83
ffb6
fdf4
fecd
fe45
fd5f
0019
ffd4
005c
ff81
025b
00ed
00ad
fe46
0029
00b6
fed3
fe1c
0142
ff0f
006e
ff30
006b
01ec
01d0
ff48
ff20
00f8
fdc8
fe18
fec8
ffb4
fff7
fd5d
fdc3
fd8a
ff12
02b6
01ee
0090
00a5
005e
fffb
017d
0141
fe8e
ffdc
0098
027c
0106
00b7
fe98
0004
0124
feca
ff41
018b
0012
014a
0023
fed8
001e
00ba
00ae
ffa8
ff19
00a6
002b
ffa8
feb8
fe58
01d5
ff72
ffb6
fef6
00fa
fff6
0314
016c
00af
0220
0217
027b
ff6a
fee7
ffd2
ff81
0192
ff1e
fec9
ffef
ff0c
ffc0
ffe6
00d5
014c
ffab
ffaf
fecc
002e
fe36
fe79
0173
ff8a
0174
0101
008e
009b
ff0f
ff91
ff0e
fe92
00ea
feb9
ff18
fdb8
018e
0046
ffe2
001d
fec3
0040
017c
fef6
ffe3
fe40
fe56
0168
01d2
febd
ffb1
ff53
ff8d
004a
fed9
fec1
ffe0
0139
0060
fd77
fff9
ff3f
0097
0117
0007
00a2
0052
00c7
ff66
000f
0195
fff7
ff73
003b
ff93
ffff
0133
0177
00c9
028d
01cf
006b
022c
0154
015c
ffc2
fda6
fdfc
01d3
0068
fde3
00ab
018d
026b
01ea
003d
fed7
00df
0025
ffce
fe10
0017
fe84
0021
0135
ff3f
009e
ff05
00fb
015e
0190
019b
ffb8
febc
00aa
ff1c
009e
0184
0243
0042
01c8
01a2
0134
0137
feda
fded
ffa4
ff4f
00dc
00d4
00d1
003c
0113
fee5
fdde
0025
0005
fe46
ff0a
febb
feac
ffeb
01e2
ff65
01ae
ffc6
00c0
0028
01ae
ff88
feda
fe7b
fe27
fea8
febb
fe8d
fedb
006b
0035
fe26
ffe3
fe9f
ff97
002a
ffe7
010a
0034
00d7
ff8a
0165
00aa
ff93
ff0c
fffb
00ef
ff7e
01bb
01ba
ff52
ffba
0185
fe74
fec6
0035
00eb
ff06
fe66
ffbb
012f
0194
0025
fed4
ffab
febb
ff5f
00e1
ff2c
00a1
0046
0158
fed9
feef
ff96
018e
0180
00db
0088
00f4
00fe
00cf
0027
fec6
0110
00e9
00d4
0148
00c7
fec3
fe21
fe7c
fe21
0086
ffcd
0079
0279
0143
0180
0056
fe93
fe9f
020d
004e
ff03
0025
018c
0279
ff67
0077
012c
025c
00e8
0055
ff7f
feb0
01ad
ffa8
ffda
ffc9
01b4
0034
ff8c
01da
008a
fe16
feba
fedc
fd71
ff12
0063
fea6
fef5
ff57
fff6
0051
00f9
fff4
ffdd
ff13
ff36
ff57
ff6c
ff57
0147
0289
00c5
ff85
00ac
01af
ffc3
ff48
000a
019c
0178
00a2
ffd2
ff8b
0276
02fb
0208
feda
029d
ffe8
fdd2
fedf
ffe8
ff4d
015e
0057
016f
0067
0281
00ac
0052
0006
fe0b
fe65
0072
ff42
ffd3
00c4
00fe
025a
00ab
ff68
010e
ffa7
ffe3
0090
013e
00f6
ff75
01ec
fec6
feff
ff18
0095
0066
00e8
fffd
010f
004b
01ac
ffb0
ffbd
feb9
0078
ff50
0030
fff3
0235
fe42
fefe
fef8
fce8
fe21
fe6f
fe49
ffb5
018e
01c6
00d5
ff9f
ff93
0156
01d5
00ce
fdde
fceb
ffa9
ffed
ffdb
feb6
ff9b
0027
0156
ffbc
fecc
0086
ffee
012f
0251
015c
0213
0209
0212
024e
0243
019b
ff6b
0014
fdaa
fd7e
0166
0203
00ed
0223
fff2
00ac
01ce
004c
fee6
0016
ffc1
0010
0070
fe7a
fe57
ff6c
ff9d
ff85
ff2e
0121
003a
00d8
00e0
ff43
ff63
fdf9
ff8f
01e4
0248
016a
023e
fff8
ff7f
00e7
009d
fe6a
ff7f
ff1f
fd22
fecb
ffdf
0034
0011
00d9
fecf
fed1
ff5f
ffa0
fe8b
0037
ffbd
fe54
004e
fdef
fe2b
ffbd
fe91
0065
ffdb
ff62
0033
fde2
ff21
fe25
ff98
0039
010f
021c
00d3
014d
ffe4
ff8b
ff72
ff00
fef6
014f
0111
0079
00da
fe4e
fed7
fe2e
ff36
ffef
feb3
fe97
ffc3
fee1
fe90
01a4
0105
fdf8
feed
0004
ffcd
ff12
ffc5
0100
ff33
01e8
00d0
0002
ff57
ffe3
feff
003c
fe73
005c
0047
0072
00d2
ffee
0229
01d6
0003
fd6f
ff3a
000e
fffb
0023
007d
ff45
fe9c
fe9d
fdde
006f
ff95
fd9e
fe5e
feea
feb7
014c
00b5
ff83
feec
0019
0136
00b9
ff95
0094
0044
0036
fede
feb7
fe6d
ffd4
fddf
fff3
0031
00a9
ff0f
00b0
fe92
0030
023b
01c7
ff4b
ffac
002b
fd7a
ff63
00d5
ffcd
ff45
02bf
019a
ff08
ffa4
0184
0161
0058
ffa4
ff1f
00fc
004d
0133
0089
0183
01ef
00d2
fdee
015e
0131
0099
ffe0
ffc4
ffd0
0049
002e
0039
018b
020c
01df
ff3c
01a6
fee7
ff21
fe4a
fe40
fe3a
fe47
0092
03c4
03b2
029b
01b8
ff38
007b
0080
0099
009b
01c2
ffa6
002b
004f
ffaa
0116
ffc7
0194
ff72
ff7c
0064
fefd
0172
ffa3
0046
ff25
0159
ff35
0181
ffcb
ff37
0050
005e
ffd4
feee
ffb5
015d
fe6f
fdff
ff99
019c
ffe2
0031
002f
feab
ffca
0145
0002
0150
ff03
0155
00d1
0037
fecc
ffa3
001b
00e2
008a
fdfc
fea5
026e
01e5
0208
000f
ff71
fece
fff8
007c
00f8
0021
fe51
fe70
ff09
00d9
0010
ffcc
0087
fe6b
00f7
fff3
011d
00ac
ff08
00a2
0146
01f4
0078
0112
fe0f
fd96
ff5f
ff77
0090
009c
fe1a
ffbb
ff6f
00ec
0035
0175
febb
003c
fdf1
0046
fe9d
fece
00ad
0088
fec3
021d
0152
ff5e
fdf3
fdf2
ff0c
fe9f
ff6a
ff07
feb9
fd29
ffd8
0193
00d9
ff77
fccb
ffae
ff12
fef6
007d
001a
ff3f
fedd
feec
fddf
0083
0107
ffe6
0050
0036
0256
ffdf
01a9
00dd
ff8f
0175
0094
0116
0089
0070
feee
0097
0102
0107
fffe
023f
fee1
fe65
fd10
fedb
fdc5
fdd3
fdfc
fefe
fe12
00a2
001d
fe93
0078
00f7
013e
ff50
008f
fe30
0023
00f3
0000
0168
01c4
00b1
0137
0161
fec7
fe1f
fdee
005e
fda4
ffca
fe23
00ba
0181
ff70
ff9f
0097
ff29
01ab
01cd
ff2b
0097
0133
008f
01e4
017e
ffd4
0247
fffd
008a
ff8f
ff22
0083
00f5
fe87
00f2
0020
0057
00b8
ff51
fee0
ff38
feec
fd6e
fd88
fe2d
0096
0067
fde6
fe71
00ac
fe88
ff62
fffd
00e9
0086
fff9
fee5
fff8
00b2
0064
024e
01c8
0048
01b6
ff78
fe8f
fee1
0032
0118
fff9
ff37
0077
012f
ff7a
ff71
ffdd
0162
ffa4
ffaf
fe12
00a5
fe93
000d
ffb6
008f
0022
ffe3
00db
fff8
0287
0081
0166
ffea
ff6d
fe62
00db
ffc4
002f
fd3b
ff44
fcab
fe4e
fe7d
fe17
ff4a
febb
0057
0072
ff94
fded
fdcf
fdac
fdd9
0062
ffd2
ff42
00b4
ffcb
ff37
fe9f
fe9b
fda3
ffcb
01b1
020a
0078
0041
fdef
fe00
fe26
ff9b
ff0d
012a
0147
0018
fdb5
fdc6
fdae
fef8
fee6
fe7d
0042
0068
fffd
012f
fee8
ff8e
fedc
ffce
00ab
ffbe
0000
0234
01c5
ff4e
00af
fdc5
fff5
00bc
febd
fd2c
fded
010b
feef
005e
0005
0140
ff80
ff86
ff31
0130
0100
01e1
023d
ffd7
00ff
01af
ffe7
01c9
fffa
00e1
0079
00a1
ff20
ff1b
005c
0086
021d
0235
032d
0177
0220
fea7
ffac
003a
feb6
ffb4
ff6b
0182
0030
ff33
002f
ff65
00a7
ff92
00d5
01db
0054
0253
ff5c
00ab
ffd6
0046
fe40
fe20
0021
0073
01ec
0105
ffc3
ff85
ff2d
0093
fee4
fe07
0174
0131
0085
ff5a
004f
0046
015d
ffe5
0031
fffb
01da
021a
ff59
024e
02f4
00ab
fe9d
008b
ffa5
013a
ffb0
002b
00a9
ff36
0152
fff5
0051
ff8f
ff24
0245
0342
0379
00c4
0353
027e
0232
0294
022f
013d
0013
01f5
0290
01bc
00b9
0028
00e9
ffa0
00f7
01a7
009b
0108
fff3
015a
0131
fe65
005f
0102
fee7
ff5a
019c
ffbd
0193
00f3
fe6d
009b
ffe6
008a
002c
ffd7
0229
01e7
ff6b
ff65
fe24
ff8a
01ec
01fa
0029
0104
01e8
00c2
fff0
0222
0063
fe76
00f0
0015
fdd6
0176
00b3
ffdb
02d6
0174
023a
0195
013d
00d4
020b
ffb3
00e9
014b
ffbb
fe52
0047
ff53
0026
0000
fe6c
ffc7
ff48
ff4f
fe41
fced
ff29
ff84
fd23
000d
003e
016b
0150
0215
ff84
00ea
ff48
004b
fdd5
fdb2
0012
008a
00db
ffe2
ff11
ff24
015a
00a1
0264
0206
01be
00b4
0145
fe8d
fe73
fea8
004c
ff6e
0134
fe1c
ff48
015c
000f
ff7b
0131
fef4
fead
00ed
012e
0043
fff3
ffdd
0140
00eb
0169
ff3e
0112
ff56
ff98
ff05
fee3
0149
007e
fe7f
fffd
ffc8
0077
0118
0173
0010
fefb
0062
fed4
ff74
0134
fed6
fedc
ff4b
ff02
ffea
ff4c
0130
ffec
007e
0098
ff60
ff36
0055
00d8
feed
ff3e
000d
0137
0043
ffc2
0086
00a4
ff08
00e5
fffa
01e2
fe83
ffc4
018c
ff9a
fff2
01e3
01a6
fee1
00b9
0032
00f0
016e
fe7e
022d
00b8
ff56
ffe7
fff6
ffba
fed1
ff5c
fe86
fe5a
00bd
002c
0122
fe78
00dc
ff51
ff93
00ca
00e5
fe28
fedc
fd49
ff55
01aa
fecc
ffcb
fcc5
fefe
ff3c
008e
fe33
fdc5
ffc4
0084
fee9
ffdc
0093
ffa8
00b5
fff5
004e
01ca
021a
00b0
01bd
019b
000d
ff4c
fee2
ffd0
030c
008c
0202
01a9
0179
00c1
02d9
0049
ff39
0057
ffea
00fc
015a
002b
0101
ff16
fe66
fe35
017c
fee3
ff0a
0165
0147
ffe6
007f
fef3
fceb
fd73
01ad
00fe
00ed
ff00
fff8
0017
ff64
ff59
0009
ff4f
ff28
ff2b
0153
fe33
ff01
fe4e
007e
01e3
ffca
006d
ff81
fedf
00fd
ffae
ff2f
0030
000c
ffc6
008f
00a1
01db
0088
0135
ffd8
ffeb
0077
0116
ff01
008a
00b4
0086
ffda
028e
011b
ffd0
febd
002a
fed5
fe81
ff29
0014
fe9f
011b
ff83
ff60
0199
0091
fe4a
ff83
0129
ff39
ffd2
01df
01dd
01c1
016f
0236
01cf
0136
ff29
0008
00fb
ff26
ff6e
0173
fef9
feb8
ffb6
fee4
ffca
ff6f
0207
02d6
0174
0103
015b
014b
024f
01b3
0106
01a3
fff6
0004
000c
0143
01af
ff68
fdbb
0221
01a7
fff7
00bc
0047
000f
00eb
0124
01a0
fff4
fff6
019d
0227
01cb
0185
0017
ff74
ff41
fed3
020c
ff68
01af
002a
ffad
fec1
fed6
0204
0217
ffcd
007d
ff56
fe49
fe99
ffcf
003d
ffd7
ff47
fef8
017f
fdb6
fee6
0057
ffa5
feca
fed3
fde9
ffef
001c
febc
fdf3
ff5b
fe3e
ff3b
fed5
fe64
0021
01f4
0111
ff7c
fe5c
00d0
fef7
fc9e
ff03
ff4a
fda7
fd08
000e
fe5a
fe05
fdc2
feed
ff77
ff96
fd26
fe17
0001
004c
fe2d
ff3b
00ed
ffe6
0040
fe00
fe97
007d
0212
0167
ff06
ff38
ffde
fea7
fe07
fe6d
0011
00f2
0125
fc82
fe6d
ff46
fe30
016b
01f0
01ba
01b3
fff6
fef7
005a
01c6
ff04
016a
00dd
feac
002e
ff78
ff96
0099
012d
0161
00b3
fe90
0037
0160
01d1
003e
00b9
fe6d
ff2c
feb6
fd45
000d
0028
fe21
0147
01b6
002e
027f
fffa
01d9
ff5d
fe12
ffe0
ff3d
00ee
fff7
00fc
ff43
011a
00f4
fe73
017c
0010
fef9
ff62
fe92
feaf
006a
00b9
ff28
009c
ff9f
00b1
01ce
00b7
fe74
fe32
ff0e
ffa8
0163
0142
0159
0060
fefc
00d7
00ce
02ed
0245
01f3
0076
ffcb
feea
fdc1
feaf
ffef
fff8
0067
ff49
fe7f
febf
0032
016c
0080
fdf3
fdbb
00ed
023f
ff78
0107
0135
0087
ff18
ff47
fdef
fe07
fe9d
fe78
fefc
00c6
009d
feb1
0203
013b
ff1b
fe33
0140
0134
fe1f
00b2
fec9
fd18
ffeb
0077
ff4d
0271
01e3
0144
0064
ffe5
fe70
0153
00cf
ff1c
0013
fe12
fd64
fe9e
fdb8
fea0
ff39
fe63
0002
0095
ff18
ffed
ffbf
004a
0004
0129
01c3
0128
ffec
feab
ff64
0200
02b8
0128
01ce
ff2c
fe84
fd90
0083
fecd
ffdb
0183
008d
fe48
fe4f
febb
0237
00db
008c
ffa6
fec3
ffba
fe5b
0025
fff0
fe96
fed7
ff32
fecb
014a
0087
00db
01f4
01cf
006c
01a8
0295
00cc
fe63
fdc3
009f
026e
0232
021f
fe4f
fdfa
fe8e
ff4e
01c7
ffc5
0040
fff4
febe
fe45
fe1f
fe20
002d
fe60
fdf8
00e8
fe93
ffc0
ff34
004c
fe9d
fde5
005e
fd8e
fec2
fe59
fe1f
fdd7
0136
01c3
0037
ff52
fecf
ff53
ffcb
0248
005e
002b
00fe
fef8
fd0b
fd09
0041
0163
0071
0174
ffe7
fdce
fdc4
ff25
00bd
fd92
fe7a
fd64
fd9a
00f7
0125
0083
fec8
0041
001f
fe57
fdaf
fee9
fdfd
ff4f
fe57
0103
00f1
008c
ff03
0087
0028
ff07
fd31
fdf5
01b1
00e3
ffbc
013e
01f8
0063
ff4b
ff8d
fead
ff58
ffdb
feba
0065
014b
0005
fd72
00ee
0064
0181
026a
00db
feff
00c5
0026
00a0
00db
0140
0072
ffb3
0127
fee9
0175
ffb8
006e
0262
016e
0063
0022
0228
0251
feda
fec0
ff0a
010a
ff3b
fecc
fff5
00eb
0058
fee4
fed9
01c4
ff13
ff19
004a
fe3a
018d
01d8
ff1a
fff9
ff91
ffce
0159
0107
ffcb
fd99
ff83
ff34
ff48
01aa
feda
0079
ff7e
0234
00c5
025a
fec1
fe64
fe27
fdf8
0204
00b1
00cc
0078
0028
00b0
ffc0
0216
0142
0143
ff3a
009a
ffc0
006f
011c
0258
0220
fea9
ffbf
00d1
fee9
fe90
feec
0120
ff34
fee1
fddd
fd91
fe94
ff6e
00d4
017b
01a8
006a
01b3
ff39
015e
ffb5
01d7
fe7a
fd94
fdc8
ff89
0088
00f4
0007
fff6
ff59
fd9d
ff98
0113
01d2
0016
0118
ff51
020b
016b
ff8a
ff5a
007b
004e
fe1f
fdf1
ff76
00c3
0063
00aa
00b6
00be
fef9
026b
00f9
fee4
fe1a
fce2
fdcf
feb4
0228
012c
0065
0262
ff21
feea
000c
0088
ff3c
006e
fed3
008a
fdaf
ffb0
0066
014d
ff25
0096
0003
0177
ff06
00db
fe3a
fe5c
00c4
ff82
fe91
ffbc
fd5f
fecd
fec5
000f
0075
01c7
0194
0053
02c1
0007
fde1
ff40
fff6
feb9
fea4
fdb7
ff59
01fe
017e
fef8
fe3f
016d
ff6a
fefe
0082
ffff
fd76
fd79
feab
ff23
fdb8
ff4b
00f1
fe2b
001f
fe08
ffdf
00e7
001d
fefb
fed8
ffb7
ffc2
ffda
fd80
fed9
0082
0059
ffa4
0017
02c3
ffb3
0087
00e5
0131
011f
fffa
ff83
fe12
fe37
ffe8
008f
fe87
0125
00ab
fe72
fe68
0119
ffdc
0154
015d
0152
0239
fe0f
ff12
0163
02e0
018b
009e
fff3
01dd
0007
01c2
febc
ff79
0041
fe46
feb1
fca9
0090
02d0
006f
01a2
ff0f
fec8
0021
ffa4
022a
015d
02e5
013e
008c
0232
01f7
0173
005a
0091
ff93
ff25
ffdb
0012
ff55
0066
ff9f
ff70
ff83
010d
015e
fe89
fef5
0035
000e
ff93
013b
0034
ffef
fe7f
fe7f
fef0
ff63
ff9d
01ec
0124
ff2e
ff6d
004b
ff47
00c2
0159
0125
fdb2
ffeb
ff8f
0033
fe7c
fdc7
fde1
ffe7
0063
0050
fec4
0034
ff8b
00b9
0024
fe47
fdb9
ff94
fedd
00b9
fd9d
0066
0200
00a2
ff63
ffca
ff49
ffc8
ffb5
ffd8
0115
ffa9
012e
0050
00e2
023a
027e
ff4a
0091
0192
0223
01f6
ff2b
0116
0106
ff3d
ffc4
ff84
ff01
000d
0120
012b
0300
003e
ff52
feca
ff6a
01d8
ff62
01fe
035b
00f2
014d
fe2f
fc9d
fe91
fde7
ffce
fe6e
ff29
ffb4
01d8
02ca
00bf
ffb0
01f0
00b9
fdef
ff26
0188
0105
026f
ff86
fe73
00ae
011e
fdf6
0053
ffdd
01d8
ff03
00db
017e
ff06
00f2
ff7d
01c6
009b
ff4b
fff7
ff40
00cd
ff29
01af
0030
ff0b
ffcf
013e
00b0
ff93
fed8
fefa
0130
00b5
0127
ff24
ffae
ff38
0082
ffd9
0030
fdac
fe25
00b2
ff3c
00c8
fef2
0022
ff8f
fd64
ff85
ff15
fe37
0027
ffca
008b
fdb7
fe9d
fd84
fe32
00df
fddd
fe66
ff0d
ff1f
feb1
fe4e
ffc5
ff73
ffda
ffe1
00c2
fec7
000a
028e
013e
010e
ffb6
ff95
00e7
ff76
0035
fe99
fe67
010d
ff7c
01af
fe5f
feb4
fd8b
00b6
ff4a
00f9
0151
ffa8
0082
ff36
fee8
ff12
027d
000e
0026
017d
ff6e
ff46
00ed
ff0b
008c
fe4f
fe2f
00df
ff18
feea
007a
013c
fed0
fe9d
fdea
fff6
fecb
fec6
ffda
ff99
ffea
ffb2
00cd
fe8c
fe9e
fd7e
ff28
ff78
012d
003d
fe9f
ff4f
fd94
fe7f
fd64
0012
0159
0190
fffc
00b3
ffdd
ff79
ff14
01a1
011c
010e
ff1b
00a5
0020
00e4
025b
ffee
0011
0178
0089
ff99
ffd7
ff70
0015
0001
0087
fd7b
fd4b
fec3
fe91
fdb0
0053
ff15
0094
0088
fe07
fd0a
fe00
ff61
ff4b
0127
fe32
fd87
0040
0066
007b
01a2
00a9
0183
01fc
02bf
ffdf
ff7e
010f
ff81
ffda
0047
fff5
0194
00ae
0046
0095
0197
004c
00c7
ff49
003c
feae
fddc
00cf
0017
000a
014e
0300
0134
fee7
ff67
fd52
feb5
00ca
017e
0143
01ad
01f3
03d0
01f6
ffc8
022b
0209
0088
00ad
00a0
0021
ff28
fe61
0044
ff16
fe4e
00e6
fed7
0095
0034
017d
fe58
fe7d
ffe5
024a
015e
01dc
ffc2
fece
ffac
01ae
000c
01d2
0098
002b
fe5a
fe50
ff01
ff69
0039
ffa2
ff8e
ff0b
011b
003d
0204
0055
0113
002b
005b
0095
ffc5
01ef
0160
013f
0005
fd9e
fe8c
00ec
fe9f
fe22
0025
ffb1
0059
ffe8
0045
ff2e
ffe3
0196
ff9d
ffda
fe85
00e5
0073
ffae
ff6e
0104
0041
004f
fe0c
fe4f
ff4e
fe5b
ff86
fe73
fda7
fedf
00b3
ff09
01cb
00b7
029a
0231
0005
00cf
fefb
ffba
00c3
ff6b
ff7b
0071
fee8
013e
015c
ff00
fda5
fe7b
0014
fe12
fd41
fd39
ff11
0021
0079
0165
0240
00a9
024b
ffa6
0067
0233
0009
fe94
fe6b
010a
fef1
ff1a
00ae
0038
009c
001e
006c
fe82
fe12
003e
0116
0075
0009
ffae
009e
fd7c
fe78
fec0
fd90
ff69
fe96
ff8b
fdb1
fcc1
fed0
0002
feb9
fe2d
002d
029a
01fe
ff07
0152
00ff
ffa5
0171
00fd
ff07
00c0
ff01
015e
ff60
0180
0039
02b2
fff3
ff46
fefa
0036
00d1
ff9a
0159
ff54
007c
0119
01ee
01f0
ff4b
fe93
fdb0
008a
fdf4
fe39
ff21
0073
0069
ffed
ffe8
0061
0171
0162
fe6a
fea5
017f
0067
ff49
fee6
0080
ff4e
fff0
009b
01a3
ff57
ffdd
00d1
fe86
ffa5
0287
ff09
00ce
0189
00b3
018f
feaf
fded
00aa
00f4
0060
01d4
ffd6
00c4
01df
ff11
ff6f
feda
ff19
015c
0149
02f9
00ad
02ca
02df
0254
ff86
ff36
fe65
fed8
ffbb
fe99
ff14
0137
001c
fec8
fe80
003a
00d1
0257
01f2
004d
01a8
0133
ff1a
ff70
0065
00b5
ffdf
ffba
005b
ffec
fecd
008e
007c
fe08
fff8
fcf5
ffd2
fee1
ff73
ff2d
011b
0087
fffe
000c
fe5b
0062
fed4
ff2e
fef4
0119
ffd5
006b
feb4
0057
0168
ff8f
ff93
fe7f
004a
febc
ff72
0069
ff78
0132
0174
ff09
0009
fec5
ff12
fe77
ff89
0214
018b
0091
0139
feae
fe0a
fcac
fe06
fd3b
fe06
fdda
0049
fffc
00f3
fec0
ffa3
00e4
02c3
006c
ff74
0196
0083
02c6
01dc
01ab
ff6b
00b5
ff86
00e7
0082
0157
010a
0088
0218
ffd6
ff19
0036
00b6
021e
029a
0176
01f2
00a0
027e
0063
ff5d
001f
ff9f
002f
01c7
ff98
ffa8
ff37
fec5
feae
00a8
0023
0193
ffe8
ff6f
ffa4
fe03
fd5e
fdde
ff23
fee0
00b6
ffab
0004
fee4
0122
ff73
fd95
ff9d
0004
0005
011f
0035
01ec
feda
ff3c
feb6
ff0c
fd8e
fe65
ff51
01b8
ff9d
fece
fe6f
fd1b
fdfc
ff5b
ff10
01a4
00e6
0124
ff94
ff59
013b
0126
fdb6
fec6
ffb0
fee5
ff14
feb5
ffc2
ff6a
01b3
02b2
0143
0033
012b
fece
005f
ffce
0194
0035
ffd0
fefe
fe5a
ffef
00fc
0014
ff00
ffe6
fe44
0050
fff9
0208
02d5
02cd
0165
0235
017f
ff97
0189
ff8c
0099
fec3
ff0e
0157
ff47
ffc7
ffd4
ff34
0177
fff5
feb1
0111
ff18
ffa2
0053
01d4
ff46
fff9
004b
01be
0044
fe29
006a
fd85
fee4
ff76
01a2
fe2f
fe11
feb1
005f
ff7c
004d
00c9
ff6e
fe6c
ff9b
ff78
0343
00bd
0295
01ad
0236
0166
fff1
020e
01c9
0061
0003
0233
007e
013d
ffa5
fcbf
0032
00ee
ff34
ff1f
013e
02f6
febc
0135
015f
fde5
ffa3
fe61
fd5d
ff4f
00e2
01ef
0031
ff97
01cf
007b
ff09
fff2
ffb4
fe59
0152
01af
0170
0122
0095
fff2
0082
00ef
01cb
ff54
0116
0219
00b1
00b0
ffc6
fe73
0023
ff55
ff76
0185
ff71
fee6
009a
fe6c
fe74
00b2
feff
fe67
0006
ffd8
0042
0219
0232
0042
fed8
fef3
ffbc
01a1
005a
01cf
01bb
0010
01c4
00e4
020a
011e
0044
ff35
ff2a
ffbb
015e
0049
0014
0074
ff54
fe98
003f
feae
027a
0251
fe73
fdc3
fe35
0163
0194
01e0
006a
ff9a
fddd
fe19
ff34
ffc9
0176
006a
ff14
ff17
0203
018e
0218
01ff
00b4
0071
030a
00cd
0061
feac
00ac
00d6
00ee
fffe
ff3e
ffcd
fd83
0181
0171
ff83
ffe1
026f
01c4
0015
ffdd
00f7
0092
00db
00e9
0020
011d
fef0
0089
004c
ff11
0079
0267
002c
ff66
0010
002e
ffa1
fe85
0031
0063
fe95
ffb4
ff4d
ffb6
fe6e
0055
ff9e
0079
ffee
0015
0060
0091
0074
fffb
ff6c
ffd4
ff83
003d
ff1d
fe5f
013f
0138
fec6
009d
fecd
fd47
ffcb
002b
00b4
007e
00bd
00c9
ff58
0119
00eb
008b
fe13
ff3a
0056
00a8
fec2
ff5b
ffdf
01bf
02ea
016b
01f1
008f
00ae
01fb
017e
ffd0
0085
0161
fe88
ff34
0009
0221
002b
feed
0019
fffe
ff52
0182
ff22
feea
00aa
fe80
007b
ff20
01b4
01f8
00dd
ffdc
fe60
fedf
fd66
fe34
019b
0134
005a
00bf
ff47
ff14
fe04
009f
00ae
fe8c
005e
00ea
002d
ff81
001a
fdc3
00f3
fe4b
0013
fff6
005e
00ea
008d
fe76
019a
ffbd
fffd
02bd
0282
0089
019b
01be
fefe
008f
fe54
00f8
017f
0136
00a8
0007
0105
0027
0067
ff8c
ff0a
0046
0153
00f8
02c0
036c
ff88
0013
00f3
fe3e
00b3
ff11
0122
00d7
0053
0133
010f
00db
0071
ffff
0060
011e
0210
ff1a
ff72
ffae
01b4
0028
00bd
fff5
fd30
fd8a
ff16
ff12
ff5c
ffa2
01a6
ffc8
fde9
fff1
ffcc
feb3
fdcb
ff2e
00d6
fef7
feb6
004d
febf
01c0
ff72
0039
ffb4
ffb2
ff8b
fecd
012d
000f
017f
0015
022e
0097
00a6
ffb0
ff47
feb5
fe19
ffe3
ffa2
0193
003e
0254
0159
ffe9
00ac
fff7
021f
001b
00f0
feb3
0098
fe8e
fd75
ff31
00cd
0133
ff20
014c
0286
00e3
ff94
ffaf
0152
ff03
fe98
0184
fe8d
0212
023b
0282
0037
01df
01d8
011d
fe65
ff54
fe75
feb2
016f
00d7
00e5
fe62
ffba
fe81
008d
ff2f
fe2f
fe68
fdac
ffe5
00d8
fef9
01d2
fecd
0198
ffd3
ff6f
ffb2
ff28
01c5
012b
01b3
0094
ff30
0003
012e
0123
0118
ff47
ffc6
fe8c
ffc9
0180
ffe5
ff41
fed8
ff03
febb
fda6
fec0
fe1f
ff48
fe68
008d
ffa0
0085
ff26
00f8
ff29
fe34
fee5
0064
ff96
ff25
0150
014a
fe86
fe8c
00ae
fe32
ffdb
010f
0111
feee
00dd
fedb
ff61
ffbc
fd96
fede
fcd9
fcea
005a
00b3
022c
0254
ff40
ffed
0073
006c
00bc
0043
005b
0005
ffd7
0119
0071
ffd1
ff17
fd90
fdaf
fe1b
0036
0060
00b2
005b
005a
ff96
009d
017b
01f8
fe67
0026
0009
0045
01ab
024a
fea1
ffaf
fdff
023d
017d
0057
0106
0057
00a1
0078
fff8
0234
028f
0198
00dc
fe14
ff41
0061
ffe9
006c
01bd
0021
ff7e
008d
001b
002f
0047
01c9
01a1
fe6e
ff72
fff7
01fb
0180
fe67
0066
ff97
ffaf
0123
fdeb
ff55
ff56
ff7e
011a
ff6f
ff1e
00c5
00a9
ffb3
fed5
fffa
fdf7
00f4
fef4
014d
ff62
ffef
fe66
fff2
fe9d
0068
00cd
0146
ff58
ff8b
009f
0188
0101
fe35
feb2
fe48
0047
fee6
ff63
fe9d
fda2
0029
fe4e
fee8
fe43
fee7
fec6
ff15
ff55
fda2
fdad
004f
012d
00e3
ffed
fe89
ff34
00ee
00d1
0134
0169
fe71
00a0
fdef
ffac
ff48
00ac
0161
0290
00f9
0248
0246
ff0b
ff5c
fed3
ff14
fe38
fd2f
feca
ffb5
00a0
ff2a
fe83
fe80
001d
fd84
fc8e
013b
00dd
fe43
fedb
ffbc
00ca
0090
ffdf
ff15
ffcd
02bc
0202
ffd7
005b
fe8c
ff1d
ff1c
fd1b
fe39
fe41
0082
fe57
0008
fe56
fe7c
fe43
fe8f
fed8
feee
fdd7
fdea
0018
febc
00b8
ff24
0242
00de
fe68
fd44
015d
ff7b
0018
ff81
0162
fee6
fdf2
ff13
fd64
fcea
00bb
019b
fe40
fe30
fd9e
000a
ff89
ffe2
01c0
ff82
006d
0071
006a
ff1a
ff1d
ff01
ff14
004b
003e
ff39
010c
feb9
fd76
fd36
007e
001f
fe1d
fdf9
fcf3
fe1f
00bc
ff9e
00e7
ffdf
0255
0078
020a
ffd1
fecc
0065
febc
012f
00f7
02da
007b
ff11
fedb
fe8d
fe87
ff22
ff72
017c
003f
01bc
0124
005e
01b1
0171
00ca
ff93
fe48
fd7a
fdce
fe01
004a
ff73
fdab
fff6
fef1
00d2
feee
ff2c
0041
002f
fef3
01c3
0020
0276
0285
ffe8
020b
0011
00d7
0207
0155
ff67
ff6a
fee8
0046
0205
ff99
ff14
00ca
012b
0042
ffb7
00a2
0234
021c
fdc2
ff1e
000f
0108
ff6d
ff9c
028c
0236
ff69
ff27
020f
0185
ff34
013b
00c9
0100
00c8
0263
ff07
00ea
0055
0048
01be
0222
0203
013d
0045
0011
ffa3
0283
01f9
ff69
fed9
00fc
01f5
034e
fff6
01dc
ffae
fe02
fef2
ff93
0135
ffc6
ff50
01b0
0044
ffed
0005
016a
0178
fef8
0026
ff41
ff1b
0087
feee
ff88
ffe3
00c7
00cd
ffb4
ff5f
fede
01bd
ff24
0139
ffe8
03ef
0359
025e
fde0
ffc8
fe75
0019
fe8c
ff96
ff35
003d
fffc
0134
0027
fdbb
feff
0249
0119
ffb6
003e
014a
fea8
ff62
0129
003f
01d7
006c
ffd6
0085
ffd4
ff20
01cf
ffd6
ff2c
ffdb
0021
ff58
00fb
feed
ff2b
0147
ff45
ffaf
fedf
fd58
ffdf
01b7
ff13
fda8
fdeb
fd34
ff28
ffaa
ffb8
0025
0060
0033
ff92
fea2
0054
ffff
0050
0064
0138
ff0d
00d7
0070
ffa4
ff2f
ff14
0142
00d6
ff08
ff29
01ed
ff34
01ab
00e7
ffe0
ffa6
ffa1
ffd1
00f6
0066
018a
0071
0089
0014
ff62
ff47
0124
ff52
009f
fe43
ffff
fec5
fe26
ff26
01ec
fe26
fe09
0228
02a1
0105
02f1
005f
febb
feb1
00de
0141
005e
0038
00a1
017e
fff9
ff06
fee7
0113
00cb
0038
00dd
00d6
011e
ff50
ff25
0023
fe62
0054
0026
0027
ff66
00c3
ffbe
fcda
fe8a
0143
fff9
ff6b
00de
ffb3
febe
0085
0131
fef4
febd
0170
fffe
ff3c
fe9e
fe5d
fff2
fda5
ff88
fe54
008c
fde3
fd7f
fd0a
0064
0162
fe60
fd9c
ffc9
013a
0054
ffb2
ffd9
0058
ffd3
0070
0102
0197
fe2a
001c
fff9
fee0
00f3
00ba
ff6e
0164
ff55
0122
fe76
00fa
001f
010f
ff29
0060
ff2c
0151
0104
0038
ffaf
ff73
ffef
ff18
fe6e
ff16
fe5d
ff26
0064
fde2
fe41
fdf0
fefb
02ab
01d7
0198
0146
ff23
014f
02a7
0167
014d
000c
009e
fee9
003a
fee3
00f0
ff3b
00b6
ff18
01ad
ff77
ff84
ffbf
fe82
fe7e
0002
0087
008c
ff6c
ff7a
ff4b
febe
002e
ff96
0284
037d
006d
fe07
ff20
0037
ff16
0253
019d
fe12
fdc3
0113
010f
0057
fee4
01d3
ffb4
002b
fe58
0080
ff51
01cb
00c3
0171
ffe5
fe96
ff33
ffe9
00bb
014b
0063
ff3d
fe1c
fec7
003f
fed0
0064
feb9
