fc43
ff69
fd3c
001e
02de
fd92
ffd2
fd24
ff98
008a
fc61
0308
ffe4
ffee
002d
fd13
feb9
030e
00b6
fe82
fc19
0128
fc55
fe5e
fbc4
02c7
fd00
ffce
fda8
ff46
fbb1
026e
01c0
00a9
fc90
0190
fc88
03d9
0374
01a8
fca0
fe85
0026
ff94
ff8b
fe7b
ff06
fcef
015a
0208
fcbd
008b
fe92
03c8
fc85
fe3c
00ff
049e
0201
03f5
fecb
fb40
042a
fded
fda2
fe73
fd2d
ff4f
ff2a
fd4b
0059
fecd
001d
fbf6
01de
fde5
0344
fde1
01e5
016f
ffdb
ff50
01e6
0139
0193
fcfe
0268
fd72
fcc8
fe67
03c6
fec4
fd66
01ed
fea6
016b
04ed
037a
ff79
0334
0538
053a
03c2
fca7
01cc
ff19
fb02
fe64
fd43
019d
fa55
03cd
0504
02fe
fbf4
0407
fc54
fe45
fa02
fbea
fec5
fb83
fc78
029e
0431
fe1d
ff38
fde8
fb72
0451
0336
fcee
00a6
fc02
01ec
01c0
fd03
fe45
0019
fe6d
fc67
021a
052c
fc92
01aa
0247
fe35
02bd
0135
018c
fcec
0186
fba0
0082
03e8
0377
fbc3
0099
00ef
fc2f
0015
006b
fc10
ff19
00be
04b4
fbd0
0441
0409
03f2
00a1
fc44
ff5a
01d0
02c1
013e
fd42
03c1
0192
038a
00fc
0495
fe2e
01cd
fe72
ffa4
fc73
fb98
ff84
fc4d
0073
01dd
fd71
033c
fd43
029d
0289
05a4
ffd3
0116
fbda
02ce
fe85
fcd7
fc19
0511
0469
ffb8
0451
fc3a
0249
ff82
04e5
00c6
0369
0373
008c
feb6
0225
03eb
fb1b
02e2
fd1d
02f2
fbb1
0308
058a
fea2
fc41
fec9
feb2
ff60
fe29
00b1
0439
ffad
01e6
fe54
fe73
045d
01d0
ff86
00a3
fffa
fca8
039f
0107
fc1e
ffc7
fe78
ffc1
fe19
00f4
0426
ffe6
fd0c
02ac
fe4c
02b1
fdf9
fbf1
fe9e
fb09
03fa
ff12
0515
0193
0266
0402
0477
fe9d
0186
02b8
0450
033b
006c
fcca
fe73
00b4
ffbc
ffb3
fec7
fd72
00be
fc00
0086
0451
fc15
fd44
03d0
0048
fd76
001a
005a
febe
ffc2
03dc
002a
0095
0213
ffc7
ff61
fd9f
fc45
02b3
051f
fbce
fdc5
00f4
04be
fd61
0368
fc16
0136
02a8
fd5f
0238
0223
0298
00af
036c
fba8
fd8d
0100
051f
fe5d
03f1
fd49
0044
fd42
fadb
045d
fd69
fc41
0207
0249
fdac
fc89
027a
01d0
ff9f
0116
fda8
046c
02db
ff12
033e
03b1
021d
01a8
ff10
fc23
ff4b
023b
00f0
016a
fecb
0166
02c4
0026
fe8f
0399
0365
0072
ff2b
fce0
fe94
fc49
00e5
0110
019e
02eb
02eb
fc94
0036
0182
fd60
010e
fe1a
ffb5
02a0
03ed
ff67
fd20
fe3e
00f5
0081
0123
02ee
febf
0368
fff3
fc10
0004
ff07
02f6
fc6c
fd0b
fc5f
fd4b
03cc
fb9b
fcaf
045b
fc92
023d
037b
0118
fd2e
fd3f
048d
0485
fc31
0073
fe07
0427
fc74
028a
ff47
02a8
0291
fdd4
fe39
fc78
014d
011f
0348
fb97
0380
ff34
fbad
ffef
feb2
fcde
039c
02d3
016b
0299
0167
01b6
036c
0387
ff0d
fc3b
016c
fc01
fe76
0124
fc78
fcfc
0358
fda2
fedf
03f9
03da
00c6
fe77
fe46
fe74
fcea
01ea
0282
01af
fe7f
0414
035f
fd18
fee1
fe64
029d
ff6b
01eb
005f
fc9e
0183
0099
fd1b
fbd7
010d
01c1
02be
fc4c
ff5d
fc60
033e
fd5f
fe9e
ff8b
022d
fd8b
fe1a
fd99
0281
023a
0032
fe09
fca7
00b8
fd84
02b9
0419
fe7b
fb9a
02cb
ffd2
02e1
0055
ffcd
fca8
fe28
fd12
03d7
0147
02c3
0154
ff11
01e7
fd44
0186
fb82
fdd4
029b
035e
049f
010a
fd23
fed4
fe5c
fda5
03c3
fc18
02a7
0201
fd03
0236
03e4
fdfc
fe21
0294
0022
028b
0293
01cf
fee8
036c
03b6
037b
fdca
0257
031c
01c4
fd34
fc62
fcec
fc5d
ff0a
0347
0035
fbc3
0349
015e
0253
0271
ffe0
00be
0383
fc62
030c
fbbe
0340
fdd9
023d
0177
ffbe
fff0
0421
01cf
ffbe
ff27
fff2
ff10
036d
009a
02c6
fbe5
0023
fedd
0444
0345
027a
000b
0189
03b0
00ce
01af
0200
019e
fd4c
fc26
ffaa
feb4
0051
fce0
fe4a
fd15
0418
00f9
ff37
02cb
0352
fd1d
03f0
ff8f
fc16
0447
00ae
0210
046f
fe3f
fce1
fcb8
0390
00c5
fd95
00df
fd58
0486
fd22
ffb5
024c
001b
ff70
ffa1
00d4
012a
03d9
fd34
0125
0448
034b
01cc
fe85
02a4
feeb
0279
031d
fed2
fb8b
002a
0146
fb84
0297
00db
fbe1
046c
0273
fe7b
0004
03b7
0465
fec0
fc2e
fdf9
fe77
0233
050f
ff54
028d
044f
fb6c
04d2
fc4f
ffc1
fee9
fded
0458
0076
fe45
01fc
02b4
0067
fe7e
fd9b
ff10
ffa7
01e4
0343
fcf8
011e
02dc
fd7b
0333
fd78
02bb
04df
02be
fe98
0308
002c
ff0c
ffb7
fe20
025c
ff6a
048f
fc17
fcce
ffd1
02ed
fe94
0191
0135
02a6
ffe1
fd1f
004b
0316
fce7
02a0
0341
fc45
0234
0046
0222
ff3d
04c2
fbdb
0376
020f
fc14
0102
fc4a
00a5
fbd3
ff6b
fc0b
029b
0309
fbd5
fd69
ff85
fb62
047b
040a
fd65
01c8
feff
fd1f
ffcf
ffba
fcc7
01c1
fb82
fc83
009a
0266
fec2
fc57
03fe
fb64
fc20
fffb
03d5
ff55
fe23
00ab
02f3
02a9
01da
00cb
02b9
030d
00e2
ffaa
fedd
02ea
0200
fc82
02ca
01ef
fc5d
030c
fc9b
ff9f
fddd
0129
ff55
04a6
034f
01c5
00af
041c
fce5
ff6b
0351
ff41
fcfa
fbf9
fe12
fc67
fff0
02f6
040d
fd54
fd24
fc09
fd87
fd59
fd54
fe0a
0314
fc63
0248
fd12
044b
0296
034d
01f2
fc3d
0126
00f2
030c
0037
00b9
021f
01da
feb4
03d9
ff4a
fc48
fe2b
fb78
fdd9
fd7c
fd72
02bd
0237
0115
03a1
feaa
0092
024a
fda5
fc40
02a5
fc42
fc4d
fcd5
0250
04b0
0201
fe48
fe86
fdf1
fee4
fc93
0348
fb54
0131
0373
fe82
0079
02c4
fdbc
0066
ff3f
0128
fdfa
ffd5
0151
fd73
0045
02d3
fd76
03ae
fcf6
fd8a
fc28
0148
0293
fc46
02ab
ffc5
fcb5
ffb3
ffd1
045e
033d
0382
fc2b
004e
ff43
fd6e
00c0
fc82
fae2
01bd
047f
02a2
002a
f9ce
fec3
008c
0221
006b
031f
fff6
fd6b
fc96
0266
fc45
0183
fe96
0325
01d6
0069
fc89
fb1d
fcdc
0131
0236
ffc1
0260
fb96
fb6a
0388
0367
01e8
fcbb
ffd3
fc97
ff0c
008a
039d
fefe
020a
0227
fd41
fd2e
fcba
01f0
0219
016d
01a9
01e6
014f
0011
0233
016f
fd66
ffc9
feab
01cb
fcb2
029e
0079
0311
fe94
ff4b
03ef
03e0
fda9
0066
fd2f
0372
0192
00f6
007d
ffba
02a7
0283
03d7
fe0a
0201
001e
0470
017b
fd4a
0150
ff16
fba9
fc0f
ff06
02b4
fed3
fc4c
0258
fbaa
01d0
04a6
fd77
003a
fe6e
0276
0300
0300
fd95
029d
02e9
ffdc
fd4e
00d8
fc88
fcc3
035e
00cb
fd0e
fe82
02d5
fba5
01a7
0297
0123
fc9d
027f
fe93
ff92
fc81
0197
ffb9
fbe1
02af
00ab
01e9
