013e
00c3
ff68
ff14
007b
0225
fe9b
0071
ff67
0127
00c0
ff78
fe0c
00be
01c6
04e0
0116
fd25
00d9
ffcc
ff06
015b
fe70
ff55
fd92
01ee
00de
fe88
fffa
028e
014e
fda4
005a
0188
ffa9
0145
ff95
ffbe
007f
ffe1
00e8
fd9c
fe4c
0130
01a1
0086
ff4c
01bf
ff2e
0205
ff41
ff78
fd85
0200
0156
00db
fe9c
01a6
ffba
fff8
0115
017f
0447
011c
02cf
fe50
012f
0071
fead
ff09
fe86
0022
fd30
ff77
fffb
0132
fdd9
00ae
ffbf
0039
ffec
0144
0223
0049
fd64
fe93
0073
ff74
029e
0110
01b0
024f
0131
ff59
02c9
0253
0152
0263
007f
006e
00dc
fd70
002d
fe4e
0208
fee8
0109
0101
0039
feb8
0301
fde1
ff60
0144
007f
fe12
00d6
023c
fff1
0449
fe7c
0174
febc
fdd4
fe72
0046
0055
003b
ff0a
ffbb
0013
ff03
0106
0190
0035
fedd
006b
ff4c
ff45
0214
ff21
025e
022e
0162
ff2d
fd06
fe71
ff6d
fef2
006a
0225
fee8
fe64
fd29
0109
02a5
ff64
0135
015c
feae
010a
004d
ffc2
ff49
0182
ff5f
fff9
020c
ff6b
ff92
0055
ff7c
00db
fc96
fdd5
fe91
02e0
ffe1
0072
02da
00b6
fe2f
ff26
00d4
018f
00f9
fff4
0031
ff53
fe95
fece
00e4
fd3b
01f9
fdf5
0111
ffa5
fee5
fe4f
ff9e
fe73
fe40
ff6b
0160
0115
0297
fe93
ffcd
012e
01ef
ff81
021c
ff55
01c9
01ab
01da
01ab
00a1
00d1
023d
00ad
0015
fe06
ffb2
fefb
01c5
fe5b
0192
fed6
fde3
0108
00c5
00e6
01a9
fecb
00b5
ff21
ff7d
fd5d
01a2
0242
fea4
fea1
0216
0210
ff8f
0013
0125
ffe5
ff3f
ff1b
fdb5
0121
fee0
fefc
00de
ffb9
001d
03a7
00df
ff79
feb7
01b0
ffb5
fd5f
0209
fef8
00ce
fe9e
00b5
019a
ff82
fdeb
0041
ffd8
0271
010e
02a6
fe42
02b5
021b
013e
fef1
000e
ff18
fc83
00f7
fd59
fe92
fe99
fe42
feeb
ff08
00c3
fdcd
02a2
016f
02d2
01d1
ff5e
fce4
00d7
00f8
ff02
ff6b
003a
0270
ffa5
03e9
020e
0015
00d0
0170
fde3
ff29
0043
01d2
017d
fd4d
007f
01f5
00e7
ff86
fefc
028b
00da
021a
ff7d
fe61
014a
00c6
033b
013c
0060
ff19
027f
00dc
fe7e
fcec
fe98
0103
0079
00f4
fdf2
ff71
01ac
001b
0146
037b
02f1
fc8d
ffe4
ff95
0050
fe42
fe0a
00c3
012b
02d9
ffcc
00e9
0362
fe45
fffa
021a
fed3
fd52
ff21
01d0
ffdf
ffd3
0160
fe81
fd16
0028
ffdc
00f9
0110
ff39
01ea
ff3c
ff21
009b
0046
0118
fcda
004c
0146
00c0
ff94
ff92
fdc4
003e
0259
00cc
fe8b
028b
ff67
fdc6
009b
fe90
00cb
0089
00ff
00fa
0275
fe32
0121
ff36
ff15
00cb
0060
ffdf
001d
fde3
ff4f
027c
0286
02f6
fec4
00b3
fe17
fe5d
fd04
ff30
fe55
fff3
02a8
0254
000d
ff6b
fee2
002d
ff14
010b
0134
01ed
0092
0083
02de
013b
0074
0086
02ef
ffe2
0288
004a
fdf3
ff9d
00e6
0065
022a
ff19
ffd0
fe0c
ff1f
fe3c
feef
013b
01fd
fed4
fed8
fe93
ffa6
ff5e
fe40
ff15
01a9
fe14
00c5
ff92
0204
ff7b
00fc
0261
fde4
01ad
fef1
ff63
0043
017e
fe8c
0169
ffe0
feb9
002b
01e5
fdca
feee
fee1
01a5
ff42
002e
01bd
00e7
0126
007a
022f
0153
021f
fed1
00a5
ff8b
fe76
02e4
fe6a
fd99
fe73
01f2
fe28
ffbd
fefe
fe98
013b
fe62
0263
0271
0229
ffb5
ff5b
fdc1
ff12
fe2b
01b5
ffbf
fe63
0218
0106
0008
0036
00e5
ff3d
0091
ff18
0208
0184
01d4
008d
030b
ff3a
ff62
ff9d
fe34
0028
0211
0296
ffb8
ffdb
007e
ffaa
01b1
0037
0119
01d6
fe2a
0024
0179
fd86
fd96
001c
01d2
fdf2
fe28
0387
0270
ff6c
0051
0073
017a
fe83
fc76
fef2
ffa8
fed7
0204
00d8
00a6
0091
fe95
fe5b
ffe6
fe34
fe75
fd52
fece
fd3b
ff38
0022
023b
ffe8
01b5
feb7
017f
0221
00c5
fede
010c
0029
01fb
fdaf
016e
016c
ff11
ff26
ff21
fff9
ff64
0048
01e9
fd67
feb4
003d
00ed
010e
ff3a
ff00
fcc3
009b
0025
007c
012a
0232
fd9d
0051
fde4
ff29
fd17
024b
ff31
fee2
fe7d
0091
0248
00c9
fdc8
ff46
fef4
fda9
ffb8
fed5
000d
fd2d
feef
fec2
016f
fe9a
fede
0056
fef3
00e4
ff65
00c8
01b6
fe6d
fdd1
fefa
fff9
fe1c
ffdb
0135
fdbe
00ab
0342
ff24
02fb
003b
fe3d
fd81
00ca
01a6
fe53
022c
0138
fe37
0089
01b4
ffb8
0235
004c
ff09
0021
003e
ff31
02e9
0240
ff5f
ff65
0061
ff69
fd43
fc38
0133
00f5
ff58
011c
00ac
02d4
0100
ffcc
fd7e
0084
00ac
ffd1
01b2
00a5
fed0
ffe5
023b
01ea
00db
fde8
ff06
0021
ff1d
0199
fde3
fe37
0268
01a2
01c5
01d9
0028
fe0e
021e
025b
fd29
fe71
fe52
008e
ffb4
02a2
fdda
ffe4
ff68
01b7
fd31
fe0d
ffd2
0097
ff9e
ffff
002f
fcdc
ff54
01f2
00d7
0143
000f
00ce
ff3e
fe4a
0103
ff72
ff95
ff8c
fee4
002c
0346
fd82
ff62
fcda
feb3
017a
fec8
01a9
ffdf
0013
fe9a
ffe2
fe38
0222
fea2
003c
00f3
fe31
00a4
ff3f
ff59
ffbd
0059
fe3f
ff8c
fdbe
ffe9
fefa
013d
002d
02eb
fecc
0347
00ce
ff1e
ffd3
ff1a
fe49
00ea
0253
ff5c
0177
ff76
0122
fdd2
fe98
fe89
fffa
fef2
015f
fdc1
015b
ff14
019f
00f2
001f
0070
fe46
002a
ff5a
0002
019d
ffae
0207
fdfb
0159
ffa8
0316
ffa8
0017
fed6
ffee
00de
0050
ff1e
ffd3
02da
0127
006e
ffa0
016e
fe94
ff8d
ff3a
fef3
fe72
fdfa
febf
ff71
00ff
002d
02c6
00f9
ff03
fec1
0208
fe3b
ff38
ff84
008d
01e6
ff22
feac
fe7f
00c9
fe28
ff78
ff4e
0118
006c
0238
ffe0
00a5
fefb
01a2
ffaf
fe56
fede
003b
0058
014d
fe1f
0262
00c7
fd2c
00e4
0074
ff12
ff38
ffea
feef
fd71
fe1b
00e1
fe24
011d
0167
fecd
02c6
ffb4
03b9
fbec
0154
ff3b
026d
fda4
020a
fd7e
0099
0153
fe5e
0010
009c
00ee
0374
0112
fb47
005a
fe3e
ffd6
fd97
ff8d
fc76
fedc
012c
ff7f
fcd5
fe33
040b
fd63
035f
02a8
fefb
029b
fdc9
fe9b
fdb8
fefb
fc82
fd0f
fff7
006f
0164
036e
fed5
fe4e
0207
00fb
ff91
fde4
017f
fd40
fdc7
0074
fd94
ffd8
ff38
fdc4
02f1
fcdf
0077
0405
fe78
fe58
0141
fd64
ffe9
ff82
00b0
0179
0104
0321
fde6
025f
ff6d
0152
ffa5
0040
fdb6
005e
00a6
00a2
ffd7
fced
fece
020e
fd06
fe22
fd99
fdea
fc31
026b
fff6
ff83
01ab
02ee
fd46
fd31
feae
034e
0373
023f
fd4d
fe99
fe24
fd58
fff4
0157
ffaf
ffff
01d1
0057
fc7f
00f3
ff1e
fe2b
fc38
fe56
fd5a
01d8
0183
0261
fe8c
fe0f
fea7
ff21
005e
00c9
fece
fe6e
fddb
fd67
ffb6
0040
00f1
fe8a
0090
0248
fcd7
0287
0076
00b6
02bf
0030
fe22
fe25
fcfb
0155
fec4
00f5
0185
0227
feeb
fdaa
ff02
0011
0274
ff36
0187
0257
ff03
ffc6
007c
01df
02ab
fe3a
fe84
0163
010f
fe6c
fee1
0041
02ef
00d7
038a
fe17
fe2d
fe69
fc7b
fed9
00f6
005d
01ea
0087
fd84
febb
fe24
0175
0226
ff88
00ef
ff79
ff4e
fddb
0137
0096
ff21
fecf
feff
01cb
fdb0
fe33
ff9e
0148
fea6
ff91
001e
febf
ffc2
ff49
016b
01f9
ff0f
0249
01aa
00d7
fc6e
007a
0210
0171
00ff
01c2
00e1
ffe1
022d
00d1
ffe3
ffbf
004c
0060
0275
01d1
feee
0240
0102
ff8b
fdbd
0190
fde3
01e5
fe75
0283
01cc
0021
fe02
0079
0086
ff6a
ffe2
ff3c
ff4b
fe4b
fede
fe91
01ed
fdb6
0153
022c
0034
006e
0071
fe27
00ef
0016
0080
003a
00f7
fe1c
01b5
ffbc
fff4
01e6
0105
00a4
ff7a
005a
ffef
0085
ffa5
0009
01fa
009f
fede
028f
0068
ffb7
fec0
fcf4
0201
fd33
0185
fe07
feec
018d
00ea
fed1
014c
ff46
0210
ff9d
ff4e
ff00
fda7
0050
fef8
ff34
0149
ff6b
ffd2
ffd9
fe58
019b
ffa8
ff10
011c
00f9
0179
01c6
01f8
027d
023a
fcbc
0021
ff3b
ff7d
033f
027f
0020
ff85
00f8
fdef
fea9
0101
0025
00dd
ffc7
fe8d
017d
0135
00ae
fed9
fd8c
fea0
ffcd
fdf7
013a
ffec
03c5
01f3
feb3
fdfb
ff38
ffd2
0217
fcae
fd0f
fcc1
03bb
01ab
ff2c
feb4
fe99
0100
02c6
fd49
ffa5
005e
018b
fd15
02bd
0292
0046
fd8c
00b0
fca7
fe14
fff3
00d8
00b4
fc70
feff
03f9
026e
004b
006c
fec0
0039
0076
01db
0170
02af
01ec
019f
fea5
ff0b
ffa1
fee4
ffb6
0227
01f6
feb7
ff32
01bc
fffb
000e
ff5b
004e
fffd
001e
ffa5
ff1e
fd49
00fa
0157
ff5c
020e
fe7a
feb5
feca
fd45
0116
01ca
00a3
ff1c
0055
01c9
fe1a
ffd5
ff71
ff3e
fdd3
02ba
ff6a
ffea
fede
0135
010b
ff74
feb5
00df
023d
fe3a
0199
fd73
0026
0026
fd8f
fd24
ff7f
00db
02ac
02ad
ffca
ff4f
ff8c
ff7d
0018
ff7a
01e0
fdef
01df
023b
fe70
0057
0197
fe2b
0182
0146
ff71
ff8a
0026
0189
fde0
00f0
00c0
fe83
ff81
ffae
fe11
fed0
ffd7
feb0
020a
0197
ff6e
fe49
ff6d
00a8
010c
012e
01df
ffe2
fe98
fd30
015b
0204
ff7a
0062
00f9
0102
fef6
fdef
ff55
fe9c
fdc5
ff18
fcda
0085
fff3
006a
009f
fe6c
00d8
015d
ff69
fe7d
00f7
fea5
01dd
ffc8
ff1b
ffbb
00b1
ff98
ff5e
00ac
fcfb
027f
0247
fdb7
01e9
014c
ffa0
fef3
ffc2
fef9
fdc3
0138
0109
026d
012a
fde5
fec4
01f7
ff86
fe8d
0150
ff72
ffbe
ff9f
002b
ff0e
0162
fea2
ff80
0093
ff69
fdb3
00db
ff57
017b
fdea
0355
014a
01c3
ff90
fde4
00ac
fe75
0007
0001
fe9c
ff9d
01bf
01c2
0018
ffbf
003b
019c
02c3
0243
0115
ff27
0400
fe2c
fe74
fe65
fe96
0001
0262
fac9
fefa
005a
0174
03b1
ff5f
ff03
ff09
007c
ff2e
fd0d
fe19
026b
fef2
feae
ff39
ff3d
ff88
0015
003c
0305
01bf
ffbc
01fc
02af
fe78
0064
fffe
fc9d
ffb0
fe23
feed
ffcb
fedd
003a
0176
ff05
02aa
0169
ffed
fdfd
ff8e
01d4
0053
fec2
01c4
fe10
fdef
fdba
fe78
005b
ffee
02c6
0268
027c
fe22
00fb
00bd
ff24
0102
01fe
febd
01a5
0129
016c
020a
0058
fe29
ff95
014d
fe90
ffb6
01da
fee9
fe1a
024d
00d3
ff51
0096
ff8b
0001
0249
00dd
0277
002f
0285
fea7
fff6
01f8
00d3
01c9
010a
0027
00c4
ff0e
fc3b
013d
ff9e
00a1
ff7e
01f5
0077
fffd
0120
ffee
0089
fed6
002b
01da
0165
fd60
fee2
fea9
fd58
00e1
ffcf
009a
0155
0480
fc83
000e
fd7e
ffdb
ff82
fd14
fd8b
ffed
0093
ffc1
019d
fbd5
ff09
ff48
00c4
fffa
0209
fe79
0014
febb
ffce
ffcf
fff3
01ea
ff5d
fe89
fde0
000c
ffa1
028c
ff5b
0214
ff49
fec0
0254
016c
0072
0077
ff8a
fe53
fd38
ffea
0149
01a7
fedf
031d
00b9
0204
fe50
ff14
ffbe
ff4d
fd17
019b
0145
00b7
fece
ffee
febe
0004
ffe0
0144
0241
0050
feae
0049
0077
00da
01af
ffef
ff43
ff5c
fe51
0098
01fd
00bb
0062
016d
fef8
feb0
ff27
0189
ff24
00dd
01e1
ff02
0022
00e3
012b
ffee
fe72
fdfe
ffa5
0053
fe73
008d
01f0
ff22
0103
ff15
0198
ff1c
0031
00c9
fd8a
0226
007c
0081
ffa4
01a0
0134
ff15
01bd
0058
0126
fe8f
fec6
00db
ff95
fdc3
027a
ff76
032f
01ab
010e
0013
fe08
fd73
0158
009b
fe9a
018b
fddd
ff69
fee6
00a0
ff38
ff62
fd6a
ff83
ff99
fe02
00c0
fdb4
fcc0
fe36
feb1
0059
00fa
0094
024a
02c5
ff40
015d
ffc5
fcf2
ffb5
000a
fe67
014a
ff64
025f
0186
013a
fe24
fdf2
fd05
0233
02cd
ff86
fdf4
ff29
ff61
fecd
fe37
fea5
0038
0006
ff17
fe44
02b5
0072
00ae
fd40
fedc
01ea
ff20
ff02
fd97
fe71
fe35
004f
fefc
0076
01e7
fe82
01aa
fe5c
0068
015e
fe50
fef1
0271
00c8
fd56
ff62
0016
fe8a
0018
00bf
ffef
fd8a
fe99
0114
0142
0064
fff4
00cf
0257
fd53
fdfd
ff63
ffe4
ff33
ffb5
fdb7
fda2
01a6
ffc9
fde6
0055
fe62
fe05
fe36
fd97
fc59
fe32
02d9
fe9f
001d
fdc4
fe11
01ff
023f
fe41
ff52
0079
ffeb
ffab
0102
ffcf
01af
feaf
ff4d
029b
ff98
0164
023d
0053
011a
ffb1
ff03
ff40
022c
000a
fffd
00c3
00c6
ff2a
ff5b
018d
ff83
fea8
000c
00f0
ff9b
fe96
019d
fe92
ff61
fe24
fd56
fe92
0073
fdc8
ff25
fdcf
fefb
fe8b
028a
fe50
0078
00dc
ff3e
febb
01d8
ff5e
0067
0183
ff4c
fee2
00ef
ff80
ffba
0037
ff0c
ff3c
ff19
ffca
fff5
ff4b
fd91
00e6
0048
ff28
fce8
ffd5
001f
02d5
0254
fe29
fd5e
0080
0127
ffd1
00fe
005e
0205
fef1
fd5d
0234
ffcb
009e
02d3
0109
ff6f
03cd
02f1
007a
fec1
0286
01cf
fe70
fe17
0029
fff6
ffe4
02bf
ff79
022f
000f
0078
fe13
00a1
0172
0242
0190
ff61
fe90
fe45
0163
0020
018b
fed0
fd8b
02da
027b
fe6f
ff33
0016
012f
021a
fe2c
fe29
00d5
ff49
fd91
00dd
007c
014d
ff00
ffc5
0063
fc9e
01e7
fd6f
ff16
ff5d
fdad
02cc
fea6
ff6d
ffc0
feff
008d
0020
0183
feaa
ff5d
010c
fda5
ff01
fed6
fe0e
fe1a
00cc
0274
ffec
feff
ff1c
01c9
ff9f
fec4
ffd0
fed9
0145
ff7b
0263
ffaf
009f
fd8b
ffa1
01ac
01d7
ff78
00ac
fdd4
0025
02fc
0092
01e6
fcec
ff8f
fd2e
feb6
feb6
0384
012e
fcd3
ffd8
fe64
02d1
feab
00d4
0070
0129
fd9c
ff33
fcd9
ffd3
fbe5
ff09
0115
004a
ff2a
002d
fe34
0324
0170
ff2b
0112
fe96
fec2
feb9
ff3f
ff03
012b
012a
fe74
ffee
0082
0194
ff15
0224
0229
0046
0374
ffcb
0054
014e
ff69
001c
014b
0115
fe6e
037f
fe6c
ff54
00b0
031a
039a
ffb1
fbcb
0100
fe0f
0307
0133
00ee
fffe
fdd2
fc9c
fd71
021e
0125
018f
fd0d
02dc
fe9c
00e1
0122
ff19
fec3
ffcb
ff56
ff0a
01a3
014e
ff0c
011f
fcec
00a2
048d
ffe2
01a1
01aa
fdcc
feca
fd9b
fd39
ffaf
02c3
0316
002c
0011
00e6
0250
01a3
02af
0077
0000
fec5
fed5
0024
fe28
fc32
fd27
02c6
0219
002f
02ae
002f
0278
001e
015f
01c6
0342
fd85
fd70
fc9f
008d
feae
03e9
fd08
ffca
00ca
ff7e
ff11
01c4
fdd8
fcda
0093
02fd
fcd5
fda2
01b2
012b
0136
0138
028a
fcdb
fffb
fee7
fede
0127
fd48
fd55
fdf8
011e
ff39
fe85
fe2a
ff3e
0263
ff36
fd46
fed1
fdb3
fdde
02e2
00c8
fc71
002b
fddc
ff5c
ff74
0060
ff0b
fdad
0383
02c8
0000
ff49
00da
fd7f
006c
fd06
fed6
fe21
fcc7
fbce
0219
026d
012b
fdbf
ff07
fb89
00ee
01bc
02bd
0170
fcd2
feeb
0194
004e
0076
fe05
ff1a
00ee
fe12
0249
0076
fe24
fd2b
032e
fdc6
fe7e
ffb2
ffba
ff2d
022f
ff9b
fdf2
ff03
fe88
00c0
fd6e
00b6
ff2e
0001
001c
ffa1
0014
ff8c
fe8f
035a
019a
fec8
ffd8
0258
01cc
ff81
0010
ff00
ff6b
ff26
017b
ffd8
01fd
ff8f
fe48
009f
fe50
02de
0289
fff9
fe5a
00b0
fff7
01d1
02a5
fc77
feb7
fea1
0083
ffc9
00fb
febf
fd39
ffc5
013b
0113
0249
038e
0021
ff6b
01bc
037e
ff61
014b
fe5d
fdec
033a
ff37
0050
fd56
fe21
ff17
032e
01df
00dd
01cb
ff4d
fd6f
ffb7
0168
0005
0119
fd8b
02c6
00b5
fce4
ff7d
01e4
fef7
fe73
fd9e
0082
00c4
0081
ff6e
026b
fe0d
0207
fc92
02c1
fbbd
007e
fed2
0468
fe44
037e
021e
0122
ff06
fe28
015b
01f3
ff66
ff71
006a
0095
00d4
018e
ff03
00e9
fef9
026a
ffc8
0068
fe87
006b
0123
fb09
0071
0357
0003
0163
fd6c
ffae
01c5
fcf3
00c8
02bf
0089
fd43
00a2
022b
028f
0065
00ae
027a
0169
ff48
fc89
fe92
006e
fe66
015e
010e
fdbd
031c
0383
fdc7
0265
fe52
01a8
fe46
007a
fdce
0222
00f3
0066
ff47
016f
0050
ff8a
ff7e
00c6
fe95
fea3
01f3
013e
ff36
fc97
fe6a
0464
ff28
0144
013e
0009
0054
ff80
0284
fe73
fefb
ff20
00d9
0005
010c
fd7e
ff58
003b
fd2b
0182
0170
ff6d
ffba
fd58
0051
fe88
0397
fe7f
0021
fde9
ffc9
ffe3
fef0
003b
0324
0100
0199
ff36
ff5a
0149
fd04
0016
014a
00e3
0200
ff1d
fe3f
0167
02f1
ffaf
01e4
0268
fc3f
ff34
01d0
fdf3
ff03
014e
feed
0120
01a2
0037
fdcf
0289
fce3
006c
fc41
0068
fffc
00fb
02ba
0157
ff09
ff2d
00c8
ff04
ffca
fe4a
fcf9
0204
0170
0160
020f
fe84
001e
ff35
00ef
0071
0124
007c
fdc3
fdc1
035f
ff5f
0052
ffc0
0114
0105
fe90
0306
0155
febf
fe89
0181
013c
fdcc
ff5d
fefa
fe65
fe1b
0202
fede
0031
006e
0469
fdf8
01d9
0040
fede
ff9b
0059
ff6d
008b
0200
ffbc
fe50
0158
0205
020d
fe8a
009f
01b4
fdd4
ff93
ff8a
018a
fe85
0047
00c2
ff43
fe88
ff3a
0253
01f5
fe65
00a0
ff38
00f5
fd76
ffca
01cf
fe09
01d4
fe66
01ba
01c7
018f
0055
ffe6
0090
fe87
feb9
ff30
fea1
ffc6
ff6f
01bb
ff8d
000f
00af
ffbd
010d
fe18
02d5
0118
fe21
fdf0
ffff
feb3
004a
0071
ff34
0075
fdd6
00bf
0056
fee2
fe7e
0051
ff6d
01bd
ff3a
00c4
fe33
ffa1
ffe1
0065
ff1f
0290
fef5
007a
feae
fe5b
00e9
ff29
009f
ffa2
ff0f
00a6
010a
020e
017c
fd89
00dd
fdf7
023f
01ab
fe3e
011a
0064
0018
0198
ffa8
006b
ff73
019b
fde5
ffad
fdbd
0219
ff5a
0170
004e
002e
ff77
ff0c
fe14
fea1
00b2
0126
ffae
0161
0136
feca
0084
0141
0098
00e4
003a
00cd
0122
000b
fef6
00a0
002f
fdba
00b0
02c3
ff32
ffe3
fef4
ff25
fcd0
fde9
02b4
00b8
fed0
00a0
02ce
fe97
fe8a
00ad
00a2
000e
feda
011d
0208
fe0b
0064
fc91
ffd8
ffc6
ff01
000c
01b8
fca5
fe4a
fedf
fe50
0205
01da
ffec
0176
ffcc
0398
00a5
feab
ff5d
00e9
fffe
fe27
012b
fe3b
0161
feb2
ff15
0065
fd88
fff5
fd15
fca4
ff96
fd81
00ca
fe67
ffe6
021f
fe97
fde5
01a3
01bf
ffd2
fe50
fdcd
012c
0252
00fa
ffb4
020d
feff
ff72
fdf9
fed6
021f
00e7
fff2
007e
fe02
03b4
01ff
fe6e
fe82
ff60
ffdd
02ca
00de
007d
00b3
00d3
01ba
040e
00d9
fca6
ffd9
0020
ffa7
0272
fefc
0107
fec9
0000
00b0
fcd4
01b1
fe3f
032c
0089
010d
010e
00b7
ff59
fe23
fddf
007b
ff32
fe96
0139
ff8a
00cd
fe15
feab
033f
fcf4
feb6
fd23
01c0
ff54
00b7
0266
028e
001f
ff85
ffaf
0293
fd3a
00b9
ffa2
008a
fdb8
fe90
0346
02d5
0082
fed1
feef
00f4
0288
ff5e
01eb
fee0
0276
0136
02c1
0029
ffa7
ffa4
ffb5
ff3c
ff2f
0201
0155
0204
fe1d
ffb2
ff0c
01b3
0032
0272
ff78
ffcc
ffb4
fee8
fe78
018d
02f5
00d5
01ca
febc
00ef
0063
01f5
02c4
fee1
fcea
fe7a
ff6c
ffb9
02ca
ff73
ff42
fe3f
0001
ff8e
fe8f
ff42
ff48
0043
0369
02f6
00db
0063
fe22
fe08
01d3
0124
fec0
ff39
fd29
01fc
ff86
ff11
ff35
0217
feef
fdec
0002
0169
0103
0027
ffc0
ff7c
fd34
00b0
fe40
000d
019f
fff4
0018
fe32
ffed
00b2
fecc
0296
fbd3
ffa7
ffe0
010f
ffc7
00f9
fe98
006a
0097
fe13
0034
ffc4
01a7
01cc
ffbd
0180
004e
0046
017b
021d
ff0d
011b
00d7
fde0
fe44
fd32
011b
0138
0306
ff45
00d5
0112
007a
ffde
fea7
fe05
0106
fecc
00ef
0284
ffbf
fe72
fcfb
fc44
004c
ff31
00e1
ff9a
ffc8
00d6
0134
010b
ff50
006b
fec9
fdcc
00cb
fe78
0141
fe83
00ee
fd65
fe97
fd38
ffb9
0113
fe3f
0134
01b0
0067
fe12
01ae
fea1
ff7e
0182
fd40
ffde
ff0f
01ff
fe86
0273
fd53
fe11
02a3
015a
fed3
0226
ffd6
ff19
ffb1
fea2
febf
0024
02f1
fe5f
02b3
ff59
fff6
018f
fdde
013f
fff8
001d
ff9d
00b9
00b8
006e
ff48
fecb
fc80
0006
fedd
fd18
0280
fe19
ff90
0213
00dc
fe88
01a4
ffb6
fd98
fd50
0267
001e
fd2f
fdbd
0211
fe22
0079
ff56
01b0
fefc
0064
ff38
ff1a
005d
018f
0084
003e
0046
03a2
03b1
0193
01af
ff85
0320
033c
0150
ff6a
ffe5
ffac
febc
0216
0075
00fe
0126
ff42
fdf5
fcf8
0026
fead
ff15
0394
ff02
0189
024f
fdea
01cd
03fa
016c
0102
fecc
0026
ff86
ff6b
027f
0011
0042
fffd
fc27
008c
ffcc
fdc3
010f
02d1
02dc
ff3d
02cc
01e7
ffca
0193
fd4e
fddd
ff6c
0030
00d6
00e4
fec0
0214
02d3
0160
fde5
fd42
0051
fec9
00ab
fe36
fe81
00b3
fe0b
ff87
02c9
ff50
fe44
0247
0116
013a
0013
01aa
00ba
fcfb
0056
fd1b
0311
02c6
ff2a
0194
fdf9
0123
ff9f
0009
0351
0281
01d8
ff9c
ff08
0055
0159
fe96
0245
034e
0270
00b4
fd9f
00e2
013b
fd19
02ca
ff9c
007e
01a6
fe13
ff8f
01c3
fd8b
00e3
fffd
01f5
ff1b
0200
016d
fde0
00c0
0415
0188
ffa2
002e
ff10
00e6
fd43
fc02
0082
009f
fcbc
006b
039a
0151
fe99
ffaa
fe34
fe57
0007
fee4
ff63
014c
ff74
0170
01c3
ffc5
fe36
0057
0203
fd35
0113
0225
ff22
ff4b
0045
fd61
00b1
01fe
01ea
fc4c
fe84
fe65
ff73
019e
00cf
0186
fed6
ffcf
fecb
fee4
0002
fe75
fe82
0187
0261
00d5
01ae
ffd7
03f9
0317
011a
fc34
fdd1
ff97
fc2f
ff26
0053
010c
0042
021a
00c8
ff86
0206
fd27
012b
ffd9
020e
0006
00ba
ff9f
01c0
ffc1
006a
0188
fdcd
00ef
ffd9
007d
0248
fe4f
fe80
019e
fe70
0118
0118
ff30
00c3
0244
01d0
ffc0
012c
0066
ffb9
ffb7
0153
ff57
ff76
fefd
fef3
fe49
0071
ff13
00f0
0294
0265
00e6
0151
fecc
fed6
ff4f
ff0c
0079
0131
fd9e
00c7
fd9f
007b
fee8
0137
ffb6
ffd5
0109
fe39
0258
ffd7
ff0b
00a6
00cb
ff3e
01e7
0131
fecd
023d
0027
00d7
01be
fdd4
fe32
fe47
02ad
fdf5
fd30
0169
0044
ffbc
0247
00d6
010a
fed6
0168
ffa8
001c
ff11
ff88
fe2b
fffb
00b0
fdba
fe5a
ff20
fdfd
ff46
fbc1
0210
fdc7
fe5a
fe85
feba
01c2
0083
0280
0054
0048
00ed
fdd4
0075
fe24
fea0
0012
008b
017d
ff7e
00ac
ff5d
010a
ffed
fef9
fc7a
fd84
ff30
fdc3
ff33
fdbf
00eb
01cc
02ee
008f
fe90
ffbc
fe58
fdd1
ff31
01da
0030
0129
fd92
0301
ff72
00e2
ff02
02a3
ff51
ffeb
02a4
ff6c
ff39
022e
ff44
ffea
fec7
ff85
fdf0
ffc2
03f1
0143
ffc6
00d2
0092
fe1d
0185
0006
ffba
ff90
0230
fe7c
ff48
0136
0036
ff8a
01e1
fdea
0268
0034
ffc0
026d
ff90
0065
0045
fe11
0023
0246
004a
fed7
0096
008c
ff0a
ffdd
fe62
fee3
fe8f
ffa8
fdc6
00ff
00d4
020c
ffaa
0129
00ef
00a7
009e
021d
fff1
feba
0102
00b0
02f4
fea1
ffa6
034a
ff42
02a1
0252
0028
fdf9
fe6d
0057
007b
0302
fe93
0039
008d
0064
00a1
ffb6
0418
fd87
fd44
02c5
0072
fd5c
fffe
0060
ff5a
0281
ffa5
fd07
0088
ffc8
fdcf
00e9
0492
0332
fffd
ff82
fe35
0229
036e
fdf9
0322
000c
02ad
fdc1
012f
0086
fd93
01a2
006d
02c3
008f
0129
fd14
00ec
fff3
028e
017a
004d
ff1d
fef2
ff7f
fe97
fed9
0121
ff4b
fe4b
000c
00c1
ff06
fe39
fc31
fef9
ffe4
fe2c
fe21
005d
fff8
ff25
fe7e
013b
fee8
0259
0114
fd84
fdfa
ff3c
fdb0
0160
011b
025b
fea7
01f4
ff67
0144
ffb8
feb9
ffbf
ffe9
fd18
00a9
0148
01dd
0205
ff07
ff1b
fdcc
ff58
fd5a
fdf5
0386
0213
00de
008a
024b
0261
ffa3
fece
fdc5
fefd
027d
ffd3
016e
01f3
0101
01af
ffa2
ff54
fe86
009a
fefd
ff62
fd35
00e3
ff2f
fe62
01bb
fdc2
017a
0186
fe40
fde1
0132
0163
011f
fe2d
001f
0074
0124
00ac
fe75
002a
018b
01a4
002c
ff23
ffef
fe35
0338
003a
0072
ff1a
ff13
ff8f
00c4
018e
fbb0
0157
028e
01c2
fddd
ff93
000f
0011
fdea
0279
016a
ffe4
ff6a
fe3d
fe1e
ff28
ff30
ff13
fefa
fe0d
005e
015a
0050
fec3
ffcd
fd38
00be
0158
00b1
01bc
fe25
fff5
fec9
010c
009b
ffe8
fe61
ff97
0252
ff4a
0095
01aa
fe02
01f0
fe15
fe8b
024a
0034
003e
ff3e
0021
fdcd
017a
fe14
ff7f
ffdd
fecb
fe41
0150
02a2
ff8a
ff23
0030
fd26
feed
0120
007a
013c
01cc
fef3
fe8e
ff55
02ae
fdd1
ff05
fe86
fe4e
fe18
ff33
0027
fd47
febb
ffa2
02f2
03f0
fff2
0140
037c
ffb7
038f
020c
fcdc
00d6
fdb1
fe34
00a6
01af
02cf
00e0
fde7
02d3
0244
ff8d
fee8
003d
0049
ff17
fe8b
fe6c
fe55
feba
fe3b
fde8
002b
fec4
026a
ff6e
fff9
0112
01a1
006c
0051
fd3e
0034
fd32
0194
0098
012d
0013
fd5f
ffe2
0193
ff2f
ffa1
ff51
ff1d
00df
fec9
03be
fee6
0119
fca5
0189
ff96
fe26
fff0
fc4d
0309
008b
fdc6
ffd5
01bf
0138
0148
fec5
ff72
fe40
021c
fedd
ff4c
023e
029d
0096
01de
011f
fffb
ff49
013a
021d
00ed
001c
013d
fde7
fef9
ffff
00fc
fe5d
0348
ffeb
0294
fe00
03bf
0124
00ed
0006
0193
ffe7
ff8f
019e
ff64
02eb
0176
ffe0
fe8f
ff0f
feaa
fea5
fe0a
fe83
0042
ff03
fead
0162
fe23
ff1a
0135
fea9
fe56
0081
ff23
ff71
015e
fe7d
0200
0177
fe40
026b
fff3
ff42
01ad
feba
0040
026d
ffda
fee2
febd
0126
0256
ffc9
01ff
fda8
000a
ff1d
019b
000f
018d
0102
0072
018b
00f2
0102
00e3
fec2
0143
00c7
ff52
ff0d
0193
0017
ff04
fe1f
ff02
ff82
01b7
fe16
ff12
ffc7
ff38
ff36
ffc0
ff2e
0252
fe73
ff98
0291
fcdb
02c4
fffd
008e
fda7
01d4
fc5c
fd91
ffb5
0086
022d
0209
fcea
fe6f
ff17
02e4
03fd
ff71
fde0
ff8a
01a3
01a6
0170
030e
0238
fef3
ff14
028a
fde9
fe07
020c
ff5b
fe8f
fe81
0035
02dc
008c
fea5
ff4a
fe9b
02b0
fe59
0377
fec3
029b
00ec
0201
00e0
fea3
00a2
0081
ffaf
fd8d
fde5
fefa
000a
ffb4
019f
00ad
0052
fd3c
fdfe
0028
feaf
00a7
ff0d
0026
fef0
ffa8
023f
ff1b
ff43
ffd5
0017
ff6c
ff36
fd77
fe8e
0255
ffda
015a
01b2
fdb7
ffb7
ffdf
0124
0090
ff9f
fe2c
0083
ff79
fe27
ffd3
feef
0071
ffc2
ffae
0244
fef8
01d2
0115
fee8
fff6
fdd3
02a5
0138
005d
ff38
fe71
00e4
fedc
00d6
0033
fcea
ffbe
0260
01f0
fe8a
fef2
ff88
febc
0235
008f
fee4
ff05
00e9
0101
0223
0072
01d7
ff87
ff27
0020
fea5
0135
fe53
01e8
fe2c
013c
00b5
fe79
fed2
0348
0133
00eb
0096
0063
fd7a
ff09
0022
00d0
ff0b
0141
ff75
fe8e
027a
feda
fe48
01d9
01da
0110
01e3
febd
febd
008f
fce2
fde5
fd88
01e9
ff6d
02eb
018b
ff9f
01ef
ff41
fe90
0134
fcae
0059
fdd9
01ea
ff83
03f1
feb5
ff9a
00df
003e
fef7
019b
00fb
ff3e
fdab
fea7
ffd1
ffe5
fe22
fdab
00a3
fd9f
029b
fdc9
fe7b
ff97
0031
ff9e
fdc8
fd89
fd33
00e2
fd16
ffba
feb7
fe5a
0189
fece
fe82
fed6
fed4
01fd
00bd
ffca
0038
011d
fe08
fe0e
fdba
010a
01fc
00db
004d
ff0f
002d
ff86
fdf7
fe9a
000e
0006
007e
feab
fcf5
0036
fe97
0101
fead
0135
ff04
fdd1
01ab
00f6
01de
fd72
0198
ff0b
fdaa
030a
fe28
ff88
002f
0210
ff6f
ff76
ffa3
fd93
fe6e
010e
01fb
fff8
0033
fd6f
ffa8
0016
ffcc
feb3
fd64
ff75
ff98
fd6d
02da
fd6d
0224
0165
010d
fd6f
0046
ffd2
feba
0324
ffcd
0037
feb9
ff75
02d7
02e5
0065
fc12
ffc2
ffb1
00b7
0074
0078
0123
fca2
02a2
01fa
fd3a
fe7c
002b
fe63
00d2
001b
fdf9
02bc
ff3c
ff73
00a6
0151
fe1c
ff4a
ff3e
ffbc
ffd1
ff03
fdaa
fe51
fd09
015c
0004
0429
ffb5
fff8
0169
0015
fe85
ff29
006c
fd52
0029
0145
fea9
001d
004a
ff1f
fee7
fd05
00f4
fc65
ff4c
0013
fd12
ff7e
fe23
01f6
fe0a
fdd3
fe18
fd7f
ffc5
0195
027d
fe89
fe07
01e5
fcaf
0132
01ed
fe67
fd89
fc7c
00d9
0099
fe0f
026a
0099
01b8
fe89
ffd6
0331
00ab
ffbc
fecb
fe57
fea8
fff7
fe12
039a
0106
ff98
ffa3
018c
ffe3
ff68
0185
0104
014f
0014
ff31
0227
01a2
02e5
0006
002c
fd28
01d9
02c2
fd9c
fec6
feb6
0000
013c
0078
ff1b
fda7
ff78
ff50
ff42
fdc2
ff15
0111
01a9
00e7
0115
ff00
ff26
0130
03e0
00b4
ff62
fe68
0168
fc8c
02f7
006d
01e0
0093
ffb8
ff5d
026c
fd30
fc7b
fdcd
fecd
fdbc
fd6e
031b
fd93
03a2
0270
00dc
00f6
fe01
ff24
ffda
fe3e
01d3
0117
002a
0060
0102
0140
0064
003b
fff5
009d
fe97
fedb
019d
0049
0143
fe21
ff13
fe6d
00f2
0171
feae
01bd
0192
00b5
ffd1
00be
0046
ffb8
feff
fee6
005c
ff72
feee
0176
0124
01ff
0202
fea7
025c
fe65
fe75
ff61
005b
fee3
ff0e
0181
fd8d
00e1
0127
fddb
fd95
fe9b
00ab
fee5
fe68
fe78
001f
ffee
ffab
ff5e
008e
fec7
ffcf
01c4
ff63
01a1
ffcb
fe4c
fe5c
0089
fe1f
fe3e
0027
005f
0130
ff07
ffee
00c1
fdc4
ff97
0140
febd
013d
00e3
ff9c
ff64
02db
028b
fdb9
0015
0111
009f
fcfe
fe72
0148
ff45
016a
fe4a
fc22
fec2
0117
fd89
ffe2
ffc8
0055
0177
0048
fe59
ff71
0050
01ff
0001
feca
ffa4
039a
019f
009a
0259
fd21
0074
0125
ffa6
007e
ff06
fea5
00c9
00e8
ff09
fe87
0033
ffd1
01fe
0107
023e
0115
ff79
fec2
0075
fe2d
0101
fef1
ff64
011c
0163
fe67
00a8
ffb7
01e8
febf
00ac
ff9b
fe6f
00f3
0067
0113
ff13
01a3
fe04
fe13
fef5
fe6a
00a2
013c
01c7
fe2c
fe6a
fe24
fec3
ffde
ff94
0163
fe75
010b
fe70
fde5
ffca
0156
0191
fdf3
020b
0019
ffda
fe07
ff7f
fe84
fffb
0038
0114
01a4
00ed
fd17
0132
ff70
ff2d
fe4b
ff3f
fe84
fe6b
fdda
ffe8
fe49
ff4a
013a
ffef
fff6
ff22
ff6e
012e
0037
ff10
ff6e
0037
0070
fed1
fd3c
feb9
021c
022a
ffaf
01d7
fff2
021a
ff52
fdfc
ffeb
016b
0018
012e
ff08
0107
0174
00ea
00dc
ff59
ff03
01bc
0192
fd54
01af
0208
01ca
01b9
0110
fd8d
0054
002a
00ca
ff52
00aa
fed8
00d0
fe80
0160
fcb1
fed9
0082
ff8d
ff39
fc90
0007
000f
fed5
013d
fe2e
fd64
01d9
0098
0207
01e1
fbd1
ff20
fe5d
0055
015d
0087
02f7
fe33
fd99
01e0
ff63
00b4
0143
032c
fecc
ff27
fef1
fddc
ff82
fe39
fdc2
fe3b
002f
fdcb
00b7
feaf
013b
ff53
024a
fd98
fee5
ffd5
ff17
fe74
feaa
00b0
030d
fe60
000c
002c
003f
fce0
0179
fe40
021c
fe72
fef6
026d
fe94
fe97
014a
fdaf
014c
fefd
ff70
0033
ffe2
ffdd
fd87
004b
0152
0344
fe8e
fdc0
fe5b
fe4f
fd51
fe47
0199
01bb
009b
feb8
00bc
ff41
0271
004a
ff21
0210
fdfe
ff44
0107
fea0
017d
0075
0073
fda6
000f
0145
ff3e
0060
0207
fe26
ffc7
ffd2
022a
fcc2
01b2
fdaa
01b7
fdb0
0021
0037
fff7
fd06
ffaa
0037
011c
0243
fe18
fd2b
0146
fed5
007f
0086
00bf
0019
029d
0072
0009
fe8c
fe6a
011c
024d
0044
fd9d
024d
0262
fef2
021f
0244
fe28
fe71
ff75
feed
ff62
0119
00e1
ff0a
007d
0160
fd04
ff13
fd4f
fd9f
ff6c
ff5a
0226
fed2
fef6
0208
feee
fe8d
fe25
fed9
ff5a
0081
ff33
fd17
fdc2
ff4f
00d5
fe28
016c
fe4d
fe1c
0173
ff9d
00fe
fdee
fff5
ffc2
0372
0385
fee7
feba
ff4e
0257
0023
00ea
fe7a
fdde
fdc8
0215
00e7
01ad
0129
0154
01e1
ffff
fe37
0165
006c
0033
ff1a
0214
fe1c
ffaa
025c
fe7e
ffb0
00c2
fe46
fe4a
01ed
0064
fd92
0254
fe98
0034
00f7
fffc
fdd5
00e7
0055
fe96
ffd4
0233
fe32
ffed
fed9
018f
00f7
ff79
024a
018a
016a
0114
ff66
fefc
fea6
fe65
ffda
0161
ff08
009b
fe67
fe2e
010c
fe9c
006a
ffde
fd9f
0083
00d6
01dd
014d
fe1f
00df
00c5
fea7
fe20
ff54
0021
0005
019f
0199
fe77
fdbf
00d0
fe73
fd55
fe54
010c
0130
fd2d
016d
ffd2
00d9
0208
ff71
fd88
fe0b
ff7a
fd28
ff1c
00ed
0077
feab
0213
ff9e
fef4
0151
01bf
00bf
fe69
01ed
011c
010e
ff75
fe34
fd5c
002a
0216
01a0
00ce
ff84
ff33
fda8
ff99
0118
0175
fd79
ffa5
027f
025f
ff85
0074
002c
ff93
fd6c
0092
fea5
005d
fed8
ff8d
fec1
00f3
012c
fe29
fe73
011e
fe5c
00fa
fff8
017c
0276
fea9
ffd0
fea9
01ea
01dd
00c0
02b2
fe3d
000f
ff46
ff93
01f3
018f
fda2
ff48
ffca
ffdd
0177
0370
fe2f
fff6
010d
0128
00e4
00f4
fdc9
fe69
fdc1
030e
0173
037b
01fc
fdca
fd5c
fd46
00e7
ffc4
ffb8
fdc2
ff34
002b
0123
fe5b
ffd7
ff9f
fd90
ff93
fdb7
0078
fe2d
0012
fec3
015d
0115
0145
fe81
01e6
0011
ffa3
00d4
ff2e
fe5e
ffa1
0062
014a
01f0
fe3e
feeb
015f
0128
0075
0198
010b
00ae
fec1
011f
fd38
01c6
00d8
fe04
fd70
0059
0215
0056
ffb2
0015
fe2c
023b
002d
fe8a
01bf
ffe0
fec0
0237
0191
00e6
fe69
fe41
00ae
0156
00b6
027c
00ea
00ea
009b
0006
0033
0244
ff6b
00a1
01b4
009b
0003
01e7
00f7
fe5d
fff7
01f2
ffc2
01ed
fdef
ff86
0208
0082
012f
fef2
ffc3
00f9
fe92
fe43
0043
feca
0181
0165
fe7c
ff3d
ffdf
ff46
00a1
0081
005a
0109
fe25
01b1
00f1
0083
0002
00ac
006d
008b
fed8
0070
01e9
fdea
017f
fef1
fe09
021e
017d
0120
02c1
ff13
0216
0138
02bb
fe2d
fd86
feef
009f
0163
00ff
02d5
0225
ffe9
febb
01d6
fd63
fe53
fe0c
fff6
011b
ffaa
0071
fed4
fea2
fee0
000f
0115
ff53
0177
fefa
005e
0034
fe93
ff5f
ffb6
0204
fd5d
ff75
014c
028b
fee5
01db
ff52
01fb
fee3
fe10
0055
00f7
0180
ffcb
ff73
0000
ff6d
ff56
0209
fed5
0022
029a
02b6
00d8
0248
fd03
0222
0119
fd9b
025a
024d
ff6f
feb8
fe7b
fd70
022d
ffc6
028c
febb
0293
0001
01b2
ff3b
fede
ff4b
ff01
00d0
fedd
0172
01ce
007a
fdb7
ff69
fecf
fea2
0032
02b0
0068
fe79
ffc2
006e
013a
fde3
fe32
fec4
01e3
00fb
0054
0227
ff2d
ffe9
fea6
fc96
00eb
0182
0009
0152
0042
01e0
fd36
0071
ffcb
0264
ff38
fe0f
002b
00df
01ef
fff4
ff6b
021d
024f
ffcd
fecf
ff9a
ff1a
fee7
010c
ff29
ffba
fe18
ff17
0179
0125
ff13
00d3
ff7b
fed0
fff2
fde8
00f3
fe80
021b
03b0
03d2
fcc0
0198
ff87
029f
fddb
0156
fe9f
fdeb
ffe4
0250
ffc0
ff20
ff59
fd2c
0089
fe21
ffcb
0117
ffc5
0207
01d5
ffc6
ff96
ff96
02ce
feea
fdea
febf
01ed
fe22
0152
03e2
fe2b
fd93
0285
fec1
0235
0167
fe6d
feaf
fdc8
fd82
0067
01df
013e
0002
01b1
0017
00d6
fd5e
fe62
ff6f
ffbc
0070
00cc
015c
00d0
018f
0060
ffd6
ff4a
01d7
fe55
0009
ffb9
0263
ff59
0209
0052
0247
fea7
fde7
ff06
fe47
fee4
0078
ff22
ff3f
fd5e
ff8e
fe08
02b8
fde2
0039
fe3c
ff6e
00db
ff01
fe82
015f
ff16
0250
ff79
ffd1
fd61
ffff
0074
ffb7
0037
001d
fe47
ff59
0015
ff69
ff53
ff9c
001e
fdd5
fe09
0006
fed7
ff68
ffbb
02e9
0286
0160
001f
ff61
0087
febf
023c
fc6d
0305
ff14
0245
0140
006a
ff8a
01d0
0089
025b
ffba
0077
fe1e
fea8
ffa5
0164
00b6
00e8
01d7
fe49
01c3
fd3b
00c8
ff66
024a
02d1
fe04
fdc3
00e0
0034
fe83
0333
017a
01ee
fe8e
fee8
ffa0
ffff
00fa
0311
ff49
02b6
0125
00ba
010d
00c8
01b1
fdf6
fc91
fdcf
0044
fdf7
fdd0
fe93
017f
03a4
ffef
fdda
ff4e
fd58
ffba
01fe
feec
0037
0044
001b
00c9
ff31
ff3e
fed4
00ac
fd8b
021b
003f
ff62
00d9
fc8f
fcb2
fe76
00de
fe6a
fe89
fe61
0197
ff73
fe41
002f
fee0
0153
003b
ff75
01a9
00f7
021c
fd4a
001a
00e2
003e
0288
fe22
00ab
02bb
0141
005b
00a6
ff55
fbf9
0075
fde5
0087
fead
0129
ff99
ffc8
ffd2
fdf6
0301
ff6e
ff87
01a3
ff58
ff51
ff53
ff3e
0031
0085
0186
fdd2
0238
005e
00b6
0118
0111
ff71
0112
017f
fe97
fdca
ffa0
fde6
ffc5
ff73
ffd9
0082
fd9b
fdf1
ff16
010e
0211
ff03
02a7
ff09
0106
0012
fe6e
030b
fe44
0215
02b2
0014
017b
fefa
fe23
01de
00f5
02dd
fef2
0192
fd23
fea5
fe8d
ffb4
0103
00d8
fcd3
0075
ffbf
fd42
01a4
0091
00e9
ff2e
026c
fee5
ff67
00f7
0084
0150
feae
ff4e
0166
fe51
fd55
0279
0068
01b4
0280
01a9
0369
00f5
ff73
0248
00f1
00eb
fe6d
ff27
fece
00eb
0002
fe69
024c
02ee
fe8b
ff5b
ffde
00ce
ff62
ff0d
003e
ff32
0125
fece
fd93
007d
fdc4
feff
ffe2
01d5
013c
00bb
010d
0229
ff47
ff73
009a
0042
fdcd
0097
fe9c
002a
fd4e
fe65
fdfb
fe4f
0194
01d1
00ec
0179
019e
ff5a
fc19
fec1
fded
0173
0243
ff3f
0227
fdbd
ff21
fef3
0231
fee6
fdb1
0301
fecf
ff34
01d2
fe92
fff2
0096
ff74
024e
00ea
feb3
fef9
00da
fefc
fe58
fe93
fe37
fe7b
002f
0127
00a7
fd97
00cd
ff39
feb2
fedb
fe16
fee2
ff92
003a
ff3a
ff46
0189
fcfe
fc69
ffc0
fdaa
ffe6
feef
0024
018b
0054
0062
0115
ffbf
019a
00ea
0005
ff33
01b4
014e
ff77
0288
002c
013e
fe40
ff47
004d
fde4
010d
0058
ff47
019c
ff34
01ff
ffcb
0095
ff2a
0153
0258
0142
ff54
0056
020c
0190
0281
0155
ff07
02db
fef4
ff22
0028
ff3b
ffcd
ff66
0222
ffe4
ff30
fd87
ff89
02da
ff00
fde2
ffb9
0110
0195
fe71
0038
ff87
ffd0
ffe2
00b3
00f8
0036
fee4
fd4d
ff87
fe00
0244
ffa9
00f9
fe4c
fd65
fe8d
02ed
ff6c
0078
00b9
0158
01df
01c3
ff80
0107
0174
01e7
011e
febf
0129
007d
ff3b
0110
0099
0338
02ea
ff2b
ff31
ff58
018c
ffad
00f6
ffe6
ff9e
02ba
017e
ff06
00b1
fe49
fe06
016e
00b7
fd7b
01c1
fd79
0109
01f8
018c
fd44
fe70
fd8b
00ca
0103
001b
01c5
0285
0161
ff0c
010e
02c0
02f6
feb6
fef7
020d
003d
fef5
ffab
ffbc
0190
0009
0097
005b
0188
fef1
ffbb
ff1f
fe0a
fe41
002a
00a0
fee0
0013
00b0
0017
002a
fef0
00a0
00f0
01a7
00c3
fe70
00e5
020c
0163
ffa9
ff4b
fdc2
ffa3
fe92
00c5
ff21
017a
0167
fed3
fee4
fe9e
020f
fed0
01cb
01c9
fe86
ffd0
0074
0052
019e
0063
015a
feac
0269
ffdd
021e
01d5
ff49
ff33
fdac
0070
fecf
ff2f
00aa
0199
02ef
0067
000c
02f6
fe44
014b
0171
fff1
fde1
ffe6
ffbe
fd2b
0327
02bc
fcd9
02cf
fdcc
0150
0277
fe20
01fe
00dc
ff52
0035
0054
ffd7
0090
ffa4
00d3
03b0
00a3
0174
fff5
0238
0187
fe7e
ff0e
0061
fd9f
ffde
01a5
ffad
0223
fe5a
018d
0012
ff69
feca
0217
0101
0232
ffa4
00aa
00b5
fe0a
fece
02bd
ff8a
fd01
ff38
ffae
fe42
fd25
0039
0165
03e6
fce1
0110
008a
02c0
fea1
023b
fead
00b5
0182
ffe6
036f
fed6
fcfa
001a
00cb
ff22
0218
01f9
008d
000f
02cd
fd29
0127
01a6
01c9
fd98
014f
03c4
fe38
0131
0086
02b6
01b4
fecc
fd65
00c9
febb
0220
fec3
fe6d
0108
ffaf
01d7
ff16
ffa3
01c1
ff6e
ffcc
0089
0188
0120
017b
fc91
0068
02fd
003d
02a4
01d0
03b3
fc61
0203
fce0
0165
fe62
fd7e
ffc4
0015
ff29
ff90
0195
ff02
ff3f
0096
fdc7
00a1
01a7
ffa1
004b
0029
feb0
004d
fe5c
ff8f
00c6
0351
02c9
ffad
ff51
ff12
ff85
0146
00d3
fffb
00ca
ffe5
fdc8
01e5
ffab
016d
ff9f
ff7a
0266
fe8c
fe97
0047
005b
ff37
fded
0084
008d
011d
00be
fff2
fff4
0280
0166
fea8
0088
ffc2
0303
00e3
fe6c
ffe9
ffff
ff1e
0063
0147
00e1
013d
017a
fe7a
ffa4
024f
fcdc
0108
0129
0180
ff56
fe29
0057
01e9
ff97
ff93
ff76
fde8
02d5
014f
0112
0022
fff7
01a4
00fa
0349
fd01
fead
fd46
00df
005d
00cf
fef0
020f
ff7e
00ec
0168
fec6
fdd3
fedc
fe4e
fd8b
01b6
ff7c
ffd7
0183
00c5
fe35
ff13
014e
fdaa
00eb
febd
0191
ffe6
0293
ffb2
02b8
0063
ffc5
ff3d
02e0
00cf
fccb
01df
fe8a
00eb
fe47
fe18
011d
fdbe
fd21
fd55
00e4
fd95
0022
febe
fd7e
0140
0079
fd01
018a
0221
0090
fe69
01cd
fdfc
02f5
00be
0135
0158
fe3e
fd94
fdb4
0276
006b
fefc
ffa9
ff83
0073
ff96
01c9
fea4
fed4
ff63
0058
01c3
0123
fdcb
030a
0191
fecf
feb6
01cc
00ff
fd7b
0074
0205
03ba
02c6
0064
004e
ffa8
fe6c
0033
0253
ffe0
ff79
fde2
fe65
ff7c
ff7a
0045
01b7
ff5e
ff07
ff88
fdf5
0093
ff90
fdf8
fe87
01de
0288
ff6a
ff83
0115
01b7
00b7
fe3e
0160
00e5
fede
fd93
ff51
01fa
0270
ff1e
fd24
019a
fdd2
02e9
fef4
029e
fe5a
fe26
01f0
ff42
0129
ffbf
fff4
ff03
fed2
0031
fd5e
fe73
00e6
008d
0080
02d6
0171
01ef
ff7d
ffb7
fdd0
015e
ff7f
ffaa
0120
ff7e
0010
fe87
019e
fece
fc98
fff4
ffae
00d7
ff63
0296
ff0e
fe93
feb9
ff3b
00f0
022f
fec8
03ef
ffe0
ffe9
00af
ff6b
fd1d
00c6
ffd0
0064
fded
005e
0133
008c
0276
018c
0015
016c
0253
ffc5
ff5d
fd35
fc09
fdb2
00e2
fee3
fec8
febd
fe3e
ff1a
02d7
ff32
fec1
0115
ff15
fddc
0122
ff1b
fd3a
fe2b
ff3c
fff1
fe97
030a
fe54
ff8d
0050
fee0
00d1
fddd
ff3e
ffe2
015c
0060
fe02
0256
fc9d
ff09
fd8d
0240
fe61
0052
034e
00e2
fe6a
fedb
006a
010f
ff6b
fe77
0232
ff72
01e3
ff12
0204
0166
0119
01ae
0156
01c6
033c
01a8
01d8
01bf
00a4
0031
fe6e
021c
ff79
fdd7
fed1
ff80
0070
02fd
fd76
0077
02bf
00dc
006b
01d0
fd6d
fe9b
00f3
ffb5
013a
0204
febc
fd91
fd5e
febf
ff11
ff95
004c
00b0
fecf
021c
0036
020f
00f8
ff61
fe3b
0198
fdfd
0131
0146
fe66
00a7
ff26
02c4
0156
0230
ffe2
0156
ffbc
0058
fe0b
feaf
fe9a
ff08
02b4
025b
0182
ff40
ff6e
fef1
fec3
0077
ffb4
ff9c
0235
fd55
00b7
0101
001f
ff63
0049
fdee
fe5e
ff57
fe4d
fe19
fea1
0356
0200
014c
00d9
fd40
00e6
ffe7
ff42
fd97
ffbc
00ff
fee5
0131
0159
0091
01e7
ffc8
fe7b
01fa
026b
0145
022d
fde1
00ee
fd39
0108
febc
00fe
0071
0029
feb4
00fc
02af
0032
ffff
ffdd
00fa
ff6e
021e
007b
0031
fec4
feb1
0111
ffe2
ffc8
fe0e
feb8
005a
0243
00f6
ffc6
fff2
011e
fe82
fe47
00f2
01a8
011d
000d
002e
01da
fd81
022a
01ab
003d
fe21
002c
01cf
0080
ff8e
033f
ffe0
ff61
0085
0069
016e
fef8
00c7
ff63
00c2
00f8
0145
ff12
ffdd
fe5e
00f0
fe9c
ffea
fe3c
fdf1
fed5
fe61
ff6e
ff95
01ae
ff01
fed5
019e
fe84
fec8
00af
fe60
009c
feab
fed2
00b9
fed7
0209
fde8
00e2
00e5
fff7
01b5
011a
feef
014e
ffd3
016f
ffad
fdf5
0197
008d
fda6
0075
ff57
020c
fdd9
0046
ff51
ff50
fe65
02b6
fe59
021f
015a
0217
0120
00b5
ffef
ff03
0026
0057
fe05
ff06
feea
0216
0075
ff82
fe25
ff06
fe7f
0115
ff61
fc8e
0003
0000
fdb0
feea
00e8
0142
02cf
fdea
01f5
0219
ff58
fe03
ff53
feee
01e7
ff7c
ffb1
ff11
0003
0252
00c0
0055
0156
ff8c
001c
01d4
ff2d
fed4
001a
0273
0005
fed9
02e1
fe30
fe81
0154
fe38
ff4a
03a3
ff7b
fe43
0180
0187
fea1
0119
0135
ff41
fdfc
0028
fffc
00fa
ff99
01cc
01fd
fe56
ffa9
fcd5
0282
ff67
ff00
fde2
00dc
00af
0079
006c
02fb
fd3c
00d8
fdf3
01e9
0016
0148
00b3
0130
01e3
fcc8
ff15
ff9c
ff80
0044
00e6
00da
fcd8
0188
fd13
0362
001b
fd8e
005b
fdaa
fe07
0048
0165
fecb
0061
0162
01b5
fec3
006e
ff78
feb1
fd87
ff4c
009e
0216
02fe
0012
fe6c
025d
00a0
ff3b
0193
01f7
fdfc
ff8e
fe54
002d
00ea
013d
ff7d
0132
014e
fdbb
fff3
fea6
ffc9
0094
fec8
00a4
fe69
0036
ff2b
fda0
00f6
00c2
fe9d
0282
004b
012b
fe6d
0005
01e1
003b
0120
0293
ff81
fdf0
032e
ffe0
fdec
fec3
fe54
ff56
ff24
0050
010c
02e2
009f
ff30
fdd6
0272
fe22
019e
ffa8
0090
ff5c
01af
00fe
febb
ff65
feaa
fec5
00ff
fd3d
0076
01c6
fe7b
01eb
fe7a
ff1c
ff82
fe81
fe89
ff0c
fc9b
fed9
fe6e
01b8
ffa9
018c
ff6c
ff0c
fe01
0136
01f5
0050
fb4b
fd84
00dc
0005
018e
fd78
0082
0181
fddd
ff0d
018d
ff7d
007f
fd55
ff9c
019b
0167
0073
fca2
fd75
0087
ff61
0248
fe6b
0055
0191
ff6a
0207
0012
fecb
0214
01d9
fe4d
fc7e
fd7d
0102
fdf9
ffa0
fe17
0025
ff77
034e
0192
01ff
01f2
ffca
fe13
fd1b
0021
fd59
01c2
fe76
003c
014a
019c
0225
0099
0129
ff88
0109
fc23
fc71
0119
fda1
019e
0066
fdea
fe1d
fe47
fdf8
feeb
0194
010e
fe3e
fedd
0175
0028
fc45
0094
00e8
02c5
013f
0042
01fd
fe05
ffc7
0283
fe08
00a3
004c
007c
fe1e
fd31
ff37
fdba
fed3
fde0
0027
fdd3
ffaf
fe66
fe0d
008b
01e9
fdf5
fe66
01ee
015f
ff23
0269
01dd
fe20
fea6
fef1
ff79
0168
0257
fec3
035b
fd85
0268
ffa4
ffa7
0026
0087
fef8
008b
fe5f
0219
01a9
fdf8
02f4
fdb2
fdcc
ffb5
0172
ff33
fe9d
0144
fef2
feda
fe13
00a2
003f
005b
00b0
0236
01b9
006e
0263
ff9e
fc6c
fcd9
01dd
008d
ffc2
034f
0197
0029
ff54
ff9e
013d
019e
ff0b
fd57
0135
ff48
fe21
0094
016d
0054
fe8d
fd94
00d4
fff3
0219
005a
0130
0090
00eb
0031
ff3f
ff5e
0143
0110
0108
ffee
ff6e
ff01
fdf0
002d
fea5
ff98
fd33
0141
0233
0064
023b
0217
fe94
ffc4
000d
ff09
0064
0193
fcfc
fd3f
0221
fd06
ffdc
feec
016f
00c9
fcae
fe7e
0013
0169
ffa7
0169
02e4
fe99
0149
fe84
0147
fdf3
ff78
fe6e
027b
ff3e
ff2a
0058
ff43
ffd0
fe2e
02b8
01e8
01ef
ff5b
0279
01b8
fe22
00b7
0169
020c
00b6
fd8a
ff2c
0183
fee4
01e9
fffc
018d
ff59
023a
feab
ff80
fe95
0205
0187
fd94
00eb
ffcd
fe26
0143
ffb3
0392
0180
fc3f
ff37
fd2c
ff21
ffa1
00c6
0261
fd96
ff94
fe1b
02c3
0047
fd5b
fe1c
0160
ffcd
ff85
015a
0090
feed
ffc8
0031
fe61
0183
fd94
fcd7
0049
fec8
fef7
0256
0241
009f
feae
ff58
fdf9
02e7
003d
fcfc
fecc
01ee
0025
fe4c
0230
0125
fda8
ff7e
fecf
021b
fe98
fef2
009b
0016
ff06
0261
0148
00e8
0213
ffed
fe96
0168
005e
0150
006c
fef5
fea5
ff85
0268
fed4
01b5
0200
ffbf
0133
00ae
01bc
ff97
015e
0139
007d
fe26
0062
fe4e
0226
0212
fdf1
feff
016d
0100
ff59
01ef
fe2e
fde4
00cd
02b3
01a9
00ed
00c9
fda4
0089
ff00
0249
005c
ffe4
0000
0112
fe9c
ff00
fc8d
0000
0154
fe72
fe05
0219
0140
0083
feda
fdf5
fd87
02f3
ff52
028b
00ba
008a
ff07
ff8a
fce2
ff03
023e
00b4
ff7e
0171
0298
ff03
ff09
0067
0182
ff4d
fe88
fde8
fe52
feb1
0138
fd52
fe92
fe0c
024a
01af
0052
0043
02cb
fec6
00d3
02a5
fffc
fe51
fed9
0088
ffe4
03cd
fea5
fe67
01de
ff44
fe5e
014d
ffdc
fcdb
02c9
0058
022e
021e
0109
0059
fdf2
02f2
fe3e
ffd8
fe7e
007b
fef0
fe3e
ff04
0331
fedf
fd9e
020d
fefb
fe9f
00f9
0003
02d2
0240
0038
feec
0236
ff41
01c6
02b6
ff5a
fdba
0303
00ed
01bd
0071
ff29
fbe3
fdfc
0230
ff82
0186
005d
00a2
fedd
0068
fea5
ff42
00f9
ffe7
00c4
fe04
ff2f
0137
040c
ff7d
fdb3
fefa
0081
ff98
03a0
00d5
fc24
01e1
feb0
010b
febd
feb5
ff71
019c
ff01
0022
006d
ff3d
ffcd
ff51
ff99
fedc
01eb
fe73
003c
ffd3
fde1
feec
fd89
fd4e
ff2b
022f
0136
ff7e
fdb2
ff0b
ff9e
0074
feca
ff30
feee
00d7
fdbf
0058
013e
fcad
013d
fe72
ff6c
00bf
02dd
fe00
ff60
ffe6
006f
ff12
02a7
0075
fc82
ff73
ffb0
0157
0367
017e
ff4c
028f
ff69
0176
0257
003e
fd33
fde8
021b
fcf5
0222
023c
fda2
0209
ff99
012e
0106
fed3
fdb5
ff29
ff53
0125
006f
ff7e
005c
00fc
0094
00e3
00aa
fea7
0141
fd8e
ff93
fff5
fee5
01ef
010f
0102
fd22
005e
004e
ff0a
fd6a
00f5
01d2
fffd
02a1
0134
fdb7
fe59
ff9f
ff33
00b9
01a4
00b8
ff1f
01d2
0217
0107
ff24
ff87
ff12
fd3f
fb82
fd7e
01bd
fdc9
02ef
fd6f
0179
007f
ffa6
00d5
01f6
ff6f
fd5f
fe23
0248
01f1
fdfb
0225
01cc
000c
feca
fc7e
fcb4
0246
fd13
ff9f
fe74
fde8
ffc3
ff2b
010b
fe3f
0070
018c
fea9
ff70
013a
ffbe
0181
0381
0193
fe7b
fde6
ff50
01e2
003c
0053
fce2
0078
00ac
fdea
0257
010e
ffe4
ffc8
0281
fd86
0216
fe7b
fd16
0069
ff11
fe20
02e9
fdd1
fdff
ffae
00b6
fec0
01f7
fdef
feb1
ff87
0138
0114
013c
012c
fed8
0002
004a
ff9d
0112
ffe3
008a
00bb
0228
0190
ff5f
ff79
fe9b
0062
0354
00cb
01f6
fd84
01e0
0030
0343
019e
0207
0129
fe48
00b7
fd14
009f
010f
01c3
ffae
ffb9
00a5
fe14
019c
002d
00d1
018f
018f
fe2a
0075
01f0
ffec
ffb7
ff3d
ff10
fee9
00b4
02c9
fe9b
0108
ffa7
000b
fdb2
ff86
ff41
0072
0179
01cb
0045
032d
fcc2
fe5f
fde0
fffa
0015
00d9
01a5
017d
014b
ff9d
015c
026f
ff70
ffe3
fe1a
ff33
0196
ff44
003f
ffa2
00f2
fd27
fd18
019f
fe93
ff20
0037
02cb
0041
fd59
ff0c
ffb0
fff0
01c4
0267
feaa
003a
01bb
00f9
fe21
fe9c
ff68
0287
fecb
ffde
00c4
0128
01ab
feca
016d
fdf8
ffc9
fd4e
fd42
fdf1
00b5
001f
fea3
fed3
fe90
0176
0170
fece
00aa
02a4
017d
fe50
ffbe
feb2
fea6
feb5
ff97
ff18
010f
ff68
ff4a
004e
01e3
02fd
0262
fe8a
00af
022b
0193
ff4f
013a
0044
0131
fe20
ff39
fead
00e6
021d
fd6b
01df
ff15
ff07
0097
fef2
0026
fc66
fdc4
0128
018d
000c
fefe
ff24
0084
00ba
ff8b
0122
021e
0069
0177
01a8
fff2
ff9c
00c9
fd89
fe84
ff16
fdd2
ffdc
feb9
ffed
febe
ffbb
ffec
01da
ffbe
fec1
00c3
0205
0112
031e
019c
000c
ffd1
fec6
009d
0069
fdae
0044
ff21
0287
ff4d
00a1
fdc1
ff61
0092
fea2
ff8b
0142
fe71
00cc
0102
ffb8
fdfb
ff4c
00ad
0095
fe6f
00aa
004c
fdd1
ff9b
fefe
0016
ff25
0137
ffcb
00d5
02a1
fe0f
fe23
0051
013f
ff92
fef2
01b4
000e
feb5
01e1
009f
0247
00b3
015a
007a
00d5
ff8d
0088
00f5
fed6
005f
00ef
0283
fe31
fde1
02f6
fd11
ff8b
fe13
fed2
0124
0138
fdbd
fec2
00f1
0113
ff50
fec7
0144
01a5
fe4a
ffeb
fbc8
feb2
feac
ff9c
022a
fc58
027e
029a
0159
000a
018c
005b
01ac
017c
fdf6
ff7c
fefe
ffb6
fea3
03d1
fd94
0115
fede
025e
009f
fe6c
028d
00d0
ff07
006a
fdd4
03b8
ffdd
ff2e
fee3
ff4c
0093
fea0
00e8
0165
ffd5
fe5c
0053
01c4
0121
01d4
0019
feba
fdce
ff82
020b
fde3
00c7
00d6
02c7
ffee
fdde
010b
ff71
0147
fff8
ff6e
004b
fdf7
ff6b
0173
fdfb
00de
025c
fd69
0057
ff63
0129
0142
fd51
fd64
ff68
00c1
0042
ff47
fe30
ff86
ff5f
007c
fd7f
ffd8
0237
0245
ffd8
ff75
01a4
fcc3
ff16
ff62
fcd0
00d7
021e
feba
0348
fef6
0209
0349
00f4
00ab
0068
fe75
ffc5
fdca
0051
025e
01ff
0093
ff0d
ff25
01bd
022b
0248
feea
ffaf
0098
019c
ff7e
0189
ffda
fecb
fe05
ff33
fe6f
00b0
fdf2
01ce
0071
001c
021d
009d
fe53
fd6d
ff3d
0055
00a4
ff98
0161
0007
00c5
010f
0058
fd73
fe4f
0107
01b7
01b1
002d
012b
0106
014b
01e2
01fa
ffd0
fd6c
fe5c
01b7
ffcc
ff59
fe70
003d
ffd3
ff13
00e3
009d
ff3e
fd70
fc83
ff59
ffdd
006a
0146
00ed
00be
00e5
fdfa
ff03
fe6c
ff70
fec5
ff02
0209
0153
fe1d
fdc5
fe69
0110
0178
02e6
fd81
ffd0
002a
0027
0048
ff24
010d
ffba
fde7
ff80
00d9
00fb
fd7a
00be
fe5f
ff52
ff1a
fe1a
feec
ff39
02ff
00c1
ff37
ff83
ff0e
fce2
ffdf
0068
0044
ffed
003e
0052
00b5
fdb8
ff65
0228
ff5c
fdef
fc2d
030f
ff27
03c6
fdf7
ffc5
fd9b
0220
007d
0111
02f1
fe09
fe55
0151
ffda
01e8
0122
ff61
ff84
fec8
fd74
fc1c
00ea
fd6c
fd52
fd28
02c5
fdd1
019d
008b
fe87
0325
01ca
ff07
0093
fe56
0098
0278
015f
ff0c
0190
fdc6
fd7e
ffdd
02b6
ff6c
fed4
018e
fff9
0198
0085
0193
fd77
0173
fc5d
0073
fde3
0205
0198
0200
00d7
0333
0418
fe0b
fdfd
0242
fd23
fddd
fd66
fe17
012b
00f6
0292
ff8f
ff79
009f
016e
fee8
fe00
0017
0173
fdeb
fdf9
fe06
fcc9
fd59
fffe
fc8e
ff4d
001c
011a
fce9
fede
ff60
ff04
02a3
fed3
fd4d
fe0d
010f
0369
027c
010e
fdce
fdca
00a5
feb7
ff17
ffaa
0120
fd8f
0002
fdae
fec5
ff1a
004e
ff8f
fe21
fe52
fe67
fe6e
022d
00c2
018a
fe64
ff9a
feda
fe2d
017b
ff1f
fd90
fde0
fdad
fe22
fdbe
01e1
ff92
01a3
0321
fe45
fd85
002b
ff67
026b
0079
fed5
0339
ffd5
ffca
fda5
ff34
ffd1
fe6c
009a
001b
ff4e
ffe9
ff35
ff75
ff84
fee7
feb8
fe89
fddf
ff2b
0146
ff52
00c1
ffd5
fe4e
0062
ff95
ffea
014f
02cf
fff8
fe62
0032
0000
fe68
0001
fdd8
0028
0085
fe4f
008a
ff66
017e
feff
01ef
02f3
fefc
