f927
fd13
024c
0481
0354
fd0d
037a
0345
f9d4
fcb4
fa6e
f9d0
022d
04b7
fedc
fdfd
ffb1
f9f9
0327
fe76
0268
05e4
0423
024d
fedf
fe0e
03b7
fee6
0647
fbc7
f839
064f
03c0
f771
0388
fbb4
0125
007e
fd95
ff70
fe15
03e4
fbae
061f
fae5
0507
0646
031f
0122
f967
ff93
0333
fcf4
ff11
fee4
fddd
fe57
0275
01d9
fcf6
fd16
fa23
f931
fe25
ff3f
025e
fc57
0299
ff66
0138
045c
043a
0704
0179
ffff
0257
f91b
0653
fde6
fab6
01d8
fbaa
0072
fd21
fd3e
ffb9
05cf
f8e7
fd43
02c0
0618
059a
fab7
fc75
ff31
fe3a
019b
0272
ffa4
0094
058b
f974
0285
fd49
002b
046e
0223
0086
fb6f
020f
0006
05b3
05dd
fdd7
02ff
01a9
03d2
fdc4
ffb9
0191
0069
f966
019f
0592
fc55
019d
fdd8
fb11
