fe55
03cc
fe6f
0036
feff
0183
fe56
fc57
fe47
fdff
02e2
fdc0
01d3
ff09
fe4a
0135
fce6
fedf
fe3c
03a8
fef2
ff1a
ff06
007a
01af
fd9a
02ff
fcd2
fe7c
feaf
0083
fff7
fc7b
fe7e
0025
fd42
ffb3
ffae
ffd6
fce2
fef3
0091
003b
fe4c
00b3
fe87
0199
ff11
007e
ff23
012c
fe08
fec9
ff75
01c9
ffcb
ff1f
fe22
030e
0481
0324
fcea
fbe9
ffe6
008d
00ed
0142
fc6f
026e
fcd9
fcfc
03a7
fd11
001c
fe8e
0078
003f
fe99
fbb3
0209
024f
fdc0
0005
ff3a
022b
fe73
02d9
fcd5
fe95
0030
fe20
0201
0424
fc76
ff19
00a5
fda4
02a9
011c
fe10
00e6
0449
fcfe
002e
0006
0258
0137
fd81
033e
ffa3
fe3f
0260
020f
0057
0037
032f
fd7c
ff9d
01af
fea5
fea7
fdae
027a
fff1
fd05
0340
03f8
ffd4
01e6
0051
02e6
fdfb
0224
ff95
0213
0386
fbc5
031d
0199
ff19
01be
ffb9
fd42
0144
038d
fea1
0180
fcd3
ff00
fb73
0214
0312
02d2
fdb8
ff77
037b
02cb
fee6
0219
fc93
fe0c
021d
feee
fff8
fe9b
0032
fd5e
00f0
fccf
fda6
0018
00ab
03c2
fe92
00fe
ff1c
ff51
01a0
ff8f
0319
014f
01a7
fd95
002c
ff51
01f6
019f
028b
fedc
ffc4
039d
fe15
01ad
ff6f
fc43
03ec
0514
ff37
fcb2
fdf6
fe9e
00c9
0361
0072
009d
00af
002f
fe76
006b
00cd
01aa
fe11
0030
008e
fd3f
0165
02ee
022b
fd1d
0026
fef7
fd8c
fe5c
02a1
010e
fe3c
0092
0073
fdc3
001b
ff5e
ff27
0224
01d5
fdba
fc4c
0037
feb9
fc50
0403
ff4f
014b
ffd1
0185
fc90
00f9
fcb3
fd50
0148
fe5e
fc6c
0089
fca4
fd9b
ffae
0043
03bb
fe01
ff0f
0013
fd05
0296
00be
fe14
feba
fe45
0317
fcc2
02f6
03cb
009c
fc4e
0151
fdf1
0057
0025
fc12
00f4
000b
0106
01ed
ff97
fd85
fe45
ff1d
fff5
fcfd
fdf1
0391
febe
feba
fd1a
00ff
fcb8
ffd6
01cd
007b
0095
0344
ff57
01a3
0154
00db
fd94
009c
005e
fd54
029e
00e0
02b8
fd6d
fef5
013b
000a
ff1a
0268
fe2d
fe6f
02bf
01f2
010f
fcd8
fd8f
0385
0053
fd0f
0135
feb0
fd72
00da
03bb
fd97
fdda
0199
fdfb
002f
fea9
fd8e
fcb5
02ac
0000
01ee
02c7
0084
00c0
fe57
ffff
fe31
00fa
00c4
0355
0087
02bc
0018
01d3
ff50
0217
006d
0102
0210
ff0a
fd9b
038c
fdfe
0163
ff7f
020e
ff6e
0300
fda8
fe2f
ff50
fe90
fdac
01ed
021c
ffaf
0269
00bc
fefd
01dc
fde3
0405
0296
019b
00e0
00eb
02d7
fd8f
ff1e
0330
fe05
fd82
feda
0178
0117
fd50
002d
007b
00db
ff61
ff6d
01ad
fd32
fea7
fdd6
00e4
00d2
019c
ff67
feb9
ffe2
fd15
014c
024d
ff12
018e
00f6
fb4d
0202
ffa9
fdfe
feff
032e
fe38
fec0
01a6
0244
038d
00a4
0060
ffbe
0095
0258
fe27
fc39
fe6a
fe70
008f
0191
fea6
fe85
ff99
0149
fda1
0274
fe8f
ff39
ff3c
fea7
fd4b
0083
0029
fe3e
fdb6
03b7
0237
ff51
0106
039d
0158
01ca
fd72
0351
fe01
ff75
fe02
0322
012e
fe69
ff60
0032
fe8f
00e1
fccf
002f
feb2
fffc
fe1e
ffc9
feca
0094
02ac
001f
03b1
0106
0275
0062
ff90
ff3f
0222
fe8b
00ad
fe89
0303
fcb9
ff69
fe59
0044
034f
0323
ff8b
fb82
02ab
ff0f
fd40
fdbe
018b
fcb4
fe10
034b
026b
