009f
fedf
fd99
ff7a
01b4
fe0d
010b
fddf
0185
fefe
fed8
016c
01b7
fe9e
feea
fecb
fd97
01d4
0142
fd40
fddf
00a5
018a
ff42
0034
ff23
fec8
fe35
fcaa
fe40
01dd
ff28
ff0f
00c7
005d
fcdd
ff0e
fec6
015d
0078
ffb2
fe88
ff93
ffd5
fdbf
ffed
0259
fe90
ff3a
009c
0244
fbbb
ff8f
010a
015d
ffc4
00b6
fef3
0102
01b7
fff3
ff6a
fee4
fe3b
01f0
fdc7
01d2
fe2b
008a
009e
001c
fdb0
00a8
ff2f
ffa6
0185
00aa
0080
fe3f
fd11
006c
00dd
0136
fdee
fd8d
ffb1
ffce
fdc7
fef1
fd18
ffcd
ff7e
0365
008a
002b
031b
0395
ffbe
0120
fda3
fdd9
0142
024b
0049
ff0f
fd94
ff6b
0405
00ad
0099
01da
ffcb
fe2d
ff9b
010f
0058
0113
002c
ffb3
01fb
02a3
fec7
0070
00d5
ffa2
fedc
ff42
feda
ff7b
fef6
0143
00de
0127
0123
ff1b
fee8
fe40
fff8
00f5
007e
0138
fdc1
0146
0013
ff06
025b
01c3
014b
01e6
01b6
fec6
0163
ff51
00b5
ff6a
ff7a
0225
001a
ff3f
0130
ff0e
00f6
0045
ff61
0072
00b0
ffb6
022d
0181
000c
01a8
feb3
007b
feb8
0071
fd3a
ff00
0266
00ce
fe51
00de
00d5
0135
ff30
00aa
ffc8
ff2b
01c3
0120
0149
002d
0098
fda8
025c
01c3
ff89
fd40
00a7
00b3
012d
febb
0020
0212
00e9
ff9c
fffb
0178
fdc0
0163
0198
00d0
ff71
ff65
01b9
fe9e
014d
0100
fff3
011b
ffd5
0040
024e
025f
016e
0129
ff17
ff55
014a
0150
fea9
feec
0209
ffa0
fdc9
01f9
00b7
01e8
fe4e
003c
fdef
017f
016a
ff45
0056
016d
fe2e
fe2f
ff7f
020a
ff5e
ff0d
ffbc
011b
01ff
006a
ff7e
ff97
fcf4
fe32
0105
0113
00fa
fed6
fd9b
ff95
01e1
0292
0034
ffbe
fdaa
ff99
ffb9
0141
0129
ffbb
fecb
007d
0288
014a
ff4e
003e
fc88
0120
fec4
003f
fd2a
fdc1
035b
016c
ffeb
0214
fe73
fdeb
fdc9
01dc
ffa6
ff21
fe5c
01c6
fe90
0021
0087
02ba
ff70
0106
0079
013a
0185
0035
ff50
01eb
027a
0141
0408
ff85
00cf
fdb3
02ca
fd9f
fee2
fdb8
0194
ff3f
fe80
0062
fe36
02b6
ff4b
fea0
fde2
fe81
ff28
ff99
0235
00df
ffc1
fe4a
0195
011c
feb0
fe87
fdbd
021c
ffd1
0084
fd55
ffcf
00a6
018c
feba
0070
fdc6
00e0
01b2
00a8
0225
0255
ff7f
fdf6
001f
fe50
0022
ff7e
0028
ff74
ff99
feca
0226
0181
fdd9
ffca
fec5
fec1
0096
fd3c
fe92
fc18
016c
0172
ffc9
ff2d
feed
00e8
0104
009a
0046
0229
ffa3
021f
ffc4
fd06
ff4c
ff60
0372
fd63
fde3
00ce
ff71
0164
00fd
fe9f
0039
0111
026c
00ed
ffb8
0148
0150
01f9
016a
fe34
019e
fdc4
fdc1
016f
0013
fe89
0029
0147
0211
fda0
ffc3
fc7d
ff02
ffd4
002b
01ac
019e
0049
ff1a
ff38
ffcd
01d4
025f
fdfa
0168
0289
ffd9
ff28
007e
00cf
01b2
008c
feaf
0000
031e
fe9a
fda1
ff31
fe66
fe1c
ff89
0060
ffc1
fe8d
fff8
0002
00d0
ffe5
ff91
fd1c
fe60
fe1b
016b
0048
ff28
ff54
ff36
01b5
fe2a
020a
ff19
0010
ff79
fee3
026a
ff1a
00e4
01a7
00d7
0138
0053
00ad
00e5
0086
fe19
ff23
0205
0092
0102
00a4
0029
fe42
0006
0070
ffa1
ffb4
ff94
fec0
fd32
fef8
ff48
010c
fef8
fdb4
ffea
028f
ff09
ff09
fee7
fe6e
fd39
fea0
fdbe
fffe
fead
01a9
ff17
0163
fc08
fe34
00dd
02d6
00b8
ff58
fe4a
fd78
ffa4
01ee
0021
fed7
00ce
fd97
0166
0126
ffb9
0225
fff0
ffcf
0060
fe21
00a9
0035
04b7
0353
ff78
0249
0135
00e8
0287
01ea
fbda
fe93
01e6
0188
007d
01bc
ffa4
017e
0222
0036
00f6
fd81
ffcd
033f
fc76
fea7
015e
0089
ffc0
01a2
ff11
fe14
01f7
fb76
ffe9
fd1b
001f
01ce
fd52
0156
00e9
0023
fe0e
ff61
fed4
fece
00ad
ffc6
00cc
0000
fe92
0136
0041
002a
fe85
ff13
fe6e
ff3b
027d
00e9
0129
01bf
fea0
fd31
0225
00f4
005b
01cf
fddb
fe23
00fb
0183
ff87
ffc5
ffc7
ff25
0207
ff58
01e6
009d
02a6
ff92
0234
005f
fe35
ff12
ff3e
ff8a
023f
fe23
002f
ff74
0000
ff85
00aa
0137
fedd
fd9d
ffa3
0236
ffb7
feaa
001b
feb9
fe65
0090
0096
fec1
fdd3
ff92
00d9
00e2
ffb4
00b9
fe76
ff01
004e
fe98
fe37
fe47
015d
017b
0048
0012
00c0
fda2
fee9
00f4
0128
fd40
0017
0012
fd60
ff16
0151
00a6
00fe
001c
fef6
ffd5
01ff
fe18
0171
0055
ff4b
ffe2
0032
fe7f
ff29
feff
fffb
00bf
ffad
0182
ff4d
03ba
0235
00b9
00d0
fe05
01c1
fd7c
01d1
ffc9
ff4d
fe1a
0056
fdc1
0025
01e1
0195
feb2
fecf
009d
0068
01f0
fe91
0090
003f
0152
ff58
ffa0
ffcd
0243
fed3
ffac
028e
0150
0025
00b8
fe5a
0267
0125
fef5
0009
feb1
ffa3
01e6
fde0
fe1c
fe24
019c
00cc
0202
009e
00da
ff7f
fe4d
ffa7
012f
00e2
01ca
0163
ff6c
0000
fe45
0033
ffc2
012f
fd98
fe37
ffca
0207
ff61
015a
ff20
0159
00d4
fea0
008d
00ac
ff59
00c2
ffc4
fe5e
feae
0001
fe2a
01be
01ef
0081
fe7a
0141
fe26
0044
00b3
0177
fed4
fdf4
fe87
ff4e
fec9
01be
fe47
007d
fe02
fe1d
001d
0104
ff2d
fea1
02b2
007f
0131
fefe
00a4
00e8
fe05
ffc6
ff3a
ffea
fe90
01c6
0263
ff7e
0021
01b2
010f
012c
ffa0
ff6f
0197
02be
ff42
02b0
01f1
0296
ff69
0202
fd29
fd13
fe92
fe3b
fe66
fe09
0131
fe69
0180
00ab
fee9
0007
ffb8
00a1
0048
0214
0296
00e1
fe8c
ffef
fe4a
01fd
02af
0131
0139
0015
00c0
fe59
ff29
fe62
ffe2
012e
fde6
0159
feda
ff69
fe83
01b3
ffaf
fff6
fe23
fef5
fea2
006e
0154
0036
fef7
ff83
001f
fee6
00a0
01ee
0226
0037
01e4
fe50
fdb5
ff21
ff0a
01bd
fd5a
00d1
ff8f
ffb0
01f3
0231
fd9c
fdbe
029c
fe41
02c0
020a
0024
fcc5
00c5
fe5d
00ac
0295
003f
0034
0228
fdd5
ff9e
0261
fdbc
fe45
0217
017a
032e
02ac
0170
fdfd
008f
ffcd
fdc6
feaa
fee1
fe8d
0040
fdf0
fdf7
02b4
01a9
0137
01e4
fda9
ff30
02e6
004e
ff91
fcdf
02c8
fe94
02a0
01a9
ffa7
fd6c
00ed
ff00
01bd
000f
fef4
ff2d
fe05
fe50
fec9
033d
fdc7
0009
00d5
ff60
ffa3
0202
ff7f
fe0c
fdc8
ff39
fe2c
fcc5
ff40
fd3f
01c6
02f5
fcd8
01b8
0182
0382
ffeb
ff03
0166
00e8
00e4
fe3b
002d
0229
03eb
001e
fe2d
00b8
0249
ff28
0010
00bf
fdb8
fed6
0029
ffdf
0098
fd96
ff46
0100
0126
fe5e
0338
fe3b
00fd
ffc9
0434
ff83
0146
fd84
00a4
ffc3
feba
ffcd
0209
febf
fbbf
fe7c
fc57
ffc0
fe42
00ae
035d
015d
01a7
0073
fdc5
ff01
fd65
014c
fe1b
ffe0
fd8b
01a0
0139
02d0
fd77
0004
008d
ff35
fecb
0062
fcfb
0055
0178
fe06
ffcf
fdf9
ff6a
fedb
fd3e
0240
02db
fec8
00fe
00f4
ff87
fe02
fd89
0224
01fe
0157
fd8e
fd4f
fe21
008b
ff73
0175
ff23
feb7
01a3
0060
fdb8
014d
ff3e
014b
ff74
fffa
fea0
ffe7
ffea
0284
ff73
ff87
fd3d
01a9
015a
fe9e
ffd8
fdf0
ff47
0148
01bb
011f
ff37
fd70
019d
0011
011b
ff8a
fe55
ffcf
fea6
ffc1
0220
01c9
ff26
fea5
ff1e
ff78
ff9b
00d9
ff6c
fe1a
ff01
02b6
fda0
fe74
0026
00bb
00de
ff11
ffa4
ff8f
006d
0094
fd16
feaf
0028
fff9
0077
00f3
0084
ffbe
fdca
0219
0008
fd81
fef8
02a4
00f4
ff40
017c
03cb
0195
00ea
00f0
00d0
00a8
fcff
00c0
fe43
fe05
fd28
ff71
0363
fe5a
02fb
feb5
fe80
ffd3
fe59
fee5
fea5
0053
009f
01ec
0141
00e5
fe89
fd97
feff
0136
0228
014f
fffa
fc98
ff50
fed7
fdc7
007c
0180
fee5
0252
0143
015a
fe08
007d
0280
00aa
ffa3
ff96
0083
02dc
fd3e
ffe3
fd7c
ff8f
0052
0042
fe36
fe57
ffd5
fe88
fefc
0155
00d3
fb53
0055
fea7
00f3
003b
01eb
fe38
fe16
fdf2
ffa8
ff64
0208
ff0c
024f
0090
ff95
01b8
ffaf
00b3
00b3
fb1e
ff79
fd91
fe01
fcbb
004c
022c
016f
fe3f
02c6
0259
0081
fd7b
ff25
ff2e
ff97
00dc
0135
00d8
0276
fd8d
02f8
02db
fd5e
fd5f
fc53
ff2a
012f
00ad
fd55
03a0
0039
00fb
fcbc
02fa
fb47
01f9
01ba
027b
ff74
fec1
00fa
027b
0250
006f
0250
ffd7
0098
002e
002c
ff30
fcb7
fecb
011d
022b
fde5
014b
fe62
ffd4
fd55
01d2
fe8e
009e
ff36
025b
ffd3
fed0
00f1
0055
01c9
0139
ffeb
017b
feb4
01bb
023b
00cc
0107
018d
ff24
ffff
feb1
fe63
ffad
ff09
ffa7
00cc
01ec
fe03
011d
012d
0000
fe15
fe45
022b
0165
fd8e
fe89
fe62
feaf
fdf7
0165
ff16
ff0e
0066
ff34
0099
0037
0054
ff4b
0097
ff42
01e5
fe89
fe79
0236
056b
fc37
014c
fd17
ff65
fcc1
004a
fed6
fe69
0176
fba1
02f8
0198
ff88
01fe
ff35
00f3
0162
016f
00c4
ff9b
01d6
fc86
0357
ffc4
0203
fe72
000c
00ed
fcac
02c5
fcc2
fe96
0122
0058
fdb7
fefd
fe40
0252
010b
fe45
ff6c
016d
001b
fcf3
ff4d
0262
fcaf
fe00
fe7d
01f9
febc
0096
fe30
02df
0158
fe46
0108
01c7
ff33
fe67
fe92
fccf
0300
ff33
fe92
fed7
01ad
ffb6
00c7
00ff
fe5b
009d
fe7d
0114
033f
004b
fe9f
0193
fe4e
01a7
0196
fe42
018b
0289
0092
00df
0262
0237
ff2a
fe54
0275
0108
fef1
0126
00ab
001a
0047
01c6
0000
fe95
01d3
ff94
01b2
0043
feaf
0276
fefb
fe09
fe86
016b
ff52
008c
00cd
fea9
033f
0270
0081
0130
fef5
0134
0224
ff2a
01cd
ff1d
fff2
fea5
0046
fecd
00d0
ff93
01c1
0004
01f6
fc4f
0034
fe76
0037
00ae
0151
fed4
02a2
03a1
0128
0293
feb0
ff9d
00e4
ff22
fd78
01c4
0067
feb3
003b
013a
fd75
ffa6
01bb
ff20
0052
0165
fee0
01c4
0409
0209
fff9
fffd
0039
01c0
ffef
fdfb
ffec
00c9
0033
fcc8
033a
015c
0041
005f
0352
fd3d
023c
fcbd
009c
00ab
0007
fc5e
fd19
0370
ffe6
047b
0061
fdd2
ff0f
fdfc
fe6b
003e
0124
febc
00e6
fe9c
fe1a
0103
0100
0118
0046
000f
0192
0249
fe96
fe86
009a
0266
014a
0034
ff70
00a9
ff82
fe4b
0011
fdc8
0133
fe03
fe36
ffe1
0051
ff04
0173
fd86
0200
fef4
01fb
ff43
00c7
00c3
ffc4
ff3b
006b
0041
01ef
028f
fe9e
ffa4
0304
fde9
0086
fede
ff3b
00df
ff6c
feef
ff58
0258
016f
001b
0005
ff44
ff2d
032d
ff5a
003a
ffb9
fc9b
fed1
ff95
ff99
fe71
02d4
00c1
ffed
00da
0232
00fe
01e9
fbd6
fef2
ff36
fcdf
fe18
012e
023a
015f
fed6
ff25
fd95
ffc5
01f0
00cc
002b
ff63
ff55
02bb
0404
0376
fec8
fceb
015b
028f
ffbb
024a
fe8c
03c3
fdcc
02cc
01eb
006a
fe2a
ffab
fe6d
0175
00e6
ffe2
fd07
fcc6
fe91
0000
016e
0086
fd7c
01f4
0091
0188
ff33
015d
fe50
fdb9
0214
0017
0210
fec5
012e
fff0
fee7
fefb
0176
ffe4
ff05
ffdb
026d
fe61
ff5a
008d
002e
0100
fd7c
fe9d
00c1
ff18
01f6
fd46
02b3
fee1
ff0c
fe11
00af
ff52
fd02
fc8d
fdaf
00a1
fece
fded
01c9
ff97
fe9e
fefe
00ba
002d
0033
001d
00b9
fd77
fe5e
ff29
fe0b
0102
ffab
00a9
02aa
fe79
0104
fed8
fe92
0154
0041
fecf
fed7
fdcf
fd24
fdd0
ff2c
ff0d
0353
fe3a
ff23
0098
fd31
ffdb
005d
ff9a
fcfd
01f6
0281
fed3
010b
ffb9
fe3f
01be
0093
01bc
fca8
ff3c
ff13
ff75
0275
00fd
fddf
fe8a
00fe
001a
0290
fef1
fdc4
01c0
001c
012b
fefc
fd7a
fe1a
0318
00b2
0073
ff04
00af
ff10
fc6e
ff7e
0099
00a0
00c7
ff37
ff9d
0327
018a
ff4f
024a
00ce
0096
fd58
0173
0090
ff12
fda0
ff3f
ffc2
fdd3
fd6c
01f7
ffa4
0086
010f
013c
00d2
fe72
01c4
00d1
fd7c
00a2
fffc
fdb3
0014
fd98
00cb
fef1
01b2
fec5
fd87
ff74
007a
00ed
ff2d
fe8d
fe6b
0193
0125
ff9a
fd22
fda8
00f9
fe71
ff0f
02d1
00a0
fda6
00ef
020e
0174
0083
fe38
fe6a
0201
fe85
fe47
0181
02ab
0084
fd0e
fda1
01ec
0165
00b2
0186
ffed
fdb3
00aa
0135
ffee
0027
0189
ff08
fe29
00a4
fcf9
004f
feb9
00cf
ff37
001a
00f9
00ad
0081
02c6
fe05
01d9
fd89
ff22
010c
fe11
ff1d
ffb1
00d0
0080
fcb4
00cb
0139
ff8d
fff8
02fb
fd71
00ca
00d2
00e6
fd0f
0014
fee6
ff74
00a8
0084
fe85
017d
0140
00c9
027e
025c
0128
fcce
ff61
ff46
ff27
fe0f
ff06
028f
ff1c
003d
0072
ffa2
fcad
ff79
0130
0213
fe83
fe42
ffc7
ff48
fe4d
01fc
fe7d
ffc1
00c3
fda3
0030
ff62
0199
0218
014b
0073
ff9f
0229
028d
fe20
ff5c
ffac
0144
0003
01f1
ff75
fe53
0293
00ba
fff2
fdbb
000a
00dc
019b
00b5
feda
0167
fdfc
fe14
044f
0096
0168
ff75
001a
fe46
ff18
fdc0
017c
0012
ff17
ff50
ffde
01b5
00b9
ff5f
0130
0077
ff6a
fefc
fec6
ffe7
01e7
ff72
fffa
fe1e
027d
fc1b
0162
0280
fea9
0244
fff0
013e
0214
0346
00eb
02a0
ffe6
fdd2
ff4f
0061
fc4b
ff2d
fe30
feea
0158
fe9f
fd4d
fd6c
0028
fe05
fdc6
0246
0240
023b
ff59
ffde
02d3
fc20
fc60
0064
ff40
01bf
009a
015c
fe1b
fe75
0238
02a5
0123
fc07
0207
fe03
ff30
feba
023f
002d
feac
ff3c
fd9c
00b6
00dd
0329
fe50
038c
fd03
fff6
ff3b
0240
fedd
fdea
ff1f
ff0d
ffee
fde1
01df
01ed
ffc7
ff87
ffa5
fd3a
02dd
ffca
0393
006f
0034
fe5f
fef7
fff1
0140
00b4
0109
ffd3
fe0d
007b
fe0c
ff5f
fe78
ffe1
fe8e
004f
00b8
fead
02b9
0137
ff3f
01d4
fecc
ffb1
fda1
0002
ff99
fe15
02dd
02b6
ff01
ff7a
0193
0290
ff1a
fe11
02be
00b1
00c8
fe16
0057
005b
fe0e
010b
ffc8
fca0
00f3
02a5
01e8
0016
fda4
0251
fcc9
fe1b
003a
02c2
0118
0120
fd10
0175
0121
fd87
0173
018a
ff14
0046
ff85
fe01
fce0
0022
0107
01a4
ff28
fd2d
01a2
ff70
fd2a
0021
0236
01d1
01a8
008c
0170
fee1
01fc
fd60
fe4d
0280
ff38
fefe
fe2d
ff4a
fe7e
ffc1
0574
fe84
fdfc
00f1
fc78
031f
ffda
fe1e
0146
fcef
ffa3
014a
0126
ff2a
ffdc
ff1c
01ce
fee7
0164
002d
ffe5
02f8
00d6
ff18
fec0
fbd2
0189
ff4d
0045
fba6
fea1
031d
01c4
ff66
001c
0051
ff1e
fb2b
fdf0
00d1
fe65
01c0
005c
fe8f
ff87
fd60
0212
ff7a
fc97
fb7e
ffce
02b7
0433
fffc
fc76
02c6
feff
02fb
ff53
0148
fc2d
0089
fe24
01d1
ff6c
fd3f
ff1a
015e
ff8b
ff25
00fc
017b
009e
fdcd
01fa
02de
008b
003c
ffb3
025a
ff87
0058
000b
fdf9
ffe0
02a8
0203
fedf
fe65
008f
01c1
02cf
ff7e
0235
ffa2
fe5c
0003
02ad
fda1
fe39
fe1b
ff8b
0317
0030
fd23
fcd0
fd6f
fea8
fd95
fea8
feb1
01ff
0376
026a
01ae
feaa
0008
fe45
0068
01e2
fe98
01f1
0075
fdea
0131
008a
01f3
fdea
ffc5
0074
ff53
0023
016f
0141
007f
0063
ff34
fec8
009e
01a2
012a
ff17
004d
00c6
fe23
ff6f
ff7c
ffc8
023a
03d1
fcac
0125
fcda
012a
00a6
ffee
ff77
fd8a
0245
0225
00ed
0053
fdb5
01bd
fd32
fcc8
fe0e
ff5a
feb6
00d6
0148
ff29
033b
ff19
fcf2
00f0
00f4
01d4
ff7f
023f
fe07
fee1
fe91
ff23
fcfd
02e6
ff85
fe6c
0120
fd1c
ffd0
020e
fed5
008d
ff16
fe12
fd1a
0375
035b
0025
0287
ff31
01fd
ff2b
ff42
022b
006d
02b4
fe44
01f3
fc1e
00be
fe1d
016d
ff16
fec1
ffeb
0129
fd07
0034
fdec
fe05
0166
ff1d
014e
0051
0300
fe70
013b
01d7
02ce
ffb3
fe29
feac
fd80
020b
fe43
ff6d
fdb5
fee0
ffcd
ff07
0045
01ff
037f
fed2
032f
fdf1
ff28
fc12
038e
02c4
004d
fff9
0137
ff31
0170
009d
fdba
0137
fe8d
fd3e
fcf0
039b
ff4b
fe1c
fec9
fea6
ffc6
fe55
01e3
010a
fffd
ff07
fe53
ff8e
0264
ff29
fffe
ff29
ff70
fff3
ffa1
0115
ff48
018d
fd5a
ffd1
02fd
0304
fe7d
fee2
025d
00a7
0341
0086
011c
ffd4
ffeb
ffef
00a7
fcab
fe9b
fdd7
04c3
001f
fc70
fe84
02e2
01c7
ffc7
0178
fe14
ff6e
ffa1
ff95
ff60
ffc8
fe67
00ad
fe11
0084
00a9
00e6
fddc
0383
fe73
fdc8
fe10
0063
fe8b
01eb
0228
fd0a
fed9
00f9
0176
ffcf
ffea
006b
ff58
0032
ff2a
fe37
010f
0250
ffd2
0362
fc7b
ff10
0088
ff1f
ffbb
0203
01ab
ff66
021f
01a6
01fb
0052
0203
fe56
00fe
0000
fe49
0093
fdc6
feab
0243
01a6
0157
ff8d
ffff
0223
feec
ff6b
ff0d
fdcc
00f9
ffdd
ff58
fe72
0098
ff67
fcc1
01ac
0057
00ae
fee0
fe4f
fee4
ff1e
fc75
0196
ff3b
004c
0003
ff7d
00b0
01da
00f1
fda8
ff86
fde5
feb3
fef2
fec3
0258
fed2
008a
0048
0040
fefe
00e0
ff2e
0139
01ca
fdca
00b3
015f
0096
00ba
fead
fdf6
feab
fe0f
ff7b
00d5
ffd9
ff09
fe26
012e
014a
ffb1
008e
ffd2
0121
ff3f
0093
0117
01fd
0167
fd77
007a
ffca
01dc
0200
ffe1
ff68
ffab
fe31
fe8a
01a1
0096
ffe1
0204
0182
ffd9
ffd3
0028
fec6
ffe2
0203
000e
0092
ffb7
ffcf
02c9
fe39
fd70
0160
ff35
ff7c
00c5
ffb3
ffb4
ff4f
ff1b
fe3a
0097
ffd5
feb9
fd3f
fdb5
005a
01f8
0153
fe6f
fe41
00ed
ff24
0257
0239
ff38
02b1
01a2
fd82
0278
0262
00b4
fe66
0234
018a
fe89
fe42
00d1
0194
008c
ffa0
fefb
fe73
ffa0
0037
fe19
0075
00b2
ffa2
fceb
fde8
0026
fe12
ff0b
0083
01ab
00d2
fe22
ff18
0074
0139
018d
023e
0120
fe2f
01ee
fe66
fe4c
0191
018f
0107
fea5
fe20
010e
0038
00f7
015c
fef3
ff13
0313
fd5c
fc76
fd0a
00ad
feb6
0107
ff8e
feba
feec
00e5
fe8f
ff58
fee3
ffaa
ff75
0028
0190
fe45
ff12
fe12
ffe1
ffeb
fce1
fd7b
fe60
ff8b
ff03
01eb
012e
ff49
00cf
00e1
fe0a
02f9
0043
ffaa
003d
ff99
fd8a
0231
0319
017e
ff51
fea6
ffae
fff4
fdac
02f9
009a
018f
fdfe
fe46
0239
002e
ff35
fe25
ff97
002e
0149
ffae
00f8
fd90
0164
fb65
ff08
fd68
01f7
fdec
00ce
05e1
01c4
fd84
0160
01c1
00b1
fffe
fd01
fdce
009f
00a0
016f
fc93
feda
fd23
fdfa
029d
fffa
ffad
fedc
0062
01d9
010d
012f
fe18
fcf4
008c
fffe
01ec
ffc3
0443
015e
fca6
0047
005f
026e
ff0f
0389
fe62
fe47
fe8b
023e
fdee
ffc0
0164
fd24
02c2
0128
ff3a
00d5
016d
0076
0030
0230
0186
00ab
fe6b
00cc
016b
fe93
fd69
00b5
febd
ffda
017a
028b
000b
ff2f
0023
002e
0197
006b
ffc5
002a
02cf
013f
ff3d
0105
fd5c
0038
01c3
0012
fef5
00d3
008e
fc8a
fe1b
ff5c
fe3e
00fa
ff1b
fcd5
ff78
fe87
01eb
0197
fcbb
0094
0285
feff
013f
012b
fdd7
ff95
0056
fd42
0082
0112
fe6b
fdd5
fe76
00d1
0149
fe22
feba
ff08
016b
020c
fec7
0000
ff67
fe88
fe23
ff69
025d
fe3e
00db
ff5e
022b
0179
fe3a
0125
ff34
019c
0092
ffd7
feab
ff9b
ff15
0040
000c
0218
fef4
ff45
016b
007e
0108
ffc7
00fc
00b6
fe21
0093
011c
fe43
00c4
ff78
ff39
009f
01f2
ff56
ffa4
ffe8
fef9
01bb
0192
feed
ff88
febc
0218
00bf
00a1
015c
fef2
ff3a
ff15
ffe5
ff98
ffd7
015b
03cd
fd7d
0136
01ca
fdd3
0041
007c
feb5
00b7
ff0d
00dc
014d
fd89
ff1a
ff02
feca
fea7
0046
ff10
0184
fe9d
fd12
0045
01ba
00d1
018a
fef5
026b
fdd2
0136
0146
012b
fe68
0197
ffdc
013c
016e
ffb5
ffed
017a
ff2a
ff53
002c
0056
017a
ff53
02ad
fea4
fece
fd90
0023
fe31
ff38
02a9
0290
0122
005c
029f
fee3
01c8
fdec
fe0a
00c6
ffc5
fcfe
fdcd
fed0
0034
034d
fe2d
006c
005f
0218
ff60
fd36
01f3
0100
ff58
00bd
ffdc
0236
fed8
010c
0257
fecf
fd99
fe3e
0293
0008
02b8
fed3
01f8
010e
0202
0071
01ab
ff6a
fea8
016b
00bb
ffa2
03ca
fdf4
02d4
fea7
0283
0114
018c
fee6
fee5
0163
fec1
ff14
fef8
00a1
ff25
feea
ffe2
0142
013f
010e
02f6
fd24
0263
fe17
fed7
fedb
0185
0041
feb3
00cc
008b
ffdc
0125
ff35
02ec
fff0
fe14
ffc2
0095
ffa9
036a
006a
fc0a
ff51
02e4
007f
0058
ff8a
028f
0108
02d4
fdf7
fdd3
fd42
fcd8
0094
01b3
fd6b
fec7
0182
00c4
fe5f
ff34
01f1
fe40
fdc8
fd17
fdd0
00c8
0035
ff93
ffe0
fe20
ffe4
0258
0199
fba2
048d
fd04
01f5
feae
00fe
fcfc
0334
fead
fe76
02c9
fbfe
ff16
0158
fe2a
0324
0127
fdfe
00bb
fe36
ff94
fda3
0347
fd1e
fd50
fdfc
032d
fe06
ffed
ffdf
ff91
03b2
fe90
026c
01f1
feac
ff5e
016c
fe1c
fe1a
fe7f
ffb3
fdc1
ff1a
ffbf
fda0
ffe5
022c
02be
0078
0146
fef3
fd03
0054
ff1b
ff95
0161
00fc
ff96
fdb7
ff39
0211
01e7
ff7c
00d5
fe2d
ff28
fed1
0232
fd36
01a5
fdc9
0023
fea7
0189
0159
02af
fe2f
fe0b
00fe
fe2e
ffcc
0050
fce8
ff1a
00d5
00cb
0254
00d6
ffa1
fefd
00a7
01c3
fdaf
ff50
0050
02aa
020e
ff9b
fcc8
00f3
0034
fead
ff09
ffff
00fc
0268
0278
fe50
0039
0034
00c5
fcd4
006d
0095
0169
02f9
fd04
003c
ffa8
024c
ffa7
0306
01d8
feff
00ed
fd66
fe36
0299
ff7d
0098
0102
00c8
0232
01b4
0273
0052
01b7
ff6d
ffea
0058
01cc
0240
0290
fff1
01df
00b1
0127
0150
0120
fef6
00b6
ff4b
0099
ffbf
01be
0193
00e9
0118
00ce
010e
014c
ff8a
fe12
fe3c
00fb
ff85
ff8d
016d
0129
feca
0095
ffcf
00ea
fe47
ff26
0231
01ed
0152
021a
ff94
0152
0082
fe65
02f3
0106
fe52
0061
00b1
016c
fee0
fee7
ffa1
007b
0248
fee0
00a6
ffb8
0070
fde8
ff34
00ed
ff98
0164
001f
005a
ffcc
fda8
0099
ffd0
fecf
004c
feab
000d
024e
020d
fee0
0180
00ac
0181
0006
ffa0
ffa3
0037
ff9a
0108
00fe
0044
0062
ff5b
00b9
fe36
0020
00ad
0219
001a
0000
ff14
fd2b
fe7e
001d
0038
fdeb
01a4
ffbe
ffd7
fea9
00fc
01c5
00c2
fd3d
fe24
00c0
fe79
0187
ff4e
02de
febb
ff65
013c
01ee
017c
0083
ff00
005b
0051
fe96
0044
00ad
0011
ff81
fe4f
003a
ff92
fee2
0176
0118
ff5f
00f7
ff88
015f
0130
005e
021b
02d3
fdac
febf
fe11
ffb8
ff2a
fe3a
fe26
fd51
ff79
febf
ffb4
ffa6
fed3
0275
ff17
fdc2
0064
ff6f
ff46
ffc9
ffd3
fff1
00f7
0153
fe06
005d
00b7
febd
fe95
ffe2
010f
00ba
fe56
015b
013a
fbe0
fee5
0117
0001
00ef
0106
ff0c
ffcb
fcc4
001b
02a2
fb93
004b
00e8
feab
feff
0087
fe00
ff7e
fda8
017a
fe44
0109
00a2
0111
006e
01b9
0055
fc79
0245
ff9c
034e
0099
0102
fecf
ffc9
008e
00bb
fec3
fe38
000d
fde2
01c2
0058
016f
0050
fe66
00d3
01a3
fe21
fdad
fe70
fe6a
ff86
01ee
0129
ffaf
fe6a
fce7
fdc3
0238
0285
fd2f
ffd5
fd8f
0046
00d4
024e
fecc
0286
fe53
00e5
00d5
0133
0073
01c0
fde2
020e
024c
01e9
fe57
fe00
ffb2
02be
feaa
00a7
02d9
009f
005e
ff5d
00a0
018c
ff3c
016b
ffbf
fec7
fea9
ff50
0114
030c
fde5
01a3
fe1e
ff73
00c5
0171
00a9
0063
01b9
ff30
fed5
fe71
ff1b
0098
0110
014c
0018
013c
027f
ff24
0242
ff4e
fe12
ffc1
ff56
012e
fe9e
fe05
fd7f
febf
fe75
fff7
0241
01b4
ff65
fcbc
fff4
fec2
0097
01b0
fe81
fef8
001d
ffc1
0259
013a
fedf
0193
00c4
0149
0272
004f
0170
fd98
fe2a
01d1
fdd3
ff22
01ff
00e8
ff01
ffe1
fe6b
012a
00e7
fff5
fff0
004d
fdc6
00ad
feca
ff94
00c2
fefb
fe85
00bd
fd95
0005
ffe0
ffaa
0033
00e6
fedb
0158
0375
01d1
ff40
0213
ff6f
0041
fff5
0194
0000
fe59
01aa
017c
ff5b
000d
0043
ffcb
fe4b
00c2
00a6
ff7f
ff35
fee0
0070
011e
0071
fef9
ffc9
fd8c
0136
ff1c
fefd
fff0
004f
00c4
ffe6
019b
0152
022e
0082
0295
0030
ff5a
02af
fc91
024d
01ba
003f
006f
ffdf
ff77
01af
ff14
fe21
ffff
0259
00e7
0084
fedf
0179
006b
ff20
ff45
ff81
012e
fd2a
00be
0013
fef8
023f
fd91
002c
fda0
0000
0139
fcb0
fe19
000c
fef5
01da
00e2
01e9
fcf3
02d7
fdcd
fe2d
00ba
00c4
007e
fe1f
ffe1
ffaf
0187
00a2
0004
00d0
ffbc
0031
fce8
0147
ffe8
fc30
0117
ff43
fe1f
ff3d
fdcc
ff08
00cd
02bf
ffc1
0202
0341
0255
00fc
fd81
fd32
01d7
0059
fd0c
fd48
0115
0081
0309
0202
0261
fe45
00ec
fe8b
fe4a
0059
0038
02bb
021c
fd62
ff19
fe53
fdd9
025d
fd49
0098
fffa
fdd3
00fb
0066
01e8
fe16
0113
fc88
fd3d
00fe
fdba
0289
ffa6
ffbf
01c8
fc60
ff5e
fdd8
00a8
fca1
fe90
ff45
0220
fd79
011d
0369
012c
03e1
01bb
ff97
fdf5
fc37
ff47
fdcc
0305
fdd1
004f
ffe7
ff62
0094
0364
ff75
01d1
ff7c
0271
fd94
00d5
fef1
fbec
fff8
fcbe
ff24
0148
028d
01fd
0217
ffb3
0107
00c3
fdec
fe39
ff91
022b
01c9
ff8c
ff74
018d
ffd3
0093
00f8
fe75
fe7f
fe4a
ff03
00a1
00ff
0014
0080
ff3c
ff40
0067
fead
026d
fe82
0262
00d1
ff59
0010
fe04
fd44
0041
fe05
ff9d
ff9a
01c3
fde4
fe51
0210
fe7b
00f1
ff2e
fe96
00ef
0024
fe34
fdd7
01dd
0151
0002
ff3a
ff20
ffee
01be
012e
02d3
ffed
001c
fe57
fffb
ffec
fdfc
0282
fe80
febf
fd04
fe04
ffca
ff6a
032f
029a
01b9
ffab
fec1
01cd
ff7c
0198
0119
01fb
fefa
fe77
015c
ff87
fd1e
00ef
0140
02e0
0011
00fc
0164
00a3
0199
0175
0408
017d
fea0
0179
0158
0188
015a
0202
ff80
00cb
021f
0024
ff4c
015d
fe88
02b8
0082
015a
ff73
ffc8
0057
ff48
009f
04fb
033e
fd52
0081
0095
01bd
00f5
fd3d
0103
00fd
0083
fe0b
fedf
02bc
fffe
0239
000c
02b4
00ff
fe87
fdbf
fe25
00d5
fdac
01af
0104
fe85
0172
fda5
0206
017c
0075
0203
ffe6
ff7d
fe02
ffba
00d8
0050
ff45
ff35
027f
0051
fd92
ff78
037b
ff2a
fddf
03c5
000c
ff80
fec2
fe90
fcdc
026c
fee6
0134
fea4
00fe
012a
fecd
00a1
0171
fd74
03bd
0220
0147
018e
fff5
014d
ffa6
fe29
0218
ff56
ffe2
fdac
033e
fddc
fff5
fde2
0158
fdfb
fd9d
01c1
0091
ff0a
fef1
0074
ff4f
ff66
00f2
01a0
02c3
fefc
0017
ff6f
ff21
00cd
fdb5
0001
004a
019a
0123
feac
ff93
fd58
0156
ffd4
0085
fec9
004e
fdc0
ff36
0289
0143
fe58
ff73
ffc9
fe26
fe35
ff73
001c
fed3
0137
029a
ffe9
ff2a
010e
fcf4
fd61
01bc
fe15
002c
feda
ff89
fef3
019e
feb5
00fa
01c5
013c
028d
0012
0188
fe20
ff56
0172
fe2b
0008
fcf6
ff99
ff14
02bc
0106
ffa2
ffa5
0000
fedb
01ac
007b
01f9
00fc
0173
00a9
ff3f
fffe
02e5
0041
025e
024b
ff9d
0202
ffe7
02bb
01ef
ff5c
024a
ffba
fe27
0015
fed9
fe78
0118
00c8
03bb
fe21
feda
017d
01b8
01bb
015b
0071
03cb
00e6
023b
ffe9
03d6
fff2
004d
014e
fe64
fef1
ff16
ff3a
0103
021f
0111
ff33
0126
036d
fc4c
ff95
fde5
fe2e
fecf
fc58
00ff
0027
011f
ffd9
ff7c
00a2
033e
00ab
fec5
034f
002d
ff68
fe84
fff9
ff3b
fe76
ffc3
0045
0062
fe22
fe8b
00c3
0086
fea4
014d
002c
004a
0366
022d
003c
ff8f
ffaa
fff3
fd28
01f4
ffff
0135
fe8f
010e
009f
0214
fd14
004c
fd8b
fd12
feb5
ffed
02e3
0186
ffc1
fd9f
ff8e
026e
01f9
fe1c
01c5
feb5
ff57
fe35
ff84
0045
fee7
032b
fe0e
0000
01c8
0040
011c
03e7
001e
012e
0027
fdbe
0262
febb
ff78
01ce
034c
033d
ffc4
feda
ffd8
ff9e
030a
ff6a
0024
ffae
01d0
fff0
01dc
fd99
ff5f
fe93
0215
01fc
ff38
00a2
fcf7
0235
0264
0127
010c
03a2
fce3
fe82
fe1a
012a
ffea
00b4
fcda
ff5d
0153
00b2
ff3b
0064
01e8
fe82
0213
01b0
fc17
fec7
fe95
012f
018a
fea6
0162
fd70
009f
0086
ff4e
ffe5
fe75
fea3
00f6
020d
ff54
fc5b
fcb9
007f
ff0b
fe93
0025
ffaa
fe09
ff75
0372
0044
fe17
fffd
043f
fca8
0058
fefd
0197
01e6
03ad
fd0d
fe51
fea2
ff67
ffb8
01a6
fda2
fe21
00aa
fe9a
fc41
fd91
02f0
0193
fc11
fd9b
0095
01e7
0018
fecc
019e
fefe
ff5a
fe12
01dc
fea5
01c8
0155
0022
fffd
fe07
012d
0215
fea6
ff8e
ff7d
ffde
fdb3
0278
01d5
0176
fe35
0241
febf
fe79
0152
014c
00c2
008e
015c
00bd
fe95
ffee
01da
012b
026f
fe62
fe0d
feea
fe9a
fe71
0294
0191
00ea
feee
003a
0190
006f
fe2f
fdc7
0054
001c
0110
ff54
0037
00cf
fd5e
fe89
fed4
0187
0091
0029
fd49
0214
0003
027a
ff0f
fe94
01af
0011
febc
00f5
0130
ff6e
ff83
003f
ff26
ff84
fe7f
0014
02e0
ffd6
0127
ff42
0098
ff44
ff08
fea8
009a
010c
023e
0096
02a9
ffb9
0249
0060
0119
0182
ffcc
fec1
fdf8
fe71
fef1
0052
02c9
ff15
012c
0148
005b
ff60
008d
fdda
0048
feac
0186
00e1
febb
fe26
ffad
00cb
03ba
0029
0137
0245
ff8c
0280
0008
00aa
ff27
fe1d
fea4
fe8b
00aa
0132
ffd1
fe7b
ff87
ffee
fd69
ffa0
0192
0049
fe57
ffe4
00ec
0076
fdc3
ff9c
01c5
00d7
0110
ffe1
01b0
fe9f
016b
fe01
01f2
01aa
00a0
006e
fe0e
0049
ffc3
ff37
002e
fff3
008b
fef2
fe91
ffda
008a
02e8
01ba
0028
febb
ff9e
0151
feae
00d0
00ff
00db
003c
00ed
ff58
00bf
fe2d
feab
0285
00ad
0324
fe36
fe93
0146
fe50
0031
014f
fef4
fe9a
feac
ff08
00df
026e
ff1c
00fb
00f6
fdaa
ff78
01a7
fd00
ffbe
fd92
fdc5
0166
fedd
0127
fe72
fd2a
00ac
ffc5
ff22
00b4
fed5
fe87
fefc
0109
0056
0201
005d
01c4
0207
0321
029d
fe52
ff9d
fdb2
00ff
fdf4
001e
ff80
fed8
01da
011b
016d
016c
fdb9
02fd
0046
ff57
fe1f
fd1f
01cd
01fe
ffaf
fde5
0173
ffa0
ff77
ff6e
fef7
ff64
ff29
fd5d
0059
febd
0135
00b7
0081
000c
fe16
0062
fd56
feb1
ff41
0216
0065
01e6
fce8
031a
ffcf
fe50
fe76
fecf
fe6a
ffa1
fe28
ff35
fe51
0004
00da
0060
0101
fbf6
013b
02df
fe51
fe6b
00d5
00f9
0399
0043
003f
fdb6
fec8
ff65
00ad
00ee
ff3c
fb4a
0240
fedd
003a
fe0e
00aa
00d7
ff8a
0052
fed8
ffc3
fe00
00c7
fe8a
fe52
fd33
0079
0113
ff04
fe0e
00b3
ff96
fe4e
0021
fdd5
0064
ff36
00db
fe79
005b
019b
feca
0214
fe4f
041f
00f6
ff4d
ffee
fe98
fc80
0182
fdbd
0098
0099
0102
fdd2
ffc1
00cc
fdab
feff
ff2d
004c
0048
02ca
0119
0096
010a
fc57
fec3
00c5
012e
0260
fe6f
ff61
004a
0323
000d
01df
ff1e
00ad
fe26
008e
feaa
01d2
012d
fd3b
fc69
fe1d
0063
fe6f
ff96
ff3a
005e
0156
fd7d
00cc
00a3
fdbd
017c
00b5
feab
0005
00d2
fed5
fe65
febb
005e
01f0
fef3
0143
fffa
fe03
fd97
00cf
006d
fddc
ff57
023f
00e4
ff2c
01cc
0202
01b3
037b
0303
015d
0130
fd81
ff99
009e
ff2a
00e5
fe49
fdb5
000d
0196
0164
01c0
02e8
0213
0050
ff8e
0000
002a
fd53
feef
0005
feb9
00db
ff96
ffe9
ff20
01ca
ffd3
fe28
fd2a
ffb7
fe38
feee
020b
fd9f
005d
01b2
ff58
00f2
ffb4
ffaf
fd76
fe15
fda9
fed7
ff2e
feb4
0037
fde9
fe05
fe2a
01bd
009c
fdd3
fea5
feb4
fdbf
014a
fea2
fea0
fdd1
010c
fea0
fda2
01a4
0094
ffc1
0123
ff6c
ff5c
fe13
013c
0025
ffee
0110
fe1e
ff12
ff56
ffe5
fff6
fcd9
fd88
fe5c
ff1a
fe65
0053
0277
ff1b
00fc
01e4
0040
0165
fe91
febb
ff4f
01c0
0265
00b4
0160
001f
ff8d
001a
fe40
0220
ff7f
0070
fdc0
0260
009f
01ef
004a
fd7d
ffcb
029f
0100
fef5
fdc0
febe
0215
01e7
ffd0
feb1
fcfa
ff50
00ee
fec8
feb9
0093
021d
009e
feaf
fdc2
ff75
ffd2
ff43
017a
01d8
fff2
01e4
ffbf
ff34
fff2
ff81
00c9
006d
000f
0044
0257
0209
ff4a
01c3
feca
fe21
00da
0267
00ff
00cc
fff4
ff85
ff17
ff87
0009
ff2f
009c
011f
0034
0032
00c4
0109
02cf
00a6
ff1b
01da
ff04
0360
fd35
0117
0014
fe9c
0114
fd1b
ffb0
fefb
01da
ffd3
0072
0020
fef8
fe88
fe2d
0176
fed8
0059
00fb
fe08
ff17
00b6
020a
fece
ffb0
0183
023c
00d7
fe4c
ff28
ff4b
0051
fde9
ff8f
0078
00a7
ff60
0160
005d
00c9
fe72
fd22
00dd
fe7b
fd71
02fd
016a
000b
0084
0164
ff27
00fe
005b
0124
fd8a
00ba
0007
fe7a
0022
ffb4
ff69
ff1f
fe8f
ff38
000c
007a
feef
0100
003c
ff87
fe8b
003d
00f3
0131
fee8
0124
021b
003a
0121
00b8
00b2
00e8
fd91
ff47
0125
ff5f
ff08
fee8
ff58
ff51
007a
fed5
febb
00aa
ffd2
fe36
0060
ff4c
0114
fd5d
0088
fe18
fea7
0032
0063
01a1
ff88
0191
fe9c
ff4f
00ab
ffef
ffbf
00dc
ff30
fde8
ff39
02ab
fdf8
0265
fdaa
fe0d
02e3
006e
00f1
fe6f
ff56
0074
ff79
0077
015b
fe1f
010f
0036
febf
0013
ffbf
ff73
fea8
00d3
00a5
01ba
fd34
fe5f
fe8f
fd60
01e4
0264
0283
01c9
02f2
ffa7
ff7f
0084
fd9d
fdd2
02cb
fed4
fdfb
ffd3
0022
0028
020a
0178
ff9a
ffbf
fde6
010a
0064
019c
fe3f
0191
ff30
fea6
029d
ff45
ff11
fe1c
01b6
fec6
ff64
ff25
0033
fed9
ff8c
00ef
ff7e
00c3
00a3
00f0
0202
022d
fc0d
fe87
ff47
ff94
ff45
0088
0172
fefb
020a
0283
008a
fcbc
00f2
007c
fff2
fdd1
000e
fecd
030f
ffe8
0072
fede
ff9a
fe39
01ef
0061
fc40
00bf
01f4
ff31
ff98
0180
00cd
007b
0036
fedc
ff90
009f
fe7d
fe8b
ff6e
fd62
004d
fed0
ff81
0071
0207
0011
fe30
fd87
00d5
fe11
017d
002c
fefa
0190
fdbf
024e
00bf
002e
ffdb
0136
fed7
0160
018d
024d
0021
ff67
0249
0029
003b
fde9
fca7
fecb
fe2c
020d
007a
fff5
0196
ff49
0179
fdda
ff37
001e
fe96
0323
00f2
007b
0090
00ed
010f
02d4
fcd7
fddc
00e9
011d
feee
020d
ff20
feeb
fe16
015c
fff7
0040
ffa0
00a9
02ba
00b8
0122
0159
0087
fdf0
0057
fefa
02c3
fdc9
0076
febd
009a
02ca
02a9
ff1a
fe17
0090
01d1
02fd
02a0
ff9b
fe06
025f
ff10
ff8e
ff6d
fff1
0005
ffb8
0087
01c0
fe7f
fc08
017b
ff25
ff08
fe1b
ff95
0253
fea6
0046
fe73
00a3
0106
009c
fdde
fff3
fccb
01bd
fc58
001a
fe6c
ffb5
0223
fe01
ffb6
fd5d
fee5
ff26
fe24
ff70
0220
0120
feca
00fc
01c0
0225
fe35
0167
00e9
0231
01c1
ff6a
024d
fd1d
ffc9
feab
01ef
00fe
007b
fe1c
0083
0187
0176
0057
fdbc
0063
fe9f
0207
0236
fe11
0148
00d9
0211
fe51
ff63
fe73
fe1d
fea4
fe4b
009b
02b6
007b
0049
ff41
fe73
0023
00e8
0219
ffae
01a6
ff3b
ff95
feac
fe86
ffc4
ff5e
ff2f
0032
ffbe
0017
ffab
feb4
00b8
0080
0054
fcda
fe36
0209
028d
02e0
0234
fc0a
ff22
fed5
ffe1
0293
0100
0334
fe7d
fdf6
fdcf
ffaa
fff6
ff25
fe30
01ce
fe67
025c
0069
ff7f
ff66
fdf3
fef6
02a3
0182
01ae
fc94
000f
0098
026e
034b
007d
ffce
015a
0250
fe37
ff0c
00de
ff8b
0018
fdc9
fdff
0293
fed1
ff77
011c
0120
fdf1
fe8b
ff37
fdf4
0052
02bd
010a
ffeb
001c
008e
ff42
ff54
fdff
017a
00e7
fde8
fe7b
0234
0227
fea3
fd1c
00c5
0117
0102
01a4
ffef
0224
0022
0216
fe93
fede
ff7f
0041
00d6
fe7e
01ad
01c3
0032
0257
fe62
ffd6
0131
fed1
00e8
ffdc
0027
00aa
025d
fe6d
00ab
01b2
022d
0127
0089
ff2e
010b
fe96
00f1
fff6
fe04
ff77
fe8f
ff93
fd72
016a
ffea
0265
00d8
027d
00b5
014f
fdab
0246
001f
fce1
ff32
0210
01b4
fff6
febd
0034
fe9d
0057
ffae
ff9c
fe87
fedf
feb3
ff38
0003
018b
ff4a
0105
fef0
ff2c
ffa4
fe27
fdff
fed5
0059
0043
01cc
fd21
0077
0197
ffd9
0067
fe5b
006a
ff1e
ffd2
00b1
012c
fff2
0037
fee3
fea6
fd98
fef1
ff6f
0221
fe02
fe59
fdaf
fe21
ff3d
ff29
00bd
feb0
fd34
fdcf
0060
0164
0250
0278
0061
0082
0192
0008
018d
ffc0
ffe4
00bb
fe5a
fffc
0053
ff5a
fe55
ff2f
026b
021e
012b
fe24
fd7f
fdf7
0016
ffda
02c3
013b
0047
0042
014c
fe9a
0204
0154
02c6
0155
0137
01f4
ff0d
00a4
ffaf
0231
ffec
fe2e
fd08
0048
0004
004a
002b
002c
008d
0009
fee9
fee9
01be
02c7
01ed
00d3
000d
fe97
0071
0180
00ea
0200
0058
0060
0137
02a1
ff0c
ff8f
0117
fe7a
01bb
0089
01a0
0181
01f6
fe77
022b
fead
ff1a
01b5
01a0
0142
fffa
fe30
0033
fd32
00c5
fec3
fee1
0010
008e
003a
02ed
fe43
018e
00b6
014c
fea3
fe95
fdbf
0222
0055
fe79
00c5
fdc2
ffac
01ac
ff2d
01f3
0107
fecc
ff4a
fec6
02b1
ffae
005f
ff72
02c1
030d
fd4e
030b
fca5
03e0
fed2
0222
ffe4
0072
0010
fda0
010a
0088
ff3f
ff03
fff0
fffb
005c
005d
ffd0
fdef
0008
fedc
0278
fe21
ff1b
0082
fda0
01b0
fdbc
0024
01a6
0093
00fc
0158
fef9
023d
00f0
01c1
00f9
0148
0214
ff4d
ff3e
0100
fd4c
ff0d
0134
01bf
fe59
0049
ffdd
0079
0020
0020
ff95
fe22
010d
012c
ffdc
0024
00a7
ff19
0075
fdd1
0057
019d
020c
fe32
febc
fe1e
006d
0281
fffe
004d
fec9
ff3c
fe75
01f5
fe56
ffd5
01cd
0037
ffd4
fe6b
021b
00c4
02e0
fdbf
fffb
fea3
ff37
fe50
ff6c
fee0
0252
00da
00b4
00bc
0064
fd50
01b9
0155
ff5f
0002
fe4f
0170
00cf
fff1
ff9a
030e
ff5c
ff2f
0091
01a6
fedb
0022
ff51
fdba
018d
ff55
0168
00a2
ff71
0096
ff9d
00be
01e1
025d
010f
ff6d
0099
01ba
00f8
fe04
008c
0208
0261
00d7
0109
0206
ffd9
fe51
fcee
fef4
0200
ffdc
0016
ff36
00b9
003c
02e3
015b
ff91
01a0
fd13
fef2
ff82
0132
fefb
00c7
ff86
029e
003c
ff39
0233
ff1d
016a
fff7
ff40
ff6b
0140
fecf
fd8a
fd7d
fdf9
fff8
00f9
00d9
0181
fe0e
00ef
fe5a
01c4
0071
fd56
fe15
fcc1
fd36
fe95
febc
011f
0019
fe42
0220
0126
fef3
00ad
007a
fe9b
0239
ff40
ff92
022f
fe0b
ffd3
00fd
010d
ffd5
01da
ff3e
fd9b
0073
0054
ff4b
0205
fe4c
00bd
fe9b
01d9
fe81
012e
0121
003f
0325
fd4a
ff6f
fe32
00fc
fdcf
00ee
fb9e
00f8
035d
000f
01ef
03fe
fd50
02eb
feb0
ffd8
00bb
01a8
01b2
fbe1
01d9
0139
fe1a
ff11
0288
fe19
ff09
fe55
002a
0123
00b0
0093
02b7
ffd7
fffe
0034
00f2
fbcd
feae
001d
ffcc
fdd9
0337
fdc6
0395
ff76
ff32
0022
024b
ff52
0178
ff86
feb6
003f
ff1d
0368
fe84
fd85
fdba
ff88
021b
000c
03e1
fe63
ffdc
fdcd
fd12
01a6
02b1
fde5
fd7b
fce1
ffa1
0197
0122
fd7a
fd22
003a
0004
0073
0015
018d
fcf0
fd7a
010a
fe90
ffdd
feed
0001
0202
00bf
0062
00d8
0048
0291
ff24
fe96
fc3b
fe02
ff7e
ffb3
021c
fe0e
01af
0237
007e
fe60
fe82
0013
ff3e
ffaf
fe63
004c
ff6c
ffcc
ff04
0202
fe86
ff88
00a1
00d2
0070
fd23
fdcf
fe55
fee1
0161
01c6
ff83
fe42
ff34
febe
fec7
ff77
ff8d
fee8
fea0
00e8
0036
013d
017c
0000
0273
ffb1
fe08
fdb2
0123
fe27
ffa5
0247
ff92
fed3
0040
fe36
0208
ff0c
fdb5
fead
0127
fde4
0078
02f5
0220
0117
01e3
ffcb
ff63
022f
010d
fe1c
fd4c
025b
ffab
017e
004d
fdff
02a6
0205
0186
00e3
fe10
ff68
fffa
00ac
ff63
004c
fea0
fcba
00e8
0195
009a
fe35
ff09
0113
00f6
fd35
fbe7
ff26
006c
ff3e
ff0e
fe31
fe24
fe9e
fcf2
fed9
029d
01af
fdb9
fe94
feb4
0180
feba
0150
0091
ff27
ff76
ff74
02a4
ffbc
002e
00b7
ff1d
ff1a
0036
fe4c
ffdb
03ce
0248
00bf
ff74
ff48
feaa
fd01
fced
0086
0091
0165
004f
ff55
0397
0253
0021
ffa9
fdb9
006f
ff3f
0154
0215
fe95
00a5
01cd
fe6d
ff55
0329
ffc7
fffc
ffd1
fe57
010a
fd9b
fc5d
00cf
fe24
ffd2
fe57
0123
01c6
0109
0089
00ff
fe13
fda5
00dc
fef8
fe63
ffba
0032
fdb9
fe89
008b
ff10
00f7
009a
00a8
fe2c
fed1
fd5a
018a
fdb0
0028
fe92
fea2
fef1
fec6
fe67
fe67
fde2
0277
0111
ffcb
01fb
0341
031e
004f
ffd3
0146
0055
fc8d
fe6b
ffd3
ff71
fec9
fe6a
fd71
0000
0018
ffc9
01c5
fe4c
01c1
ff4d
fe4f
ff5f
02e4
01bc
0145
feb3
fd2e
01b6
0014
ffe0
01d3
0173
0257
00d2
0152
01b7
fb58
01d8
fe78
00e5
ff7f
01cc
014d
030d
025c
0000
fefc
ff3e
016c
00c7
01ec
feca
ffd3
ff46
01a0
00cc
0244
00b9
fd11
0139
fe64
ffe5
01da
fe4d
fdc1
0056
fdd3
fede
02fa
010b
00c9
fda6
0114
00f2
febd
fec4
0070
fe40
0149
fec3
fef5
fd3c
0255
ff5e
007e
005c
016d
00ff
fe73
ff15
01a3
0039
ffda
fda4
ffb5
fda9
00f8
0270
fed9
ff47
01f8
fee6
fd85
ffb8
ff40
fdc6
000e
0029
019f
fe3d
00d2
fe69
fedf
fe8b
ff4c
fc9e
006f
ff3c
0192
fe57
fd9a
fdaa
feb0
feda
fd99
009c
fe5a
ff62
0166
011d
0041
ffe0
00e0
fdf0
ff6f
028b
0054
ff69
00a5
024f
fe05
0123
fff8
ff26
ffaf
ff60
0167
ff2d
ff6b
00ed
0179
01fa
0289
fe97
008c
ff49
ffc7
00fd
03b8
01f8
01d0
00f6
ffc1
ff64
ffcc
01b4
010b
00a9
01b8
010f
0159
0160
01a0
00ac
fccc
fd54
0041
0137
017d
0079
ffa8
ffee
01f5
ff2a
ffd4
ff45
fec2
ff72
0200
ff27
fef2
0388
027b
ffe3
00a6
fc36
00ea
013c
008c
fe73
00cb
ffda
0181
00b5
fe7f
003e
fd3f
007b
ffe8
0049
00a5
0086
feb8
00df
fe41
00d6
fe40
fe91
ff73
01e3
ff8f
fd77
02e6
fdf2
fe9c
fdc9
0179
ff32
fd91
fe3f
ff96
fe50
febe
ff7b
0288
00ac
011e
fe73
fee4
fe76
fef8
0121
feed
02cb
fe0a
fe42
0128
01d2
00af
01e2
fe6f
00ec
fe67
0136
fe38
0208
01a1
01d5
fdeb
fd45
ff1c
0229
ff43
ffea
fd86
00fa
fe5a
ffba
0101
0288
fe0e
fe82
ff5b
fff2
fe39
0178
0084
00a0
0241
00b5
02f2
fd54
ff8a
fea4
0112
0123
012e
0026
fdb5
00e2
feeb
0067
ff9e
00ff
00a4
ffa1
fecd
ff36
ff9f
002a
ff14
00dd
005d
ffb5
001d
00ad
013c
0248
01ad
ffdd
010a
0137
02b8
ff7f
0131
02d2
ff2c
ff63
0062
0222
00d3
00f1
fce4
ffd9
00b1
006a
ff24
fe70
0112
016c
fd72
0128
009f
00d7
0290
ff1e
ff9e
ff35
0143
0133
00e3
fd9f
00ad
fe27
fe3c
0067
0255
011f
0048
0119
ff4f
feac
0117
fd23
0219
fe6c
0222
ff8a
ffea
0246
fede
004b
ffcc
ff33
ff7d
fe5b
035f
fee1
ffb1
fea8
00fa
fea7
ffff
00d4
ff95
fd93
00b4
007f
ff52
fe67
0201
016b
0155
fdfe
fe2b
004f
ffa2
0304
012e
0041
0106
0036
00de
026a
0267
ff29
fdf4
0170
fd99
02d4
ff85
0211
00d6
0098
ff80
013e
013d
01ae
0272
0067
fe85
fdf4
0046
fbec
fe78
00a3
0288
0104
febd
0012
fd44
ff24
fff0
fe08
0249
0088
fe3f
02d3
01e1
02a6
fc97
fc8a
ffb8
0040
ff6d
01e2
00f2
000d
fe45
02c8
ff9e
0261
fcbd
ff71
fe1b
fe73
0109
01b3
020a
ff99
0027
fe34
00f2
ff4e
fe59
fea3
02e0
fdfc
0288
0063
ff9c
fc8a
ff66
ff49
fe91
ffc5
fe97
0230
024c
fd19
013e
00b2
feb2
033a
fdd0
022d
01ee
0269
ff02
ff85
01f3
003a
fe9d
fe6b
00b4
fdaf
01b8
fea5
0139
fef9
fd49
00f6
0199
0255
ff88
010b
fda9
0267
ff9f
ff29
fd38
036f
ffca
0098
fef9
00d5
0204
01aa
01c9
fe23
011e
0251
fd9d
ff66
00fb
0076
ffa3
fd61
fe10
003f
feaf
fff6
fe4d
fe2a
00fa
fe35
013c
00f9
01b6
0188
01b5
00e4
006d
ff77
ffb0
fd53
feb4
021c
00b4
feb1
fdaa
010a
fdcb
fecf
000a
ffa4
fe20
01d4
0153
ff82
ffa2
ff43
0062
0130
fd75
fd65
013a
0279
fe39
005f
0053
fddd
fe68
fdfb
ff62
0232
0133
ff40
ff96
0038
018a
fe4c
fd36
ffb6
ff40
0107
fdae
0152
ffa3
fe93
ff1f
003f
01b7
0000
006c
ff0f
0157
ff91
020a
fe0c
00c9
fe51
fb7b
0218
fce0
ffd7
020c
00bc
0196
0112
fff8
ff31
ff53
ffe5
0132
0055
fd33
00a1
0005
0396
ff8d
ff40
0327
0012
013c
fe1c
ff8f
00b2
00f1
01cc
fce5
fde9
0207
febd
ff20
016b
01a9
00b7
feb7
ff7a
00b3
fe4e
0080
026f
01a4
0298
0072
fe89
feff
feb2
fee5
fd17
fda2
003b
ff7a
ffd1
0090
0288
03dc
00a2
fea4
fd86
01a4
ff15
fff7
01f1
fcf1
002d
ffab
01fd
0027
fd2d
fe12
009e
0086
015e
fe38
febe
0242
00b4
fc75
0014
017d
04c3
012f
016f
fe04
01b8
00f1
fd58
fe0e
0144
ff9e
fdbf
0131
fe4b
ffd1
0164
ff7b
00a7
00a2
fe68
fcd8
00d0
fef3
0176
0037
ff75
017e
fda3
fd60
ffc2
008c
018e
fcfa
0022
fee8
ff66
0194
fe35
000b
011b
fd74
ffcc
fcdc
fd4a
0184
01d0
ffb5
fd50
026f
fd53
029c
ff50
ffef
018b
ff7a
fd15
03d4
feec
feb9
fe90
fdbd
fd5a
0334
0092
ff3f
fdd8
fd63
007d
ff64
ffa8
fc9f
02a7
0061
ff07
00af
0365
0117
fff4
ff9b
fff9
ffa0
0053
fd75
0108
0030
ffd0
fecd
00ad
ff1c
fe4a
ffa3
01bb
fffd
fe60
fc90
fede
ff96
ffd7
0119
0159
fe06
fd22
01f0
0001
fdfa
ffb9
fd47
003a
0121
ffb9
ffed
0223
026a
0106
0238
ff41
fe7c
ff85
01a3
006b
00a2
fe7e
0177
ff15
0154
ff44
ff46
00cd
fd6e
ff8e
00de
0083
ff81
0136
fd7c
0007
01a2
fefe
fffb
0181
fde2
fe23
0293
fef5
004a
0016
ff10
fc6d
ffb8
ff16
0066
00c1
ff9d
fe15
ff49
fefe
fed5
ff06
ff4f
ff37
ff8c
ffe9
fe95
0294
fe0c
00ff
003b
0138
0112
fcfa
00a1
ffe0
01ac
0118
0094
ff88
fd68
ff30
0030
0124
fd1a
fe6c
005d
0149
ffbb
ff24
0275
ff31
01e6
018a
fdf5
ff56
fe1f
01b2
021a
00a6
ff37
0055
01bb
ffe6
fe01
01ff
02cd
0198
fdc7
fecf
01be
fed6
ff02
0077
00ab
ff0b
ff6d
0036
00b9
0058
ffef
0090
01e9
007e
016e
ff06
0090
0225
ff6e
012b
fe6f
ffa0
008e
00a7
01f7
ffe5
fe4d
00b3
0154
00b0
01da
01d0
00d7
0182
ff82
02c5
0260
00dd
ffd1
0076
fee9
02f4
fd32
00a6
ff4f
01ab
fed8
01d6
01e7
fe78
0158
0164
fe73
ff75
0031
01f0
00a7
007d
0008
ffc3
00ae
018f
fe3b
0048
fd23
ff4c
0034
ff3b
0093
0150
0000
00e8
fed7
011e
0211
01d1
fe7f
fe2e
ff5e
ff56
0069
fed2
fddf
01be
002f
00db
028b
01d6
fe57
fd92
ff47
fe4c
fdfa
fd39
fea6
ffdc
01ae
ff8d
0286
ff1c
feaa
fe65
ff05
fe39
fefb
0229
ffd7
ff1c
004a
019d
01e2
ff68
febf
0056
fe33
ffbe
ff43
fe26
fcea
0096
0171
fd9f
009b
012a
fec9
fe15
ff28
fd85
fe88
ffdb
0322
ff09
000a
0070
fec8
006a
030d
fe2b
feb2
fdf5
027a
fed2
0062
ffff
01a5
018c
fcd4
0205
0206
01a0
ffd1
fea3
003e
fedb
00d3
0216
002c
fe8e
fff9
0214
ff73
fd8a
009c
0176
ffe4
018c
0068
feb1
0016
0095
0212
ff6a
fcd1
013d
02da
fd7c
ffbf
ff02
0171
01fc
00b5
ffd8
fdb3
fee6
fee7
fd0a
002a
feb4
0270
01c2
ffca
0350
fefc
fe38
ffb1
0304
fd2b
010f
ffb6
021e
ff8d
0165
022e
ffe7
003b
0347
fffd
0349
00be
fd0a
fd9c
ffbb
fd64
ffd1
0143
fd63
00fa
01e5
ffda
0155
00cf
ffe6
fe94
00fa
fd68
feff
0185
0029
fe24
ffd9
0223
ff42
0100
0032
0285
ffc2
00d1
0053
0121
ffd4
ff5d
fdc6
0085
0238
01bd
0109
feca
006c
fe94
fc85
fe18
019d
fd3e
ff28
0215
fe16
feea
0067
00ba
014c
fcd9
0294
fdc2
fe6b
014d
00ef
fedf
0109
feda
0012
fcbf
02d9
fd9c
fd57
fe8f
fe10
fec6
000b
0054
fe2b
0261
0088
0137
0189
fd9b
004f
fe4f
ffff
0233
0079
01d2
fd69
fe3a
00ae
0240
0167
fee1
ffed
fffb
ff52
fd98
00e5
fe89
003f
00a8
ff6d
fd50
fe7f
00d7
fe4b
01b5
0231
ffac
0084
ffb4
006c
0022
fd06
ff85
fff3
0068
fed1
003b
ffdd
ff87
fe94
ffd4
fd31
0136
01a7
fde9
00da
017f
02d3
fe43
fe00
fd26
fd15
ff30
0149
0331
fe94
ff80
fcc1
ff50
03a2
fdec
fe75
fe49
fc55
fd3d
fd7c
0242
fdd4
febb
fffd
fffa
ff56
0335
fe2a
fd8f
ffd2
011f
0098
fe8e
ff68
01df
fd3f
fe10
00d6
ffa5
fe62
fe59
ffcd
0024
fef7
000c
fe9e
ff5b
fe53
0004
ffa0
04f9
0073
014a
fe48
ff4a
ffdd
00e4
fe37
ff43
01df
ff2a
005f
fd34
ff0f
fd5b
fef1
0132
01fc
010a
0027
fe80
fe27
01a6
fe05
fe60
fca8
0043
005d
fec5
ff47
021a
fe64
ff77
0145
fea4
001c
fe29
ff94
fedd
012e
00b4
ffc7
0182
fdf8
0379
fedf
fe34
0176
0114
00a9
fd6c
01c6
0055
fff1
fd4d
fe6b
ff01
00f3
ffbe
fe51
ffd1
00e1
fd19
007d
014c
01e8
ffcd
0004
fedb
01ac
016c
fed1
001e
fec2
001c
008a
0010
00c1
003a
0265
fe1f
0218
ffbf
fd6d
0233
fe36
fceb
000f
0192
0121
001c
00dc
0006
0091
fec8
018b
000d
0157
fe59
fff3
fe92
0129
020e
00f7
ffd9
01cc
02ca
0288
0176
fcd5
023c
009d
010e
fea7
ff32
0118
fe88
ff21
0183
0035
fd9f
00d4
00db
fdff
fe28
0037
0105
0124
0083
ff8c
fd28
fe41
fea0
fedd
ff8f
008d
0225
fdb3
fe54
01fa
0258
ffea
ff62
00e5
0134
0299
feb9
fdd2
feb6
ffa4
fe8e
ff21
ffb5
fe7b
00a9
fd96
ff94
0057
003e
004e
fff9
01d3
02c4
fe47
0158
0051
01c4
019c
ff2e
fe2d
ff86
fd82
01b8
fe33
fd2e
ff37
ff6e
feda
0263
028e
fed9
fdc8
01c4
ff59
0066
00a4
ffc7
fff9
ff24
0223
00a6
0121
01ce
00c3
febb
fe6f
0064
006d
fde9
01c1
fdf6
fe54
ff5a
0046
fe9b
0146
022b
ff37
00b4
0218
ff70
fd9b
ff0d
0106
ff1d
fdba
01ce
fd1a
fccb
0081
0211
feb6
fedb
01ce
0178
feac
0052
0163
fdea
0185
fe9d
0247
001e
ff85
fe8a
027d
ff66
0049
fffb
00ee
010e
fe0f
ff69
fe5f
ff5f
fe85
fed5
00d2
0356
0243
0124
0056
00d4
01db
01b8
fed9
fef9
fedf
0048
fed7
fee5
ffbb
0050
0096
0120
0119
0231
ff6b
fe3c
0047
ff05
016d
ff64
00e0
fd61
01d0
00b3
0100
ffa6
fe1e
ffca
0252
ffd8
0120
fea7
ffb5
febd
fef6
004f
fe5f
022b
ff20
0251
fd89
ffd1
00fd
01c1
fdf1
ff28
fb4f
0091
0306
ffcf
fd6b
fd96
01c4
000c
00f3
0001
0076
fe3c
0012
013b
00c1
fdfc
ff69
0109
fdf7
fe79
007f
020c
ffee
0154
ff3a
ff06
fd1f
00c1
01aa
ffe3
016b
fef1
003f
fe6a
fd21
fd29
fda3
005e
fc4c
feb7
ffba
0356
0270
02ef
010a
ffce
ff86
fcd1
fed5
016f
fef5
0232
ff85
ff9d
fe08
ff1a
00a2
ffb2
fee4
0045
000e
fe81
fe51
0075
fd8a
ff9c
ff81
fe98
00a1
ffbd
ffe7
ffea
0178
ff90
fd01
ff96
0326
0108
fd0f
fefc
fef0
00b1
fea8
ff1e
0061
009f
0046
fe4d
00b8
0316
00cf
01f8
00f8
fea1
fe58
0244
0104
fdb2
ffa8
fde2
001b
00f4
014a
0278
ff77
01e4
032e
0209
0071
0184
007d
fd27
00c9
0133
01b1
fffd
fe20
fe4d
febb
0062
01cd
005d
fd59
fe63
0129
fec4
fdde
ff23
fdba
0027
0024
fe33
0165
fe12
fea3
021a
ffb1
01a9
0042
00c0
fecb
0241
001e
0079
ffbf
ffe5
ff61
fe58
feb7
0260
fe23
02e5
ff9f
fe24
fe6d
fe96
feb3
febf
0161
000a
0138
0128
ff91
0165
0039
fd85
fe16
feb9
fe7b
fd76
019f
01a9
0197
fd8b
ff78
027b
00c9
fd05
0181
0080
ff11
fead
fd74
02e5
fea9
ffe9
fe1f
012e
ff46
011c
00f6
014d
fec1
fe6a
02bd
fdda
ffda
00ed
001c
0151
0096
fe55
fedc
00df
fdaf
01f4
0159
fe89
ff38
ff58
00cd
fd0a
0098
02c1
0277
ffb9
0153
ff72
0159
fd60
002e
ff92
ff62
ff63
000a
ff07
fd22
0063
fee7
fdc2
0089
ff82
ff37
0109
01bd
016e
fed5
ffd6
ff18
ff4a
0195
fe87
0167
ffdf
fcf4
fcc4
fdee
ff8a
00e5
fee5
fe8b
fe6f
0103
044f
ff4b
02c5
ffd7
038d
0037
fe4d
fe9f
020a
ff23
004e
ffd6
02bc
024a
00b7
fdb2
00e7
008e
0132
fcde
00ab
00af
fdca
03aa
02ca
01d9
0058
fee2
fdb9
013d
fed9
0067
ff5c
fee1
fdad
04ed
01bd
fe97
fbae
0203
ffc1
021a
fe6d
007d
02f9
fe46
ff78
fd9a
fed6
ff5b
ffd6
ffaf
ff92
fe33
019b
ff30
0117
fe3d
fe17
0131
fdfb
ff97
fff4
021c
00b0
fdab
00f1
025a
ff43
ff74
ff52
ff31
00bb
fe61
0015
019f
028d
03b0
fee2
0228
001f
01a3
ff33
fe5b
ff10
0075
0238
fff6
0093
fe32
feb8
01fc
005d
029e
feb4
fdc4
fef9
ff6a
fec1
022b
fec9
016f
fe5f
0151
fdaa
0355
fd95
01dd
fc3a
fc70
fe92
feb3
0365
fec5
00bf
0167
fdc6
fe89
02a9
009f
01b4
fdc4
ffce
fc2c
fd10
0120
fbb6
0486
02b5
013a
fffb
fc7a
ffb8
009b
fea4
0180
fff4
0371
001f
ff3c
034d
ff6f
00ca
01e0
0297
ffe7
fedf
ffd2
ff17
fe77
fec5
01ba
01fe
008a
0211
0055
ff06
042e
00ca
ff07
fc78
fefc
ffa6
ff71
ff9e
ffbf
ff6f
0281
00bb
01ae
0169
fe3e
fe5a
0019
fe91
0075
ff5b
ffcd
fdd2
006d
