0138
ff48
ff6d
fe87
0093
ff0b
fdc2
0305
02a9
026a
054f
0278
fed3
02f1
00e3
0060
ffff
fdb1
fdce
fe3e
fee0
fd4f
ff78
0116
00ac
fd01
0096
0074
fe49
fd47
01b4
015e
00a3
00a6
ffa8
fe7b
018a
01d9
02c0
fd65
0201
fef3
fffa
009f
fe52
0090
027d
0166
fffc
feb5
0094
fed2
01d8
0133
004b
029e
04df
02f1
fd72
0508
00f9
0460
00e5
fefe
01d3
fcf6
fc9f
0303
0066
018d
0219
017f
0158
00ce
fef5
fe86
0286
0258
ff0d
ff64
fd9a
fec9
009d
ffad
02b7
fb7a
fcd9
ff29
009b
035e
00e1
ffca
011b
02e0
003d
016d
00c3
fea7
fefc
ffd9
ff1c
03dd
0042
037f
0173
0368
0094
0028
fa5a
fd5f
0035
015e
0038
ffb9
01e4
ffce
ff18
fcd0
fcd0
0208
ff85
01f2
032d
ff84
00f8
fed8
021c
000f
ff3a
034d
ff86
0233
ff11
ffce
00fa
fd82
015f
fc9b
0359
ff17
0102
fed6
ff13
ff7b
011d
ff78
00eb
ffae
ff8b
fe00
000b
005d
00ed
fef0
01f0
fffe
feb8
025b
0199
fe0b
0037
ff9a
fe8d
00b0
0103
0017
00f9
ffd3
fe60
fe24
feaa
ff38
ff52
fbcc
fc50
fff3
0108
ff0e
ff3c
fd35
fb25
01b8
ff15
fc93
0179
0027
012a
fdfd
00a0
00d1
0064
00ce
fe03
ffdb
030f
0258
005b
fc4f
00ff
00a4
0030
fe3d
fec2
01d6
fe68
fffc
ffdf
fd0b
02c3
015d
01c2
fe40
0175
fc38
015c
02f8
ff58
02d0
0280
0067
02ef
ff15
ffc5
fd26
009d
fe1a
ff2d
015e
010b
01e1
fe3f
fd9e
0325
022d
fe4b
feba
0271
fd80
01e8
fe63
ffb0
0049
02f4
fdd4
fdd5
fc4b
00e7
fd59
fc7a
00d7
00b1
fd9b
fe42
ff2f
007f
fc57
ffeb
fd2a
fde7
0052
012d
03bf
ff76
fe3b
ff01
ff89
ff86
fe4c
0167
01e0
fbb9
fda4
fd45
fc59
0144
006f
fe93
fff1
fe7e
0199
fd5d
fdae
fe62
ff2b
021b
ff96
fae7
037c
ffc7
0182
fd71
faaf
fc86
000c
fd50
fd6f
021c
fe04
02c3
0207
fcaa
ff78
fcea
0095
fff7
ff4b
02a3
021e
fc94
ffbb
fd35
012e
fb80
ff22
fefc
00ae
0223
fdee
027c
ff73
012a
fe28
0075
037e
ffc0
ff0e
0217
012e
0132
0163
ff74
017f
0034
0201
ff65
fc1a
0111
025d
fe2d
0060
fed0
0070
fdc1
01ee
031a
fd5b
fe3c
000c
01c4
ff20
001d
fe0d
ff6a
028f
00ef
fed3
02a1
fce5
008a
001a
fe57
00a7
fbc4
fff8
02ab
0113
fff8
0261
032e
027c
fda9
0037
fe92
fc9b
0079
0174
013f
0347
0036
0196
00ba
ffed
fe79
ff2e
019b
fe2e
fda7
ff4e
ff40
fde1
01fe
fde6
0199
fe9d
005d
001b
0216
ff59
fd12
fe21
025d
febe
fe1a
ff2e
ff3e
03a2
019b
0188
01cc
ff13
fe45
fcdf
0290
034a
0080
0074
0264
028e
02fb
00f4
ffbf
fdf4
01f4
0039
ff7d
0296
020b
0354
0077
00cf
fed6
02ed
fd8a
0044
fc99
0167
fe5d
0031
0279
ffe6
ffa0
fd33
02ec
0158
01b0
0018
0010
0246
fd09
0139
02ee
fdf9
0006
ffa6
0084
fdfd
0015
ff12
00ba
0027
ff9f
000f
017a
015d
00a0
fecd
fe8c
0160
fe78
01ac
017b
00f2
ffab
011c
01ad
019d
ff34
0404
00f0
011d
0224
fd3b
ffc4
fd85
0083
0028
ff15
ffbf
ff92
0081
ff42
00c5
0160
005f
024f
0068
00c4
00e3
0011
fd1c
001c
012c
ff35
00a7
fd02
fe3b
0170
fd62
fe89
fdb0
0010
ff6f
0478
fe27
00fd
fe2d
016d
fdfd
0309
00cf
0176
005f
fe94
ff8e
ff36
fea0
01ea
fce9
fe88
ffe2
ff67
fdbc
fe79
044a
fdcf
01e1
ff79
0298
fdf6
0047
005b
fff4
00e7
ff26
0174
021f
ff80
0124
0109
0055
ff59
ffe3
fdc3
034d
fdb8
010b
031c
042c
fd5e
03b4
03fc
fe73
ffd7
fdbc
ff74
02c2
01d0
0084
01d4
ffdf
fc19
0198
0152
fe40
03b9
ff8f
fd62
0285
0450
0199
01b6
fe42
05d8
0289
01f8
0111
ffc6
ff74
fcb1
0250
01a8
ffc8
fe8f
02e7
fcd4
0129
ff6b
0208
fee5
0296
0428
001f
ff3e
02e0
fe72
026c
fde9
fde0
03c6
0330
0357
0080
ffaf
fc98
00a4
fcb1
fdad
fca8
024d
0434
ffc3
fe55
012b
fe6f
feae
03aa
031b
007a
003a
ff37
02b6
01b9
0173
fdc5
fff7
01ab
ff03
00b3
ff3c
ff56
000c
0351
02d2
ff62
fda1
ffc9
020b
02ba
ffb2
0132
0219
00a5
ff8e
001d
fed6
014c
0118
019e
002c
017a
001f
0134
ff1b
fe34
023f
030e
0178
0080
01d3
022f
ff75
03de
016e
01fd
02a1
026e
03a4
fd1e
01e9
fe44
fd0a
fe8e
021b
fd44
fdb6
0067
fd0f
01d2
ff6f
0088
02c9
02ab
fd80
fd88
0288
ff8b
0006
00ce
ffba
006c
fe73
004c
ffe3
0069
fe20
01cb
013f
ff7a
04e7
ff98
fcef
0211
015a
ff4d
007a
0033
0222
ffc6
0260
fee7
01fc
022f
fd7c
fe56
ffad
025d
0052
fdac
fd1f
ff46
043e
fe54
fedd
fd79
02c5
005b
00a6
ffc5
fef2
fe95
0109
fffd
0250
fe82
fd43
021b
fff6
fe80
01f5
02bb
01f0
fffb
006f
feaf
0033
02d6
0089
00fd
01e3
fe29
01d5
02e4
ff5d
035c
00cb
00e6
ff11
fe88
fdf5
fe90
ff61
0277
02ec
0214
fe1a
fc55
00a9
0024
012a
0201
fefd
0037
ffe3
02da
fcca
ffe8
01c3
fd89
0002
ffd6
ffbe
0133
fdab
fe88
ffd5
fe95
035d
01a5
ff69
fe6c
01b0
fd2b
fc7a
fe47
ffdb
01d5
030d
01e2
0239
03b2
0420
ff71
fe2e
ff49
037a
0215
0119
01d1
fe88
003b
fe9e
0087
ffba
ff0b
ff86
0045
0064
00c1
0038
0144
ff0b
fec3
ffb9
ffe5
ff2e
fe44
ff26
0010
fe9b
012f
fcd6
0035
0061
fd8b
01c3
ff43
015a
fe73
024e
feb1
015c
00fb
0275
ffba
00da
fe04
fde9
00a7
ff5b
0075
fd89
004c
fe70
fde8
ff39
fce6
ffb8
012c
fcd5
018d
fcf2
ff54
01b1
fdc6
fd62
fe91
0352
0263
fd17
00b4
ffa3
00e3
00de
ff5c
01bc
0024
fcdf
027b
ff19
ff2c
fe7c
fe95
fe19
ff29
0070
ffe6
fdcb
ff7a
fe53
0086
fe9a
fe9e
fe63
fba9
ff54
014b
011d
018b
0047
02ed
ff28
fe7e
04df
fc0e
ffc1
feaa
01d1
fe1e
ff54
00fd
ffa5
ff64
ffa5
fe1d
026a
0241
ff6f
0199
fdad
febd
fbb2
ff21
fd41
04d5
fd88
ff1b
03b2
fac9
ff06
035d
0290
0131
fff4
fd28
03b7
feaa
fb45
fec5
02d1
01f8
024b
008f
fe8e
fe66
fe39
fee0
ff76
019e
fbb3
ff6c
ff7b
03e4
fe11
023e
000f
0368
01d2
0302
ff0f
fea9
ff87
ffaf
fe45
01d2
ffb3
0038
0135
027a
fd99
0406
fe23
00b3
fd8f
fd07
019e
ff43
fb3d
029a
01a0
020a
01f6
fda7
ffb3
00d5
024d
fee0
ff2e
fd95
01cf
fd11
01bb
fe6f
0038
029b
0336
fc3b
fe28
0045
ff5f
0111
fdf3
fec6
fc69
ffcc
fd43
fecb
ffbc
fed3
ff3e
045c
ffa8
fd70
feef
fcc8
014c
014b
029f
ff99
0003
00e5
0219
fe8d
ff6d
0093
01cc
023d
fc22
0173
0001
0013
fed3
0138
fec7
ffd8
fcf2
0132
026b
015a
03b5
0004
ff29
0489
0107
fd51
0181
ff20
ffa8
0253
0260
015a
fde7
01d9
027f
fe9b
ffe1
020d
0117
0192
feb9
ff27
ff4f
0286
0086
0209
0317
ff62
0108
ff2e
fe53
fe51
0097
0295
fca1
fc6f
ff3a
ff33
fdeb
fd05
00c7
fdd3
ff00
fec4
0051
fd6b
0000
03f9
004f
ff9c
ff95
0113
fff2
ff28
fea1
ff9c
ffbe
0093
fe45
ff40
fdea
00ff
009f
fd90
0097
fd02
00b9
fe3d
ff86
0198
ff12
0231
fc10
00ce
0298
fea3
fdcb
0074
fc1e
02d7
ffb3
00d1
fedd
fd14
01ec
0417
017e
fd97
fd4c
0211
029f
0152
fe17
fd77
ff49
0380
ff58
fdd2
fdce
ff5a
fdc1
ffa0
02b9
fd6b
feaf
ff6b
0465
0182
0133
fc8b
fdd4
fe73
00a6
01e1
ffc2
01fa
010b
0358
ffa2
fee8
fe16
fedf
ff79
02c3
fe2c
ffb3
0104
00f0
fe60
02a5
012a
fe93
fd1d
00cf
0032
02cf
feaf
0024
006d
fec4
0270
ffcf
0110
fe97
fec7
016e
fe9c
fe80
0304
ff24
fede
fea7
03a0
0250
ff20
007f
ffcf
fe78
013d
fe1c
fcce
fd1b
fde7
fdd8
fd96
fec4
00c5
fe41
fc0d
ff67
02c3
01c9
fcc4
ff5e
fdaa
0157
ff3d
0124
0019
03a8
ff14
002d
0010
fac0
fde5
ff67
fed1
fee4
fc85
00ff
0224
ff04
fd38
fdf0
015d
0134
fe84
fcb2
fe6d
ffb6
0186
00be
fce9
004d
03f6
00b6
fe54
001c
012b
fdf4
ff73
ffd4
003c
ffcc
ff61
fb7f
02e3
004a
0205
fcc8
02f7
03cd
037f
0056
0029
ff57
ff0d
feab
fcd3
ffd4
02c4
018f
ff86
007c
fd59
fd14
fe6c
0078
0109
feb6
fed1
fd57
ff9a
0156
00d6
fe70
fc57
00b2
fd00
fedb
026f
ff72
0007
fc98
0048
ff3d
0110
fe13
fe24
fd3c
fccb
ffc7
00b4
01d0
0047
fccc
028a
fefd
00c1
ff29
fe73
015e
fd3a
fe69
fd64
fd13
0151
fe86
feaf
0230
0076
fcfd
fda9
ff2e
fe88
fe3d
ff72
ffaa
000d
feb4
0126
0247
fed7
fe98
ff78
ff7d
0209
fe7f
0378
ffc7
0187
010a
fd25
0073
fe4d
ff44
fedd
012a
01cf
0327
004a
fde0
0356
02c2
0253
fda3
0093
feef
fd66
0218
fe1e
ff37
ff38
01fe
ff03
014a
fe08
ff16
fe50
fe1b
fce5
fccf
ff73
00cd
fe51
fec2
032c
00ac
fd97
fd88
025d
fe05
00b3
019b
fe90
015a
fce8
0093
ffc5
01b7
fc66
fffc
fba4
0300
fee2
febd
fbce
0059
fc84
012f
fe4d
fed9
0246
fdbb
01d0
ff20
0187
fd99
0281
fe56
0395
ffb0
ffe5
001b
fe41
0321
0317
0188
00f8
021b
fe29
fd90
ff7b
005e
0198
0173
00d3
fea4
fdf7
ffe0
fe5a
fd12
01f9
feaf
0097
00f7
ff41
03c6
ff5b
0223
01ac
026b
00dd
febb
03c9
03d7
ff1b
0143
fe3a
0167
ff62
fd9e
fe46
feca
fd5c
021d
0008
fe60
ff4e
01a4
fe75
0246
fdbc
ff76
ffe2
000f
00ea
0255
fd9c
037f
fce0
f9c9
fba1
fdcc
fb6f
0276
00e5
fe5a
ff83
ffbd
019a
0027
fdda
ff69
02bc
fba4
fcc3
0102
0044
0000
0278
ff54
0215
ff11
fc8e
0150
02be
fde3
00be
fcb0
fef9
ff80
0272
0111
ff99
fbc6
0044
012b
01b7
0190
fd2c
0108
02c6
ffc6
000a
03cf
0162
ff28
ff75
fda4
fe66
031d
fc9f
fd8d
fc5c
fe54
fc81
000a
00e0
01cc
ffd7
01b1
0369
0339
00cc
044e
fde7
ff67
fddf
007e
fed9
0228
01e8
038d
fe6a
0003
fe4c
fc44
ff01
fe43
036b
fd5a
014a
0295
01ad
fe5a
fec6
fd83
03f9
0260
0273
ff92
00b6
ffe4
00d0
fdba
fcee
0262
01ed
02e4
0128
ff50
0208
030c
001a
ff55
fe06
ffac
0152
ff00
fe6a
00b6
0122
fefe
0348
0012
fdad
0296
01f6
fff8
00d1
ffce
009c
feb2
fffd
fe01
01e9
ffc4
00e2
00ea
ff03
02e5
ff6b
0163
00cb
02e0
fd29
02c4
fe90
0398
ff4c
0469
fe9c
ffe1
01c8
fd7b
012c
fe82
0057
0184
fcaa
fe9c
009b
03c3
fdb7
0010
fed6
0375
fdc1
fffe
fcf8
02d7
012c
ff38
fe6c
016e
fc4e
011c
01c0
ff35
fe4e
fd9b
022d
017d
015f
0051
00cf
fcee
fe7c
012d
feda
fc15
0177
fc7e
010e
000f
ffb3
fff3
01b7
fe6c
febd
fd11
fddd
fe53
0254
00a0
ff5b
fdf1
0158
0120
0164
fd3e
01b1
fd3a
0048
ff48
01db
fefb
01dd
00d5
0052
00c4
fde3
01e0
fe8c
00e6
fd6e
fcfe
0174
ff45
ffb2
fdc7
fd9a
ff5f
ffda
fe99
ffc1
fef5
fd54
0039
013f
0175
006a
0203
01d8
ff35
0161
fd28
006b
fed3
fd8d
ffef
ffb2
fcf5
fe46
fe2c
fe8a
fefd
0276
fe1d
fe51
feed
fcdc
01ef
ffa6
02b0
feef
02d5
0046
00d4
002b
ff7f
012c
ff0d
fdac
0264
006c
00ea
031e
ff9d
fbc8
00ac
0151
0129
00b6
007d
016a
00bb
fecd
fdcb
fc96
fc1b
fe7b
003b
fdb3
fe22
00ba
023a
01cc
01e6
0169
fd11
00f1
febe
0041
0023
0188
00c8
fdd7
ff31
01c4
fec6
fe40
fc02
fe7f
fc48
fcd5
02ae
fff4
ffce
000f
019b
020b
fd8c
fe85
fd2f
ffcc
0176
009c
0090
fd67
ff25
ff50
0082
fd7c
0078
0188
fd54
0116
fe63
02c6
0047
00ab
02e9
0197
015d
0295
023f
ff60
fef5
ffcb
fc13
feea
fd22
fd46
fd0b
fd9e
fb96
fd8f
0133
0001
02bc
02c5
00e1
0052
0074
0124
fea4
00dd
0341
fdfc
01c0
0056
fb81
fd7a
002d
ffce
fcb6
fcfb
01bb
fe81
ff5b
0006
ff4e
02ef
001a
fda1
02ae
fdb8
01c8
fc8e
ff61
00d3
0113
ff79
0115
00b7
ff6e
0186
ff77
006c
ff15
fda0
fede
002b
0087
fdca
0056
febf
fe92
fe57
ff87
fefa
fda1
0179
ff69
ff3d
02d2
020a
0138
00b3
ffde
00fd
ffa9
022c
ff75
0052
0270
00a6
0395
016b
fff7
ffb2
ffa5
0292
fead
0060
0157
ff91
fd5e
00d3
02f5
00da
fed4
02b3
0263
ff8e
0177
0134
0009
0014
0000
00e1
fca2
fe1c
fd7a
ff64
0211
01d7
00ce
fecf
fede
02e7
fd93
02d3
fdfc
ffbb
fdee
0062
0030
fe0a
ff27
feb7
0031
01e7
fdce
016d
0275
ff0a
ffa1
fc95
fe64
01f3
01cb
feac
0109
019e
0313
fdb9
0366
fc93
037d
fd0b
ff55
0257
fddf
0276
017f
fde7
ff5b
000d
fde4
0218
0236
0336
0046
fe82
02e1
04dc
fe24
fdcc
0186
fe5b
fdbc
03de
0424
0174
fcfd
0206
ff6f
ffc0
fe10
fdef
01f7
ffeb
014f
0175
fc96
0435
ff8a
015c
0026
fc0e
ff72
0173
ffb7
fdcc
fb99
0267
0331
ff71
0224
fe28
0175
019f
ff91
fd6f
fe2b
fe9e
fdb9
00a5
0088
0328
ff91
048e
0209
ff5c
fdda
014b
ff09
000d
038d
fff7
fe98
ff46
01b3
ff9c
018d
033e
00d1
01ef
0051
fdac
fbab
fdfc
0188
01ff
fe8b
fd1a
0003
fe22
fc6d
02ee
02a0
fd2c
007c
00a1
023f
0065
ff3e
ff55
fcc2
01e0
ff9c
00a2
ff39
ffde
fdd3
fcdc
ffd6
0018
015f
fe4f
ff49
fd57
003b
0323
fd21
01c4
0063
ff58
fbdd
fe92
0382
fddb
fe02
ff86
0197
fed0
fe7d
01ba
fdc6
02e8
fd5c
ff2b
fda4
fdb4
fece
0249
00c3
fcdd
00bd
0371
011c
0052
0427
003f
ff55
ff39
0205
fd97
00e6
0085
fdc6
fd0d
0116
0267
0227
fea4
fe94
fe5e
fc33
030d
003c
ffc5
0635
015f
03c9
fc37
029b
00d8
05fa
0332
00d5
006a
fd26
0228
fcab
ff90
fd7d
fec4
025d
ff0d
fdd4
ff1b
fd3d
013f
fe72
01b8
fd9e
009c
03af
03ab
fd98
fe9f
03c7
ff8b
0020
029a
0203
02c1
0083
048c
fce8
010d
ff70
002c
fcee
01f8
033b
0286
0023
0050
fcb4
fde6
ff46
fd38
fc90
0423
fed7
0027
fe64
04f2
fed3
01c5
010a
0000
024c
fc2c
ff5e
fcd7
ff80
fd20
032e
00e6
011c
0388
0085
fec7
fd9d
fdfe
01fe
00e5
04b2
fcc4
fe80
ffb8
fe94
fdd2
012f
fe99
fe12
ffcd
0154
faf3
ffb1
ffb1
fbfb
ff6f
0201
fe4e
fdcb
0057
fc2b
0135
00d3
005a
fd2d
fdef
fef4
fa30
01ed
01f0
fde3
026f
fc4d
fcce
fed9
fe86
015b
fdce
0084
0088
fdac
021c
ff3d
02f8
039e
fd88
febf
01e8
0225
0342
ff80
0124
0279
00b4
02fb
feb1
034a
008f
014d
004c
ff64
020e
015c
febc
023a
fef9
0133
009b
0108
0151
0091
fe3f
014c
02f1
0050
fe46
031b
03b2
010f
fbe4
0008
0184
fdd0
04eb
019e
01a9
00e1
0339
fe02
03ad
0182
03d9
ff42
feb9
02be
0099
004d
fd74
0095
0103
00ad
fe6f
fefa
fa0e
ffc3
febf
0149
fba3
fb8a
001b
fd0f
ffd2
ffb3
f9e1
fd79
02d9
ffe4
fed4
fd7d
fdd4
fe0b
02d5
0017
00cf
fd2a
ff6e
008b
fe20
009f
fb7d
032f
f99b
01e9
01ed
ffaf
ff5c
0246
ff91
fdfd
0168
fc54
00cc
fc51
fe9a
ff88
024e
ff75
00ff
fc55
015a
fbc3
01cb
ff00
fdbf
036c
019f
ff3e
fea0
fca1
fea9
fd55
0126
ff55
0346
0052
006d
0111
fe5b
01f0
00cb
fdd5
0277
ff5e
021b
fecf
0402
01dc
01dd
feae
ff72
000f
0194
ff0e
fc7f
01b4
faf8
ffe2
fa34
017e
02cf
024b
fcee
ff88
fdd6
ff5c
fdfd
0026
017c
0061
fe81
f923
00ac
034a
ffde
00af
030e
009c
0135
fec9
03ca
02ef
010a
fcb2
024a
031d
00b7
fbd6
0228
fbd4
01ff
0059
0308
02ac
fbc0
016a
0263
fe99
00c8
fe73
00f7
fe40
0120
0166
0296
026b
fe3b
0150
03c4
fe82
01f2
fcff
021a
01b6
ff3f
fc44
ff11
01ac
fbc2
0268
fcd6
0244
fde4
fcdc
00c8
fd1d
ff57
0254
fd10
0051
03ed
05b5
0049
ffb6
fe11
01dc
0194
ffcc
fb53
017d
024b
ffdc
02d3
ffd8
fe0c
fdb5
0164
00c9
fff7
fe62
ff60
fdae
0343
0270
0032
fd40
fe34
ff07
ff2b
000e
024e
ff00
ff9c
ff97
002d
fbc3
fdb7
ff12
0011
02ac
fe2e
ffa2
008c
0020
00ad
fdcd
fecc
00be
00fc
008e
0192
02a0
fd80
02bb
fb2e
0296
fc98
fec1
0005
0113
02be
00cf
00f2
fe1e
fe8d
0255
01ee
ff2c
fd8c
fe87
0465
ff01
febf
0007
ff34
0127
0340
00b6
0302
fb2c
01d4
fd44
fdb0
026c
ffe6
fcc2
fef4
0167
00e9
037c
0343
fd5c
028d
0058
ff5a
ffa1
0229
ffaa
fd4c
002b
fdb5
010c
00af
fe17
0388
fe87
fd45
fd97
ff50
ff24
fe22
ff71
0114
fefd
0065
ff0d
fd9b
010c
fd30
0196
0061
0110
fef6
fe3a
015d
002b
00ee
ff1a
0273
ff7b
031e
0041
00a2
fde9
00b8
fec7
01d0
003a
fe60
fe26
004e
ff80
0049
ff84
00b6
fdf3
ff7e
02ab
0250
fefa
ff0e
013b
0020
0013
ff4c
ffd9
0249
fefd
001d
003e
00cc
ff51
ffa6
0107
ffac
fe18
028b
0157
ffd1
ff56
fec6
fcb3
01ce
ff16
01d0
008b
ffa0
00dc
0036
fe08
ff5e
feca
ff2a
fdf5
fdd2
0063
0159
ff85
fd02
02aa
014a
01e8
0198
fef9
fdb8
fdab
0258
fe5e
ffae
fed3
01e5
ff26
01cf
fd47
014c
007f
0065
02a1
002f
00f5
fed2
fe57
017f
02b0
ffab
fc6c
fd5e
01d0
fe07
ff64
fc12
0394
0179
fff5
fea1
fe9e
fe56
fc7d
ff6e
fced
feeb
ffdb
00f4
fea2
ff52
01c7
0025
fed4
0095
0068
ffd3
0028
fb70
01d5
005b
fe41
ffb4
fc1e
00f4
01f1
fce1
fe90
0152
0138
ffcf
0078
01fb
fd15
01bc
02d3
02ce
ff86
01a9
01a8
0429
fbe2
fe77
fdca
ffaa
ff59
ffad
fd3a
fe9e
ffa1
02df
fedd
015d
016f
01fc
0001
fdcc
fdc9
04b4
ffab
0019
01c0
007b
0006
0032
01a9
0341
01ca
ff8c
ff42
025f
00a2
ff37
fe8c
ff96
ff46
00da
0111
01d7
0303
01d0
fe4f
001d
0091
fca9
ff8e
0008
fd16
01b3
fe8c
0372
ff6d
ff94
026a
fffd
01ad
fc5b
014c
02f3
fec5
005a
022e
fe92
02b5
fee8
00ba
ff3d
000f
025f
03e3
ffff
01c4
0099
0286
006d
fd75
028b
ffdd
fd39
fd81
0154
01e7
fffd
fe6a
00a5
fe3f
00af
fe9e
fe68
00ce
feff
fe2f
0348
fd84
0093
fd74
009c
02b2
fd66
0122
fe25
fe78
029b
ff4a
fff9
0234
0253
0295
fdcd
ffdb
ffa4
fdcf
fef4
041f
feaa
fe20
02af
021a
0504
00d7
ffaf
ff11
ffc7
ffdf
02ac
02ac
0003
ff35
0104
0173
0375
00f3
ff2d
0231
fe5c
fd9e
0371
016b
fc6e
ff5f
fe6f
fd0b
feca
0302
005e
02c4
ff05
fd35
00a7
00f1
fc8e
ffd6
01a3
fe82
02c1
fdf4
fd60
fff9
007d
fe9f
ffab
0204
012d
ff94
fdb1
fe41
fe79
01a3
fefa
02fa
0075
fdf8
ff2f
fce8
fff7
03a2
ff1f
fd23
fe2f
fd6f
00e4
fe14
0076
fe94
031a
fd74
fd48
0137
fd91
0102
00ce
00e5
fd25
0043
003b
032f
0062
022f
fdbf
00d8
fd71
fd01
ffa8
007c
038e
0035
fdbb
027c
fe08
fccc
ff97
ffab
0020
fe39
01b1
fdab
0294
ffda
fc50
0077
00f7
0118
0114
00d8
01ab
ffee
0154
fff4
ffa8
fcc0
0012
fdfc
fda1
0023
fe87
0327
ff24
0174
ff34
0107
fc97
0087
fd4f
00e4
fd92
0024
0010
fd1a
fbab
004a
04d5
fcdf
ff09
fd45
01da
007e
ff51
0092
fee8
feb4
ffe4
0052
01ae
fcd3
fca1
fedf
0021
035f
fe85
fd38
00c5
fd50
00aa
0094
ff11
002c
009f
02d0
fe8e
0171
005b
fe60
00d5
ff0f
fe4f
ff53
fe82
0098
0106
ff19
03b4
01c9
ffe9
003d
01cc
fd82
fd66
0094
0062
01bb
0033
00e5
0136
034d
fe58
01ea
fd60
ff59
0272
fc87
fea9
fe2f
fc5d
fce8
030f
fef2
ffb3
011b
ffb0
00e4
fe76
ff77
00bd
fca7
01b8
0426
01f9
ff24
025f
fc21
fdba
0382
fe9b
fa2d
fd37
001e
00ae
0032
02cb
0222
01a3
fdc0
ff72
003f
00cb
fdf4
0180
fe5e
027c
009d
ffef
015b
01d5
fcf4
ffdc
fdf5
015a
0081
03d7
0023
fed0
037e
0235
fe5f
ffe1
ff99
ff60
0133
0312
fff1
0288
ff21
007d
00fe
01b5
fd50
0294
00f1
0132
0240
fd18
fdfc
fd76
fd2e
01cc
02e3
ff7a
00b4
0202
013d
ffe7
fe11
fffb
024d
013b
0333
020b
fe54
ff76
01c7
fd37
fdb9
fe43
fff8
fe21
04b7
03a3
ff2d
fd72
0085
fb86
0023
0229
0121
003a
ff01
0172
01c6
0186
0093
02ce
0132
01a0
fd27
fcbe
fc3c
0194
ff87
fd72
01d1
fdaf
fd18
fe43
01d1
fce3
fd1d
ff98
fb2f
fe25
fb38
ff1d
ff82
fde0
02c5
fcf0
017a
feef
03a7
fe6f
ffcf
ff69
fe8d
fed8
00ee
fe72
004d
fe1b
f9ed
ffff
01fe
fb00
fb5a
fded
ffa9
0021
00ac
00f1
fe25
ff00
024d
fec4
0090
013c
0076
ffb0
fd03
008a
fc8d
ffc1
fbb1
01b7
ffdd
fefb
fdfd
023a
fcc8
0041
0183
ff5b
fed9
fd0e
fdf8
034c
0351
01ec
fe9d
0126
029d
ff43
0009
00bf
ff5a
fd83
fcf9
fba0
fda0
fc6a
fd10
fe84
fe0e
fe20
ff73
ffb7
fdb3
00b0
01f8
fb26
fefe
002d
0299
0205
ffcd
fe6a
ffff
0013
fd72
ffdc
fea8
02b1
0033
0089
0251
0077
00bb
fc68
02c0
fa4e
0225
01ce
0124
0234
fdaa
0016
00d8
0223
fe22
fc5c
fd76
fec0
fdf1
017c
0278
fd71
01d6
01e2
00a6
011a
fe18
ff7a
01bf
02dd
fc6a
018a
ffb7
fe7a
018b
0102
0184
ff19
0033
0004
fe7b
0274
fe61
fceb
fde4
00e0
0243
fe90
fe49
00a8
0017
ffd4
fe79
0158
00ec
ff8d
0260
0091
fdf6
011a
ff26
001f
fda1
fda4
018a
ffcd
02ed
fee8
ffa8
fefb
ff16
ff26
fd26
ffce
0299
fe84
031b
0400
002c
fdfe
0226
fe60
ffd1
fda2
ffa1
fd22
fcc1
ff26
fe68
fe0c
fc84
005c
0084
fdbb
00d7
01c2
feef
fdcf
fd7b
000f
012e
fef6
024f
fec9
00bb
ff96
ff9d
007e
fdc2
ffb9
0110
018b
01bd
ff45
ffa6
fe17
015c
fc8b
fde2
0412
fc85
0039
fd12
fcfc
0012
fd6a
0202
ffb3
ff5d
0000
fe13
0248
02a5
02a3
fdd0
fec9
ff20
febb
fe63
0020
0258
0309
01ee
0149
0054
fdd2
01d7
ffad
0142
03c9
fecf
0009
01b8
013a
0000
0050
fdb5
ff3b
ff1e
018c
00db
fff7
019c
002b
00ed
01e3
0053
ffac
fe28
ff7c
00c2
0297
fcb5
fc67
fe63
01db
0257
02ee
fe60
fef2
0064
ff8d
0188
0123
fe21
02d8
0084
0076
033f
0110
fe43
ffe4
ffc0
0066
0263
0073
0374
01e5
010f
fd4c
ffdf
ff48
0206
fedd
003c
ffcf
024e
0207
fe38
05ab
ffe0
02bc
0153
fde4
0152
028c
fd42
fd76
fd2c
fd67
039b
fe71
0216
00cf
ff0c
ffc7
006f
ff7e
00e6
ff86
01ea
013d
fc85
ffd3
01a6
fea5
011b
fd9f
016f
ff9f
fe40
ffe4
009b
fe11
0086
fdbd
fbc0
028c
0364
fec3
ff34
02ee
01c0
020a
ffaf
fdc0
00f1
00d7
0275
019b
0134
fd50
05ee
ffc5
fd66
0217
0041
01b9
fdbc
ff60
fd59
fd41
003c
04b4
007e
00ea
0011
00ac
fdfe
fe74
fe88
fe1e
ffb1
0367
017b
ffc8
fb9f
02cc
011c
0220
ffe0
ff26
fec0
007b
fe1f
fed7
00ec
0151
03c2
024f
019b
fea6
fe81
fe2e
024f
000e
fce3
03ea
ffaf
fbe8
0084
017a
fe14
fe6f
04e8
ffa5
00eb
00aa
ff07
fd8e
0037
ffdf
019b
0159
0089
0106
fdb6
03bb
0244
fdcb
fe30
fd9a
00a4
fce4
fee9
0093
0100
0159
00be
00c2
ffb1
fcf5
0252
017b
fee5
02cb
fff7
fe09
0179
0090
0244
00a4
ffb4
010e
00b5
010b
ffb8
0132
fe5a
ff79
00d7
0214
feab
fe84
fd9f
fc20
fdf4
0256
0263
014b
008b
00cf
0195
03c0
01fb
013b
fe31
ff95
fefd
01a4
0100
0000
fcd2
fc30
0242
0029
ff86
0197
0079
ff79
fe29
ff00
fe2c
ffcb
000c
0085
fd2e
fff7
018d
fe03
fd02
0100
0099
02b9
01b2
00fa
0230
fe2f
ffd3
ff33
fd68
0384
ffb8
0024
fcd6
fe86
ff2b
01fd
0152
feda
0158
00ba
fe2b
fe5e
017a
026d
fd1e
fbcb
0013
01cb
fc53
0041
00a5
fdd5
ffec
002e
ffbe
ff37
0055
fdcc
005a
0159
ff5c
fe13
ff69
0367
feae
ff2b
0158
0035
020a
fef3
01c8
fea2
fcd2
fd98
0196
fcea
002b
fe35
0007
0068
024b
ff47
04e9
fd8c
fd06
fe2e
ff57
00ec
022b
02eb
fe42
fd84
fbce
ffd7
fefe
0061
0368
fd7f
00c0
ff26
febb
fc8d
fe83
ff36
0077
0142
ffbf
013e
01b6
fda2
03a2
ffee
fd37
014a
fe06
fda6
fec0
004d
fc96
029d
fff8
faf6
0168
0027
019f
fd70
016b
0074
01df
0129
018c
fc6b
0203
ff13
fc4a
ff41
00a5
fe39
ff12
ff63
fcfd
0205
00dc
021a
0034
fc9a
ff5a
fd5b
ffe0
00d3
fefe
0029
01f8
fd68
fe1b
000a
fffd
0278
01e2
037e
0039
020a
fe09
00eb
0240
fcbe
feb4
03cc
00c6
faa1
019b
00b1
02cb
0127
fe5a
ff87
0164
0098
00b5
fd9c
ffe7
fef1
ff59
012d
fd52
ff1c
01bc
0124
0355
0121
0103
ff26
fbe2
fbb4
ff6c
0020
007b
ffe5
ffa3
ffb9
0134
0269
0032
0353
fd14
00f0
0018
0133
0171
ff4d
0154
ff7f
0035
feae
fd9f
0086
ff19
02c3
008f
ff8b
01f6
fe91
01f6
fed2
01c6
00db
fdfe
fe04
ff4a
fef5
ff50
ffd9
fed6
0488
029c
032a
027d
ffce
0047
010c
0095
0140
0144
fd57
fe04
00db
ff41
0031
fef9
009c
0232
0060
ffb5
00f1
0361
00c0
01e1
0153
00d5
042f
031e
007e
005c
fea2
0359
015c
ff85
015b
013d
034e
0154
011c
ff7d
0165
febb
00d2
015b
02c6
fcf2
fe43
029d
fe66
02f2
ff00
0360
0211
00db
fe5f
0174
ff58
fe32
025a
02a4
02ff
fdbe
fcfb
00a2
fce0
02d6
005b
0136
038d
fdab
01ab
fd54
01ef
fdc5
fe13
fc9c
fc5e
0317
0325
02ba
01c6
fff3
ff44
02d4
02b6
0300
0051
fdd2
0110
fd91
fcea
fd8c
02f5
02c0
0061
0073
0301
ff84
0093
fe55
00e3
000b
0060
0356
00f7
0150
0146
0045
0322
ff84
0040
fe02
fd86
019f
fd19
01f4
0124
0070
fe7f
fe3b
fe22
0231
fdcc
fdd4
febb
ff48
02f1
006e
fcad
02d4
04cb
02c4
fe71
ff44
0078
fd50
fed0
fde4
00a1
008a
008f
029c
01af
0189
00a7
febc
0166
0351
0210
ff7a
fe63
0086
014b
01a6
fdda
ffa2
fe53
fd8e
01f6
fd05
0190
fe71
fd97
0100
02c9
ff84
fb8b
feee
ff88
0002
017d
0064
fd8d
ffdd
022d
fde3
fe4d
fed3
0584
0155
012f
ff85
fe9f
ff31
0257
0007
01ac
0155
0213
ff7f
fee2
0692
fe38
fd6b
fe6a
0101
ffc8
0254
0078
016d
00ef
fe80
ff6b
0176
ff33
02ce
fca1
025d
fdd8
fe38
ff34
0225
ff15
00ee
019a
fc6d
fccc
02a1
015e
fe06
ff7a
fe32
fd25
029a
fdb0
021b
03a2
0248
fed1
025a
0180
0034
0240
02d0
fddb
0120
fdc5
0130
003d
fe83
fdbe
00d8
fab7
0249
01cf
0041
ffbf
0044
00fd
fe24
0182
0398
fd33
ff54
fe60
0083
fea1
0299
ff4a
0142
00e2
05e4
fde0
0189
0000
0386
fea7
fe6d
0288
0396
036b
fd9d
fef7
008c
007d
0286
ffb1
fe44
000b
0223
0061
ffed
0104
00a6
0112
0197
00a2
0018
0283
0374
0153
01d1
ffaf
0135
ff04
fe5b
002e
03ca
fee4
01a7
fc60
0068
fecc
fe44
0079
fbfc
0343
fef1
0225
fe00
fe14
0127
ff01
023d
fd91
fcdd
fd8d
0213
fc7c
015b
feb4
ff76
ff20
fe14
fe25
00ca
ffd6
0131
00b5
024f
fff0
ff9e
fcc3
fffc
febc
011f
fec5
fc34
fc58
fdaa
0095
0066
005a
000b
0134
0023
00b9
fdb4
00cc
00df
02be
fdda
fd11
00fe
0003
feb7
fe84
0190
fd6a
0071
019d
00f3
fe1c
00b7
0444
0213
fd5e
fe4b
0157
fe60
ff56
00a5
003e
ffb3
ff86
fe44
02d2
03eb
00ce
00d0
ff41
ff30
0205
ff27
0207
ff9c
0301
ff49
fe92
fe45
01bf
ffe7
0193
ff0b
038d
00ee
fe92
fc43
fe71
0135
ff0a
fe8d
0461
02df
0369
004f
02e6
fe30
fe20
01e9
03ae
ff93
fcf3
fae6
00c9
fe94
ffa9
028b
fea6
ffa2
fe88
014a
fecc
ff5d
0236
00de
0132
ff6c
ff5d
01cf
fd0e
0192
042d
ffe1
fef5
febf
ffb4
fe0d
044c
fe26
02a0
ff70
fe23
fd2c
022c
fb93
0372
022f
02b6
02a7
01dd
01f8
0157
fe9f
fe4d
0294
fcca
fc01
0275
0316
fd1b
0370
ff15
fd11
00e8
01f5
028d
0085
fed3
fb7c
ff9a
0168
0012
fa2b
fd42
fec1
fef0
fe2e
fca2
00b0
fb8a
022a
fdc0
0059
0018
fde0
ff68
fdaf
02a0
fe3b
014d
ffe6
0159
0253
00b2
0037
fc05
ff5a
0225
ff75
00e6
fe67
ff68
fea0
fdec
feea
01aa
ff3b
ffd1
0054
01c8
00c5
fda3
0319
01fb
feb7
0259
fd3d
ffe8
00f7
00ce
00da
009b
00d8
fff9
0193
ff4a
00e4
ffa5
0180
fe3c
0142
fe5a
02b0
ff90
fdb3
011b
000b
030f
ff52
014e
006b
0134
fe99
fed1
fef7
fe9e
0027
fef6
ff69
00a3
038c
fcd4
ff30
0293
fee4
0242
ffa9
015f
02cf
00e5
0275
0248
0102
0262
ff6d
febd
043c
0318
01f7
fc03
019b
0211
fe6a
ffe7
0109
fe92
001a
0190
fe6d
ff67
fe99
fef9
0295
fc34
0195
ffe2
0378
0211
0256
fcc9
ff51
fe6e
01f9
020e
ff7f
ff9c
0103
0051
fe3a
0098
fcde
020e
0229
fe17
fff5
0130
fe6f
ffd3
01e9
ff38
ff96
fec4
02b3
fe07
fcfa
feec
feb0
01ca
01e4
ff59
0261
0250
fe80
01be
fcfc
fcda
fdcc
fe5d
01fc
00c6
0051
01e1
00e8
014b
00fc
0058
ff6e
01dc
ff03
fedb
0293
0042
0000
ff75
fd98
fdb1
00ea
fecd
ffc4
fe65
fee9
026c
fe5c
fc80
fd9c
fdf1
02ae
fda3
fd93
ff70
023a
fe95
00fa
00ca
feb1
fcbc
fe40
ff4c
0006
02b9
ff4a
0060
0203
fd46
fef6
fcac
0417
0008
02d6
fd4a
00f1
ffe1
02d1
fe45
ff42
fd0e
0190
ffcf
006c
0119
005e
0346
ffbc
007f
00aa
ffd6
fe8f
ffd2
00d7
fc2d
fff5
001d
0062
fcb3
014c
fe5a
00d9
0083
fd6c
0224
ffb5
029f
002a
0132
fdae
02eb
fe7b
fe19
feb1
00f3
022f
fdc4
ff5d
fe09
00a0
00f6
0255
fcbf
fffa
fdc7
fe5c
ffff
ffc2
fde7
ff05
ff9c
fff3
01d0
fcd3
fda0
fac1
02f8
0001
00f0
0469
0032
fe1b
03b4
011c
fd8c
fff9
000f
023d
fe51
013f
ff14
fe3a
0008
0319
0227
fd1e
fd05
fddd
fffa
01ac
0012
fcff
0020
ff77
01f1
fe49
01d1
012d
ffe9
ff4f
fec9
008f
ffe3
0059
0101
ff7a
015c
011d
fd59
01b0
fea9
ff4c
fd8b
fe31
fe86
ff01
ff21
0106
00d7
0338
0029
005f
fde1
0073
011b
00e5
fd58
ffcd
fde4
01fd
fffc
feef
002a
02ac
fed1
00dd
feb3
ff08
030e
0063
00a7
fd97
fe34
0020
ffab
fd58
ff74
00a8
0199
0019
fd42
0134
febf
012d
ffd0
0352
fd5f
fed8
013c
035a
fb68
fdc0
fe19
fff6
fece
0096
011e
ffcf
fd6a
ffc9
04f3
ff13
fcc1
fe75
ff82
ffd8
fe64
fcb1
01e9
ff99
f9f1
003c
fd8e
ff67
004c
029d
fd3c
01dc
fed9
0065
0219
0249
00f7
ff56
fddb
03f4
030d
007d
00ce
0151
fe8e
00fe
0008
028f
036d
fe12
fee6
01f9
0200
033f
fc5c
006a
fecf
fe88
0150
fe85
fdf1
0151
0206
01fa
ff0f
0322
00eb
fe36
01e7
feb3
0249
0080
0013
01cf
04ae
fed3
007d
0437
0103
febb
03a7
0188
02bb
fc5e
02fb
fe8c
0113
0244
fd9c
0305
ffff
fede
003d
ffdf
005f
0156
ff25
fe83
fc33
01c2
fd61
020b
0064
fce5
033c
fd66
01a3
01b6
fd03
fd4b
0269
feb8
ffd2
fd3b
0005
ff94
ff9d
01a3
0158
fee0
007f
ff07
01f8
00dd
016c
02c6
fd26
0239
fec3
fff2
014b
0288
ff18
0050
0295
fd35
ff33
fdca
0221
01b8
fff0
008a
01f7
fb99
ffec
fe8b
febb
ff90
fddc
010c
01f9
ff68
011f
00e6
fd6a
ff56
ff6c
fcbc
0109
fe52
fe03
fee4
01e7
00ac
0161
01b1
fc7f
035e
013e
0023
fcdf
0086
ff0a
fdf4
006e
fe98
02d4
fbe7
026f
01ea
fd5b
0133
02cf
fda9
fef2
ff9a
041d
fe0b
fe80
032e
0441
0124
fbe1
ff82
037f
fe3e
ff0a
fd09
00e3
fe07
0149
fee9
02ef
fde8
fe90
02b0
0427
0197
fe97
01a6
008d
0176
fe6b
fd8a
00d5
ffdc
fead
fecf
0065
01b1
0384
fd7b
fd3f
0028
007d
fee2
0083
0041
fdac
ff42
fc1e
000f
013a
0167
01b2
ff0b
018b
febe
ff22
fdb9
0298
faa8
02e8
ffe6
fefc
005b
005e
0288
fe7b
0312
fd33
fd8c
ffcd
0078
ffb3
0110
ff03
ff1f
00ba
01d0
0073
ff8e
fdef
febe
fe3c
00ed
019c
fd4d
fd8d
014f
ff3b
fbcd
02fd
fd36
fe22
fde2
0152
fd34
fd8b
01b9
fc5f
ffdc
0030
024d
fff9
003c
ff35
fcff
014c
009f
ff8d
ff93
0235
ffb1
ffa9
02a1
0072
fe02
fe3b
fd84
014e
01ee
004e
012a
fed7
0121
ff28
ff64
fe2f
ff07
00a0
fe1c
fe97
fe21
ff8b
feb1
0147
0042
ffc0
fe34
ff20
fe4b
0037
0247
00ed
fe89
fec2
018a
032d
fe05
ffb0
00c4
00fc
fe3e
ff2e
008b
fe51
0061
01c9
fec2
01aa
0383
0258
023b
0232
01db
01c7
fe21
0004
0221
0120
0275
0271
00b2
02c9
ff2c
00ce
00d5
0024
0317
00af
0236
0093
fed4
00e0
0040
feed
0181
0069
00ab
00d4
fdbc
0079
fe03
ff13
006e
0146
009f
fe59
0222
0363
02eb
000a
025a
0322
ffb8
feda
026c
024f
000e
01ea
fe14
0185
0195
0067
014d
017d
fe83
02b7
038b
fdbf
feaa
fd0e
01f3
0139
0205
0217
fcb6
002a
ff0b
fe8a
fe11
003a
009b
022b
ff3b
fecf
ffff
fc40
ff36
00f4
02e4
fb81
fdf4
fded
fffe
011f
00e5
febd
ffe5
fdf3
fdf5
fe03
fdd4
ff2a
006a
02b2
fe52
00e3
ff10
ff42
0097
fe37
023c
ff74
01c0
fe1f
01e4
fe1d
0025
fd5d
fd8c
02d7
fe2f
03a6
0120
032c
ffb2
ffe1
fce5
fcff
0131
0000
fd87
ff4a
00cd
02df
fde1
fddd
ff2d
ffcc
0041
0034
0398
0185
fe16
020c
0097
fea4
00d5
ffa8
0068
0311
ff2a
004d
fe9d
0268
00ae
014e
0276
00dc
01ea
00c7
01d3
0136
0016
026c
ff87
014a
0044
ff98
ff0e
ff39
00b6
fe98
01aa
00fc
017d
0337
01ff
0035
0176
014d
0046
0325
020d
fff7
fed4
ffdb
fe12
fd91
ffb7
fe00
fd80
019a
fe5b
fe13
fe6f
fff6
ff9d
fd0b
ff59
02bd
ff28
02ef
0220
006c
0189
0153
03b0
015e
005a
0210
fd95
0056
ff6f
fe26
ffb8
fe90
fe23
fed6
004f
fe29
0219
022e
0122
01ef
00b7
ff7a
012d
0018
00e4
00b6
02cf
fe42
033e
02bf
fffc
0520
fda6
fe4a
0458
ffe4
0202
00e9
0122
fcb2
0146
fdcc
fd74
ff99
01ee
001f
ffc8
fce9
fcf6
fefe
fc82
fc1b
028f
02dc
027a
02f8
013e
fe0f
fd9f
02c1
fd86
fe6a
0080
ffa6
fff6
003d
0014
02ba
ffdb
012b
012a
008c
fccf
fc97
fddb
0272
003b
fcfb
ff66
ff0f
ff54
01e6
01a9
fef0
ff66
ff69
0149
0016
fd3f
0224
00ab
029a
00e0
fea9
fe8f
00fc
0200
ff9e
fe4f
fb70
0222
00f3
01ff
fd27
000a
0493
00eb
fe8d
fee5
fee4
000d
fe8d
00dc
0315
fdc6
0061
fff2
0020
0270
019a
00c8
fcac
011c
00ac
00b8
ff0f
ff57
fe1d
0002
ff4a
00ea
0210
0034
fdfd
fd14
00cb
0127
00ed
000d
00ef
0190
02f7
010d
016a
0108
03aa
01c6
01a1
fee6
03b6
0409
01e7
012e
fe26
fc53
0180
ff0f
0126
0078
0302
ff50
0251
fe9c
ffc7
ff53
feb0
fdf0
011b
fe52
fef2
011f
fde8
009d
ff6d
0040
0039
fffe
feb7
ff13
0191
fda6
0058
009e
fca4
01de
0086
0035
0096
ff2f
fe10
ffb2
01ee
fe83
0221
ff5f
02eb
ff61
ff36
017a
ff96
01f5
ff2a
0390
fce4
fef1
015d
0156
024a
ff51
031b
fdc3
ff0d
fcbe
fd48
ff60
fe7f
018f
fda8
0136
fdcf
029c
fe9b
016a
ffc3
ffe7
0169
012e
02d7
ffab
ff81
0202
0005
fe11
0133
fd6d
01a8
0291
fc9c
fee3
00f0
ff3d
0018
0031
ffcd
fd42
fbdf
fe08
fccf
00d1
01f0
037d
fd56
025b
015e
fd10
ffda
01dc
ff19
026e
ff45
fe8c
02ba
fe39
fc4b
fe01
0318
fe86
fd0d
00fc
fecc
007f
fd25
027f
ff62
fcfa
fc30
ff91
ffc1
00c7
0012
0236
ffd7
fd68
fea8
fd4f
0041
014d
00d9
0022
0062
fea7
fcce
0196
fe82
025e
fe3f
0022
fdb5
0202
fdc1
0319
fde1
ff03
feb1
02d7
fdc0
ff6a
007b
fca4
fe22
026a
fc4f
00a1
fff2
feb5
ff69
fe60
02c3
01b6
0036
01f8
fd20
ffbd
fc8e
02ae
0256
fe9e
027c
fd9e
015f
febe
fd8d
0085
ff39
ffdf
0206
02aa
0113
fdf1
fd43
fdea
fd9a
ff6e
0048
005c
ff67
0003
026e
ff01
ff73
00e1
ff8b
0124
0203
00fe
fcce
00a4
ff3e
01a3
016e
00ce
fd25
00b9
feb0
fc90
0249
003a
fdcc
0169
ffe0
fe21
ff22
fee2
fd7d
fe52
00d7
0185
0321
0351
01e7
01f1
fd9d
0152
01e5
ff76
fd8a
0486
fe62
0223
03b3
0055
ff66
ffad
0279
0113
fec7
01ea
fe7d
fd57
ff0b
0294
ff26
004e
00d7
feed
0280
ffa8
feb0
0065
ff86
feef
0228
fea0
011d
fde1
ff22
0164
01bd
0336
ff3d
02d5
ffdb
00f8
fef5
0151
013d
0170
fe64
fedf
024f
fb8a
00cc
fdcb
00c6
0153
fe25
010c
0048
008f
00cd
00be
fe31
fe75
01ec
ff04
fe7c
0180
feee
0216
0145
feee
0085
ff31
0002
ff83
033e
ff92
feea
0077
0250
0078
ff4b
fd3b
0195
0095
ffd2
007e
02a9
fe18
ff81
fd71
fd46
fd3e
00b7
019a
0173
0148
0154
007e
00ae
fe54
fe41
ff41
ff9a
fdb5
0243
fbc5
fd31
0088
ff25
0116
0095
fe23
0224
fefa
0029
01f5
fead
047f
fe18
fe83
fb23
fcd8
00fc
0214
0069
01de
013d
fcc3
fe87
0302
004c
009b
fe7f
0101
fe45
ffc2
fc88
fdf9
0075
0002
00f7
0214
fdbe
0193
011d
0113
fd66
0036
fdf6
fca2
01f5
fd82
fe0f
fc27
fc1c
023a
03a6
ffbe
fdde
01aa
fecc
0109
fd76
004b
fc14
fce5
007b
018c
fcf6
01ae
011e
fde2
0253
fdef
00ec
fbca
014a
ffb7
02c5
fe95
ff0f
02b5
0241
012d
fef9
fd69
ffa0
020c
0304
03ce
0049
fcc4
ff35
00e3
ff42
fe11
005a
003a
02b6
00c5
fe99
0117
ffa7
fdfa
ff08
0119
02f4
00a9
fef5
fcd0
02f5
fee5
00cd
01aa
01f8
fe17
00bd
ff99
fffa
fdd6
fcc1
0281
00aa
fd12
ff7d
fe8f
0128
015c
ff32
fe2c
fe93
fd39
0120
00fc
0096
01d9
013d
0079
0172
018e
fe49
fcb8
fd3d
01f1
026d
00f9
0104
00b8
0241
ff54
fe81
ff93
01a8
021b
02fd
ff09
fe58
fc4a
0070
fe0a
00fc
0144
fd0a
ff1d
0008
feb9
fcdd
012d
00ea
ffc3
0136
002d
fd6f
fe9d
ff35
fd3f
0064
0084
fd4a
fe1b
0049
00fb
fe0d
0086
0122
fcf5
0132
035f
0465
0010
0259
ff63
01ef
0320
0231
0162
ff50
000a
ff02
00be
00f4
fda1
fd45
ff02
0286
fdf0
03d0
0248
fcd4
fe39
013c
0196
fe47
fbb6
03ab
014c
ff8a
ff34
feec
fef5
0318
0151
0186
022c
ff14
fd15
00e0
fdb3
006e
0459
0101
008b
0235
0208
0544
fffb
ffbd
fd5b
ff09
fd71
0031
008f
ff49
fe39
ff15
0181
ffb4
0298
025c
ffb3
ff2a
0023
02d5
fda8
0007
ffa3
039a
022d
0213
fc71
0112
0427
00c0
feba
0012
ff0e
017c
fd74
fd96
ff84
fdde
ff1d
013d
feaf
ffab
ff3d
02ad
fe83
02ea
0216
018f
022a
fefc
00f8
fd01
fcb3
fe41
02c7
020b
009e
01cc
00d6
01b2
02b9
fe45
0121
fe15
0041
0227
00a5
0366
fc9d
007c
009b
0189
02fa
007d
00bf
fe06
0397
00b6
0089
fdf5
fd16
fe53
00a6
ff1b
0292
017f
fe60
ff5a
fe2e
fe0b
007e
feca
0208
fce1
ffd0
fd14
ff65
fd87
0349
026a
ff86
016c
01a7
ff8d
fe1d
fcd8
fe53
ffce
ffec
fddb
0191
fe68
ffc4
0015
03cd
01ea
fc8a
0256
015d
ff75
fdf4
0243
046a
0045
ff36
ff52
01a2
01c3
fe51
03bf
ff83
0090
fd87
fefe
fff0
fda2
fff8
0082
fca5
ff58
ff0b
fda6
0045
024f
030f
fe6c
fc45
0095
fee5
fdd4
0321
00b1
fd10
ffcb
fe7e
0164
002f
03f2
ffb7
0310
ffa3
04ed
ffc8
ff89
0102
03ac
feee
fd51
fd32
0208
0119
038d
ff56
feb9
fd57
0250
ff33
018d
ff4f
fd19
ffd4
01c8
fdb2
0419
00c5
fd12
ff88
022a
00d5
fe8e
00be
fd39
0281
fbf8
feb7
fc54
00d0
fd83
f8d5
001b
0000
fb9c
005e
fe2f
ffb4
ffe2
ff20
fd43
ff57
fec4
0157
0202
00b8
00ae
fee4
0020
fca1
ff57
0289
fddf
fa91
0084
01ea
022b
015c
fe38
fbb4
0066
fead
ff2a
ff70
ff8d
fcbc
fe34
ff6e
004d
0061
0093
01e7
fc98
ff8f
ff23
010b
fdfe
0287
0186
ff6d
fc39
011a
0175
008e
fd63
ffc6
fe7f
0175
ff67
01ee
ff5d
fe43
001b
fdb1
0041
fe8d
ff4f
fee3
fea0
00ba
ff71
02c4
ff33
fabb
000c
0116
0293
fe15
01a0
fce9
fff6
fe52
0047
02f5
fd81
fe66
fe8e
01e6
fd2e
fefe
ffb6
00dc
0299
ffee
02e5
fccd
0039
fdde
ff4f
feb0
02e9
01f2
ff0b
fea5
00d8
026f
00e9
01bf
012f
fd3e
016d
012b
01de
fe6a
fc7b
fec8
ffc8
feac
0151
fc8f
002a
fce4
0105
fd3a
0204
ff1d
fcc6
fb7f
01eb
012c
0175
0118
fe8f
0321
008f
fd05
0035
01ed
fdb8
01f2
feb0
01c3
ff58
ffdf
fce4
024f
00ce
fcf3
0255
fe36
fbef
015b
04cc
0069
0015
fe8c
fe6d
fed9
fe89
fe16
fff2
0199
0131
fe18
0000
fce8
0131
fe72
ff2f
032e
0088
ff2c
0214
fd19
0269
0212
011d
ff1a
fe9d
fe41
0034
019f
feb4
0014
0192
fed8
fd48
fcb5
014f
fffc
fcb1
fd63
0264
010d
01b5
ff1e
023f
fee3
0169
000c
016e
fe49
0076
ff2f
fd26
0063
fe67
ffa8
fdf8
0094
ff34
ffc3
ff5c
019e
ff70
021d
001c
014e
fee8
0570
0334
fea4
ffca
00da
001e
fc6f
0040
008c
ff66
007d
ffa9
ff8e
fe6e
fffe
014a
fccb
0137
fd1d
01b9
02f7
fd32
017c
0199
ffbe
0182
0283
fc9b
ffdd
fa60
fb5a
fe41
ff33
01e3
011a
ff32
0034
02f4
ff02
ff45
ff8f
ffa0
fd1d
febc
ff10
0371
000d
00b9
fff4
028b
0024
026e
0104
01f6
02c2
ffc1
030e
fd87
01bf
fd0d
014b
fec7
01e1
ff04
00c4
ff64
fe6f
fc3b
fe71
fca0
0031
fec4
fd8a
fd83
0136
01d4
000e
011c
00e7
017a
00da
0230
fd36
01a9
fc95
fe3c
00c7
0103
ff08
010f
fbe1
fd25
0078
fce9
00d2
0040
0004
008c
0027
ff4c
03c0
fe56
ff01
ff05
ff13
fd9b
ff4f
0201
029e
01d8
fff7
fce0
0096
ff34
00ea
0099
01aa
0051
ff63
015e
0004
01ff
0154
fde4
fd6a
ffa9
ff56
fddd
024e
fe89
0127
01ea
0143
00eb
fdc4
fdca
014f
02be
0001
0279
00d7
fd1d
009c
012a
fe15
01c4
03dd
0010
0326
029d
ff83
01c3
fefd
fe5b
fe24
00d2
ff3e
010e
ff66
fd3b
feae
fd48
fe53
031f
fea2
fff9
fd3c
fe47
0076
feb6
ffa6
ffaa
ff45
fecd
ff0c
fc49
fdf4
fde8
ffb3
013d
ff90
01e9
001b
ff7f
ff68
fdf9
00cd
0269
fbe8
fff1
ff23
feb3
fd37
fea1
fe82
028f
ff8a
fe85
005a
fddf
0238
fff1
0145
0083
01e1
ff79
0067
005e
fff0
fc21
fe2f
0235
00ae
011e
0021
028e
0121
00c0
022b
0240
fdfd
007a
0181
ffb0
fde4
01a3
ff00
fefb
00f1
0082
ff82
fecc
fd88
00e1
ff7b
00fa
025d
fe8c
051a
0118
fe50
01be
ff87
01b2
fe19
0372
fef7
feb4
04ed
ff43
ff50
fef0
0218
03a8
fea5
fe2a
0074
0231
0180
005e
033f
03e7
fcd7
fcbd
035c
fd82
feac
fee5
0198
01fc
0522
0247
ff8e
fe0d
0071
fc5e
02bd
0481
fe1f
ff2e
ff97
fe8d
fd94
017b
00fb
ff21
01e0
02b7
fff5
ff6d
0118
01b1
ff93
030a
fcf5
fdf9
ff1e
fae7
0269
0356
ff7c
ff0d
0235
0067
fef8
00d2
fec2
fea2
0123
fdc4
0371
fd21
fea0
00a2
01ee
00e5
0183
012b
fd8d
0036
ffff
fcd1
fe31
ff4f
0109
020b
02f4
0009
ff54
0298
0174
fce0
0215
fe02
ff83
fd95
fe8e
025f
00de
ff4c
022a
041a
fcda
ff78
ffd6
fff4
0009
0055
0215
fcc1
01f7
fe97
ff36
ff4a
ff27
0114
ff48
fec7
011a
0141
02be
ffc6
01e4
ff3a
fe74
fe6a
fda8
fd88
ffdd
0179
fbf8
fd5a
fda8
fca9
02be
023c
fc6a
fff1
031f
00ba
fe6e
0084
feb9
041a
fd8c
ff3e
003b
ff5d
0296
fe70
fd92
0070
fda7
0216
0159
fd64
ff7a
ffde
012e
ff6c
012f
0004
fd6b
ff80
fd0b
00c3
ff55
fd73
0187
00ed
ff6e
0050
00bd
01cb
fcd6
fc8b
ffb7
fe69
0068
0114
0174
faf8
00fb
ff40
fdc0
fe76
feb1
fa6f
ff61
fdfc
fe5a
0254
ff08
0002
feed
0138
03df
fecc
feea
fd2f
feab
028f
ffd7
0291
fc55
ffa3
ff10
01da
004f
fefc
fd31
ff57
ffa8
ff79
fcd6
021b
02a4
000c
003f
ff90
ff2b
ffe0
0094
0137
fed7
010c
021f
fe80
ffde
001b
02aa
fee4
0080
00f7
038b
0081
fc6a
01f9
0195
0267
fd73
020e
038f
034e
018c
fefd
01ee
02fa
fde5
01bd
ffb8
02e5
023d
fef5
0198
ff81
007a
fffd
02ba
fcec
00ba
fe15
ff69
feee
0139
004f
febb
02dd
01cf
feed
ff4b
fef5
ff85
ff08
035e
ff63
fa6a
006b
0030
0405
fe18
0163
005a
01ab
fd3b
03d3
0178
fe98
00bb
ffb1
ff9d
00b7
01a3
ffdd
013a
00bb
004d
fcd4
0064
0214
013f
00e1
0300
0322
009c
00f4
fea0
005b
fdbb
fcfe
fd34
fe00
fee5
0381
0038
033c
01c2
0267
012e
fc4d
013e
fdd7
ffca
0318
fc8c
fecb
fde8
0122
00b5
0335
fec1
031e
fe12
0179
0148
0310
fdb6
0000
0090
0098
00dd
feb8
00ac
ff8d
00fc
fe00
fe6a
ff07
fe03
0255
fe39
00c1
0002
0152
fe83
fdc0
0431
fefc
ffbe
0436
019b
033a
027d
fcbb
0163
ffa0
00be
ffd8
005f
00ed
0298
039b
024c
014b
fe66
ff9b
ff0d
0180
02b5
00e2
037f
ff5f
0057
fb28
fdba
ffd1
006a
ff4d
0141
01ca
fd81
0209
01b6
01a2
fd18
045d
fd12
fbcd
ff66
02ea
fef6
00ba
01a9
fe6d
02dc
fee0
fe9e
fe17
ffe3
0227
ff33
ff55
fd9d
00d5
00e3
ff4c
0191
fc1f
fedb
fed0
003a
ffa6
fdc0
02e0
01d8
01e7
fdd0
fe98
ff30
ff6c
0181
025c
fca7
fda4
fd61
01cd
ff36
fe46
ff56
00ba
028d
fd75
fecc
fd31
fe1b
fdf7
0185
001b
fffe
000f
0222
0133
016e
0232
002a
febf
0333
00c3
fde1
035b
0288
fd83
0062
0234
fd51
024a
fb7b
fd49
0056
0122
0237
ff7a
003e
02d1
02f8
fbfb
ff83
03c9
026e
026e
02eb
0189
fc07
007e
fdfd
fc73
02a9
0376
00cf
ff11
fd76
ff27
fe6b
fe55
01fb
ffdc
01e0
011f
fe0f
00f2
fd23
ff9f
ff08
ff49
015d
fd7a
fd71
fe63
fdab
015c
fe45
01b7
fc60
ff39
019d
ff0d
010d
03f7
00f3
fe27
000e
004e
fe57
01de
0188
00ba
fe66
fdc0
fff4
02f2
fe5f
ff33
003a
ff09
00fc
ff11
ff9a
006a
0220
fe6c
fe57
0368
0181
02de
fecc
00f5
006d
fe31
0394
0192
fed9
ffed
fcba
feab
0057
fcdc
fd1c
0014
012e
0264
feb4
0097
0121
0213
fbfe
01ff
00b8
fffa
0008
fea3
feb0
039a
00cc
044b
fee5
ff6a
fe56
ff0b
fcba
ff24
0315
ff22
0192
ff58
ff73
ff05
01a8
0204
00e7
00c3
ff90
ff06
01ed
fe2d
0243
023f
fd1d
000f
0191
fd33
fe0b
03a1
ff3f
02b1
039b
fdca
02cd
fd91
ff43
0058
0295
02ba
04a3
fe99
ffad
ff49
fdce
01f7
008c
016f
0036
022d
0158
fe64
ff60
022a
fed2
fc6a
ffd3
0187
ff4c
0054
00d2
0415
001d
0018
0081
00c7
0183
03bc
fe95
027a
00ad
0280
0074
0295
0182
0281
0209
0027
00a3
fdf1
0143
06d1
0178
ff6f
0139
011f
04ea
00ac
02b0
0264
fe44
fe68
fe65
ff86
fd13
ff6a
fefb
02d0
fb86
0124
fd47
012e
fb8a
013f
ffc6
0257
0141
01ca
0086
0087
ff2d
021b
0312
0099
ff3f
034d
fbd7
fef1
0305
0083
01e4
02cd
02f9
ff54
0150
fe74
00b3
ff6f
ffad
0064
003e
fdef
fdab
003c
ff91
0123
fe50
fc7a
00d0
0299
fd85
0010
ff16
0261
0321
009a
0010
00ea
01ed
ff13
ffc9
043b
fef2
02af
fe93
ffca
fc45
0150
01a6
fc30
fc75
fef4
fe90
00f1
ffd4
0247
02ef
ff8a
fe5a
fc9a
fd0a
ffbc
01b4
00f5
fead
0397
00b6
fd91
ff0c
0102
fd27
0034
fe95
01b7
00b4
ff95
fe5b
023a
fb8a
0117
fcfe
fd7f
02d2
05d7
0236
ff7b
fe5c
0347
02a6
00c0
010f
feea
feb1
ffed
01cb
00b5
0042
fe95
030a
01a2
fc30
fc85
fd9b
fe70
0279
032c
026d
01e7
0200
fcab
fef3
ff01
ffb7
ffc1
031f
feae
fc6f
fe33
04b3
fe05
ff65
00a5
0159
ff53
fe32
ff1e
00ff
ffaa
fde0
01e1
0038
fcd3
0275
ffea
ffda
fe70
0268
0057
fe5b
feb9
0206
01f9
ff97
fc4f
fe28
00e1
febb
fe8d
0047
fe8d
fdcb
fbea
ff45
027a
01b3
0136
04a1
005d
fe64
febe
fcfe
feaa
021b
ff06
0185
fab9
fc1e
fe7e
0178
fc1f
0153
ff39
00d7
ff07
fd03
fd59
fd00
0114
0056
00c9
fcac
fd9f
febd
fd46
015c
ffd4
028f
0054
fee5
fd0f
01ba
fc85
0297
0203
01c3
fe06
ff9b
ff25
ff83
00ec
fc92
024e
ffa8
fd04
0351
fd55
fd85
013c
0133
0238
01d4
fecc
00d3
01d9
feba
ff45
fdc5
ffa2
012c
ff68
fe7f
00ee
0094
00b6
001a
007e
fede
0282
fe61
fdb8
fef7
fe9c
02b8
006a
0349
fff4
fff1
fe21
02bc
0014
00c2
0080
028d
0230
ff89
00d8
fca9
ff69
0264
ff2e
003c
02db
ff7e
017c
01e8
0210
fe09
02c6
0285
01ff
02fe
013d
fe8d
00dd
017c
0138
febe
ffea
ffa6
0046
0380
fdd5
ff46
ff38
0351
03ff
fd46
fe92
009f
014e
00d6
00fb
faee
0092
01bf
ff11
0312
fd6e
febb
fed5
01aa
027d
03bd
fd7d
fffa
ff98
feee
fc24
0191
fc4b
ffd1
ff90
00df
ff00
0181
ff61
fc73
027f
02e4
fe54
00ae
0356
fe52
feeb
0214
ffde
fddf
fef6
045b
01f9
002a
0066
024f
0268
01e6
fe8b
00e4
0160
ff40
0086
fef0
0239
018e
022d
00e3
0139
01d2
021d
fdae
02c9
fd68
0187
ff6b
011e
fd88
0270
006d
ff3d
0271
0081
fe0c
0085
fdda
00ab
ff52
014c
01a0
00b4
fcc5
fd2f
0011
01bb
ffa9
fe87
fed5
ff71
ff06
0125
0097
fe44
fecf
fddc
fed2
fd86
ff14
ff23
ff76
ff7e
0261
fd76
ff99
feaa
fce6
01e4
fecb
01d3
feaa
fb46
008e
0087
01e1
004e
fedb
01a1
01a5
ff92
fe48
0115
0229
0016
ff03
0093
fc7e
fbdf
fd5c
005b
fe1f
ff8b
ffd4
016c
0200
01c7
fea6
01eb
03d2
fe5d
fe56
fcd0
fcac
fe50
01f2
0054
0111
ff21
fee8
00db
fd3e
0100
ff5a
ffc9
01c6
01b2
fe77
032e
ff2e
0105
fed3
ffd5
0172
0164
fc4b
003f
fd69
0012
01a1
ff2c
fe7f
fdbc
01ee
fe88
fe9b
032d
0133
ff46
0210
00d0
ff3e
ffc3
fdca
fdc0
00d4
0139
01fa
ff44
fd43
0259
ff96
0043
fd68
fdf0
0079
03e3
fe6c
fee0
ff39
0358
ffdb
fde9
fe7a
fd21
040e
0004
ff81
fe11
01c2
02e5
005d
0237
01a9
fec4
ffd0
fc75
fd91
02f6
fe86
02ff
01f4
ff7a
fdc6
fea9
fe51
fe49
02f4
00ae
ffda
ffb7
ff2d
02d8
fe68
0355
fea7
024b
fee0
fd3b
fea4
ff27
fe33
fdc3
0197
02e7
ffec
fcd4
0092
00ab
fe04
ffcd
fdd7
ffe4
fcf4
01c6
fe9b
ffda
0046
fe42
fcba
026b
00be
fed7
00c2
fc9b
ff82
0048
0350
02b5
fd46
fe70
026d
0364
007b
0051
007c
0068
ff61
ff41
fedb
0055
fe1b
fff7
0157
0004
0290
ffba
fd1c
fdd8
0259
0222
feca
004d
0224
fda5
fdeb
00f7
fe17
0102
010c
002d
fc29
fee6
ff24
00dc
02b3
0043
006e
0137
02e6
ffeb
ff46
01b6
00b8
ff09
0090
fd48
fe09
0136
029e
ffc6
ff8d
008b
fef1
ff2b
00d2
00ca
fd81
00d2
fedc
feeb
fe7a
01dd
018c
fe7e
00e5
ff43
0146
ff79
ffc9
fcf8
ffb9
ffb4
fcab
feb7
fdf5
001a
fdc8
ffd0
00b0
fd34
ff9b
fda9
ffce
000c
ffa5
0014
02c8
01ef
fda0
0092
fe41
fd20
020c
fcd1
01e0
01d4
0046
fd21
00fd
fccd
017f
00eb
000b
0117
00fd
030b
0275
0145
02d7
fbf4
0270
0380
0152
02c8
01fc
0156
012b
019c
0300
ff72
00d6
ff36
0496
0054
0115
ff6a
0220
ff96
00eb
fdb1
0184
ffd5
0052
023d
fef5
ff5b
fe86
02d2
fe52
008f
fee7
0165
0068
021d
0338
02c3
00be
feb9
002d
0094
016a
01d8
02c1
ff75
01a2
ff79
fe8d
fd6c
fda9
fd54
044a
0128
0223
03c9
fe18
00de
feb7
fe31
ff81
fe68
00ef
feb4
0289
00ab
02a0
fd49
ff35
0291
0223
0162
008c
02b0
00ef
025f
01cc
fe4a
fd04
fee7
01eb
fc32
ff0a
0124
011b
fd76
fd95
00bd
025e
0277
ff75
fe91
ffa1
fe10
fdec
fcc9
0458
0254
0190
fd0a
00ca
0032
ffae
fd99
0180
0338
fea9
fa90
00f9
ff30
ffcb
ff82
ff45
ff1c
0060
0367
ff5b
0410
0002
ff99
fe92
017a
04cd
01ce
043b
000f
feef
002d
01ec
015d
fdb5
ffdc
019d
ff34
fd8d
0190
fee8
0005
02b5
fcfd
01d0
fe83
00e3
ffe5
0074
fe99
0295
02e6
0266
fecf
0052
fef1
01d2
0173
ff01
00bb
fdbd
ffac
fe1f
026e
030c
02f2
035e
fdea
fedc
00fa
fe01
007a
012e
fcc2
007e
fd34
03b7
fdb0
fed3
006e
0025
04d0
fff8
fcc8
ff28
fe08
fe90
fdf6
013c
ff59
fe09
0178
0180
fdbf
0014
fcaf
0050
fe9c
fec1
00d1
007d
ffb6
fc7d
042a
fdd9
017b
fdad
02c1
fd90
fe2c
0490
ffb3
fe43
023d
01c9
fe0e
0077
0079
02c6
ffef
02f9
febe
fee9
ff75
0320
02a1
ff40
0011
fd5b
ff1e
fdb7
0462
fef4
0299
fbf4
fe28
039f
0111
fda2
fe7a
0196
fe7b
0244
0089
fe03
004d
011c
fcec
0062
ff45
fedd
