1041
0f40
1090
0f13
0fa5
0fb9
0fcf
0f7a
10c5
0da8
0fe2
0f7b
0ea2
0fca
0f46
1141
0fe3
0ec8
0ee2
0f82
0eb3
0ff0
1072
0d4d
1040
111e
0d69
0dff
1149
0e71
0e3c
106d
0f3f
0e2c
0ec5
0f49
0f49
0e46
0ff0
1099
0e70
1009
0f0c
1084
1021
0f8b
0f57
1095
0f0e
0f43
105d
109b
0fe8
0e84
0e65
113c
1189
1013
1064
0fd8
0f5c
100e
1048
107d
