ffea
fee4
fe19
04ef
0219
027f
fae9
f9c9
00af
fea3
f974
fccd
02d5
f903
fd3d
0111
fddc
fe06
016d
ff28
fffe
0066
fdd2
ffd2
0094
fca6
fe49
ffee
fc80
ffd8
ff82
ff65
ff10
015b
ffcd
0154
001f
0021
fdf2
ff2b
0056
fe6d
fdc5
ffd9
00c6
0036
007b
fed9
fe8f
0018
01ac
ff9a
0154
fdaa
ff3e
00c8
ff73
fcf6
010b
00e1
00ca
fe3d
ff67
fe04
