ffdc
0012
ffd5
0062
0046
0029
0067
0022
0030
001f
000d
000d
ffd7
002d
0048
003c
fff7
0013
000a
0022
ffe0
001c
0051
0010
0028
002b
ffce
fff2
ffe7
001a
ffe2
003b
ffd9
0004
ffb9
ffe8
ffd0
ffcb
002f
001e
0002
ffda
ffba
ffcd
ffcf
002a
ffef
ffef
ffff
0020
ffb0
0026
ffc5
ffc5
ffd6
0059
0028
ffeb
ffe0
ffe3
ffae
ffd4
ffaa
0026
ffc4
0016
002e
ffc1
ffc7
ffc5
fff2
fff5
0002
0054
0076
0024
fff8
0027
0025
ffa6
000d
ffab
ff95
ffb2
ffda
0025
001c
ffe5
ffcd
fffd
ffec
fff0
ffc6
003e
ffc4
002b
003a
0045
ffd9
ffe3
ffd9
ffcb
ffd3
0027
0042
ffe6
fff5
0004
001e
0026
ffd9
0016
ffee
0068
0045
0030
0007
ffef
ffe9
ffdd
fff6
0030
0027
0010
ffe4
ffe1
ffdb
000a
0030
ffe9
002a
0048
0013
0024
0023
ffee
ffdf
0013
ffd3
fffb
003d
002b
ffe8
001d
ffd3
ffe3
ffd2
ffd3
ffc7
ffdb
ffa0
ffc1
ffc0
ffc2
0028
0045
0048
ffbe
ffe4
0005
ffec
0013
ffe7
fff7
0022
ffd7
ffb1
0014
003a
ffca
0010
fff3
000f
ffd6
000e
0042
ffc5
0031
ffb9
000a
0016
001b
0029
0022
ffae
0023
005f
fff1
0062
005a
002f
ffd7
0023
ffbe
ffbe
ff97
ffe3
ffb8
0005
002c
0031
fff0
ffa5
fff3
ffcc
0045
0010
0006
0008
fff2
0002
0040
0036
fff0
fff7
0042
0028
000c
0038
ffee
ffca
ffbc
0041
fff0
0037
fff1
0023
004b
0045
ffd7
001e
0016
fff8
ffcf
ffdc
fff2
ffbb
ffcc
ffc9
0016
fff7
0037
0009
003f
ffd1
001b
0019
ffc8
001e
ffdf
0002
ffe5
000d
ffcd
0038
ffca
0001
001e
ffce
0028
0035
001d
ffb6
ff9c
ffab
ffcf
ffa7
ffcb
ffca
0032
006b
0001
0025
ffc1
fff0
0003
003c
ffe2
0048
001c
0001
ffcb
003e
ffe3
ffbe
000d
002d
ffc2
fff6
003a
0015
0048
ffd8
0025
fffd
0036
ffe9
004e
0043
0009
0062
fff0
0055
0026
0032
0001
ffd3
ffd6
0021
0028
ffd2
000e
fffd
fff7
0038
0002
ffe5
fff2
ffcf
0027
000e
0017
0033
0061
0069
0027
ffe6
ffc1
fff4
0043
0042
0025
0008
0007
ffec
ffaa
ffd3
fffc
0008
ffdc
fffa
ff7e
000f
ffd4
003e
ffeb
ffe9
ffc7
ffaf
ffbf
ffe5
ff95
ffe5
0033
ffd3
0054
008b
004a
0028
0031
001c
ffb7
ffc8
001a
001e
001e
ffcd
000a
002b
003f
fffd
ffcf
001c
0003
fff8
0042
ffd8
ffd7
0033
ffc8
ffcf
ffd0
000d
ffd4
0008
ffd7
ffaa
ffef
0022
ffd7
003b
0031
0054
0022
fffe
000f
fff8
0026
0010
ffa0
ffd3
ffcf
001c
ffbc
ffed
ffa6
000a
0009
fff2
fff1
0001
0019
fff2
0035
0035
0038
004b
0046
ffda
ffc4
0013
ffe2
001e
ffe4
ffdd
fff4
ffb5
0003
ffcd
ffee
0010
fff5
004c
0070
0021
ffcb
000b
0023
0031
ffa4
ffb6
ffd2
002e
000f
ffdd
ff9e
003a
0000
ffbc
0013
003c
0024
ffd1
003f
ffbb
fffa
001a
ffda
0007
002d
ffda
0028
0033
ffd6
fffd
ffb9
0020
ff94
ff9a
0013
004c
ffe7
0017
ffc0
ffd4
0042
0036
0039
fff0
ffa9
ff99
0016
ffd0
fff3
0046
ffe6
001c
ffdc
fffa
ffe2
ffd2
002b
fff0
0015
fffa
ffe2
ffcd
ffee
ffb8
0030
0013
0028
0028
0004
0023
ffdb
0012
0017
0007
004a
0021
0021
0062
ffd7
ffe3
ffef
002d
ffb5
fff1
0013
ffcd
0003
ffd0
ffb3
002f
ffc5
ffed
0018
fff8
ffd1
ffda
0050
0019
ffe4
001e
fffa
0003
ffa5
ff99
002c
ffca
0014
001e
0026
0026
004d
ffea
001c
ffdb
0037
003e
ffb2
ff99
000f
003a
ffd2
ffe9
0053
0021
ffe7
fff2
fff3
0068
0061
0023
0034
ffe2
0027
ffe5
ffff
0028
004d
0039
ffd0
0025
003e
002a
ffb9
fff7
fffc
0020
ffe6
001d
000a
ffdc
ffba
0040
fff1
002b
005c
0003
ffe0
fff0
ffc4
fff4
ffe0
ffd7
002c
003d
0047
001f
ff84
ff95
ffe7
ffe2
ffca
000f
ff92
0024
004b
0011
0024
ffda
0024
0037
ffe5
ffd2
0007
ffea
0028
ffd9
ffc6
ffe5
ff89
ffa5
ffaa
ffe5
ffe0
0019
001b
ffcc
0011
002a
0016
0007
fff2
ffc8
fff8
fff3
0040
ffcc
ffbd
ffc9
001c
ffde
ffc5
0039
fffe
000d
0002
0043
0011
ffe0
fffa
0024
ffb3
0015
ffc9
ffe6
ffcf
0024
0020
0039
0011
fffb
0042
ffda
fff1
ffd4
ffda
ffc3
ffd2
001d
0018
ffb8
ffe5
ffc9
ffcd
0000
0021
fff9
fffe
000f
0058
ffcc
0020
ffe4
ffcb
0005
ffda
fffe
ffd6
ffda
ffba
0004
ffcf
ffd8
0026
004b
0047
0076
008d
0070
ffda
0048
0008
ffd9
ffcb
ffef
0023
ffd4
fff1
fff5
fffb
0009
ffc5
ffbf
ffeb
0006
0029
003d
0000
005e
000b
ffe0
ffc3
ffdb
ffd7
ffee
ffe6
ffed
ffca
ffae
fffc
0000
0009
003b
ffdd
ffca
001c
003b
ffee
0027
ffef
ffe1
ffea
0010
001f
0001
000d
0044
ffef
002b
ffdc
0025
0000
fff0
000d
001b
ffc4
0020
ffe6
002d
0026
0023
0030
ffd7
fff6
000c
ffd4
001c
0026
001b
ffc2
ffc2
ffd6
fff5
fff2
ffcf
0024
001c
0016
fff7
fff6
004c
fffd
fff5
001a
0024
003d
ffe2
ffd3
ffe4
ffac
ffaf
ffd3
0023
ffd0
0024
ffe3
000d
002c
0019
000a
0020
ffd2
ffce
ffff
002b
0004
ffe1
ffe1
ffe7
0015
0047
004a
fffb
0004
0027
0038
ffda
000a
001e
003b
fffa
003a
0021
003a
0017
001c
ffb6
ffaf
fff4
ffab
ffd9
ffbb
ffdc
0038
ffe9
ffe0
ffb4
ff99
ffde
0013
0001
002f
001b
ffcb
fff0
ffef
0001
ffdc
fff1
004d
0033
fff9
ffd1
0019
ffe2
ffb2
ff9d
fffc
002a
ffe3
000d
ffed
ffc6
0001
004d
0045
006f
fffc
0033
001c
ffc5
ffd9
ffb3
0012
0024
0014
0040
002f
ffdc
fff4
ffea
fff4
ffc6
fffe
0034
0020
ffe0
002a
0002
fff7
000f
0003
000e
0025
003f
0036
ffea
0012
0015
ffe8
000a
ffcc
fffb
ffd1
ffa9
ff9c
ffd8
ffe8
ffa2
0044
ffcc
ffe8
fff1
ffb1
ffe4
ffd0
001d
0041
0011
000a
0005
ffd5
0058
ffe5
006e
ffe6
fffc
fffb
0017
ffc9
002b
0028
003f
000e
0007
0046
001e
fff2
0022
ffc5
ff92
ff94
002c
0062
000a
0018
0036
ffcb
0055
ffe7
ffb8
001f
001c
ffff
001d
fff8
0010
000d
ffee
0028
ffb0
ffd0
ffc9
fff2
0053
ffdd
ff9c
0040
0093
0080
006f
ffd1
0039
0009
0045
004c
ffd2
003d
0022
ff91
ff93
ffdc
ffeb
ffe3
005e
fffc
001e
fff6
0066
ffec
ffe3
ffb6
000d
ffea
ffee
ffef
0049
003f
0011
ff9a
fffd
ffd5
ffd6
fff8
0028
ffca
0003
ffd2
ffc7
ffca
ffc0
ffef
0017
ffcc
004a
0067
003c
002f
ffb3
ff8f
ffb9
ffc6
ffe3
ffd5
0027
000a
0001
fffa
0029
ffbc
ffd5
ffb2
fffa
0054
000c
ffd9
ffe4
003a
ffab
0035
fffb
0014
0016
0023
0007
ffb2
001e
ffd1
0027
fff0
0027
fffe
ffc1
001a
ffd9
0053
0007
0033
0046
fff7
ffeb
ffc6
ffd3
ffe7
ffb8
ffdf
fff6
006a
ffef
ffc7
ffb9
0022
001e
fff8
002e
ffbc
0038
004e
ffe3
003f
ffe5
ffc5
ffb8
ff9a
ffc5
fff5
003c
0013
ffa8
fffe
ffd2
ffe2
004a
ffda
ffd7
002d
004c
0026
0058
0027
001c
ff96
ffd9
0047
ffcf
fff2
002a
0037
ffe1
fff0
0056
0085
ffd1
ffc0
ffc7
ffbd
0000
fffc
0028
fffb
ffbb
ffb5
001e
ffc6
0018
003e
ffc9
000d
ffd3
ffc2
ffff
0063
004b
001b
ffd4
006d
0001
0009
fff4
005b
0063
001e
001a
001b
0016
ffed
003a
ffe7
0025
ffe3
ffbf
0015
ffa1
ffc5
002c
002b
0000
ffc6
ffcc
004a
0015
ffd3
fff8
004b
0032
ffe6
fff7
0004
0006
0052
ffb2
ffb8
001f
ffe2
fffa
000f
fff0
0012
0035
000a
ffdb
ffc7
ffe6
ffdf
0009
ffd7
ffae
ffef
ffbb
0015
0045
ffef
0046
fffd
ffa9
ffcb
0015
ffe2
002d
ffb1
ffed
0010
0008
ffda
003d
ff87
ff9c
ffee
005b
0047
0002
002e
000b
000e
0060
0047
0010
ffaa
0003
0057
004d
ffd5
ffa1
0019
0033
ffc9
0003
0017
ffb0
000d
fffa
0058
0022
005e
0062
ffaa
ffe1
ffc1
ffef
000a
ffcb
ff85
0008
0023
ffed
004b
ffb4
0016
0006
0062
ffab
ffcc
0021
ffbc
001c
002e
ffdc
ffd2
0019
ffa8
ffca
0017
0060
ffd6
ffd3
000c
ffbe
0064
0030
0092
fff9
002b
ffbe
ffa9
fffc
ffe6
ffaf
ff85
0069
0010
000f
ffc2
ffe1
0033
0011
ffcb
ffc9
0086
0025
0027
ffaa
0015
0059
001b
002f
0015
ffdc
ffdb
001e
0000
003a
ffe2
0020
0042
0055
0043
ffdd
ffad
ff98
ff74
001c
fffc
ffcb
000c
0050
ffac
ffdb
0005
002d
ffdf
007b
007d
0027
004c
0047
fff9
007f
ffd5
004e
0037
0009
ffcf
002b
002f
ffa0
ffba
ffa6
003c
0046
0075
ffe4
ff8d
ffe4
0020
ffc5
ffc8
ffb6
fff0
fffc
0041
0038
002c
0025
0049
ffe1
fff9
0060
ffbe
000d
000d
004b
002d
0031
ffe8
ffd3
ff92
004d
ffef
0025
0025
ffcd
fff6
0070
0054
0041
0028
0028
006a
0044
ffe2
ffe6
fffc
ffc2
0025
ffc5
ffeb
ffc2
ffac
ffe3
0023
ffec
005a
ff92
ff97
000e
0023
ffc9
ffec
ff8b
fff3
ffc5
ffd5
ffd9
ffe9
0013
ffce
003b
001b
003f
0007
ff7e
ff87
0064
005c
fff9
0029
001e
001f
0047
002d
fff1
0025
ff8f
fffb
ffc6
0043
ffd5
0055
004a
0000
ffdc
003f
ffe4
ffd8
001b
fff6
005b
002f
0011
ffa1
0083
0018
ffbe
ffad
ffc2
ffcb
0072
fff8
0008
ffc9
004a
0017
0049
0010
fff8
ffda
002c
0046
0001
0029
ffb6
ffb7
0027
0034
0027
008c
0018
ff87
ffd3
0012
0058
ffab
0024
0036
0060
0049
ffe3
ff7e
0026
0064
ffd4
0003
fffa
ffa9
ffd3
ffc0
0057
ffb8
ffb8
ff47
ffb3
000a
ffa3
ff9f
0044
ffae
ffd9
fff6
0071
0051
ffbf
ffa8
ff91
0020
fffe
0085
001f
ff9b
ffe2
fffd
005c
0000
0019
ffe2
ffbd
0050
0044
0037
000c
ffeb
ffc5
0015
fff5
0024
ffd8
0011
0005
ffb3
ff9b
ffa0
fff4
ffdb
ffec
0049
001a
ffe3
0021
0043
ffcd
0011
0036
0051
0046
003f
0051
0039
0033
ffbe
0027
ffcd
ffd4
fffd
003a
0018
ffc1
000e
ffd3
002d
0042
ffe7
ffcd
0034
0014
0013
0007
004b
0007
000a
0027
fff3
0026
ffbf
0016
0006
ffd9
001d
ffab
ffab
ffe5
0009
ffd3
ffd3
ffb4
ffe6
0038
ffe4
ffff
0037
005c
0066
0057
0027
ffa9
ffb3
0005
ffcf
ffed
0012
ffe8
0004
0014
ffd0
0052
002b
ffda
0046
0028
0088
ffd3
ffc5
ffcb
fffd
000f
ffed
ffb5
0038
ffc4
fff6
0010
fff4
0022
004e
001f
0017
000b
0044
fff9
0017
ffc9
0026
fff7
ffe3
0006
ffc7
0015
fff4
002c
ffdd
fff1
ffcc
0016
0023
005d
ffe5
ffdd
ffd8
000a
0022
fffd
0037
ffcb
0004
000f
fff8
fff8
0000
002b
0020
0010
000b
ffd5
ffe7
fffe
ffc3
ffe1
ffb7
ffcf
0039
002d
0036
001d
0014
ffc0
003a
001b
004f
0049
ffe6
0021
fff3
001d
ffde
ffc3
ffb6
fffe
0006
fffa
fffc
ffd2
0031
0020
0009
ffd5
0025
fff1
001f
ffd2
0035
0012
fffe
ffe9
ffec
fffb
0002
000d
003d
001b
000d
ffc3
0010
ffe8
ffd2
ffce
ffdd
0021
0026
004a
001d
002b
0041
005d
0063
002d
ff9b
000f
0021
001d
ffde
002c
ffe2
0035
0037
ffed
ffd9
0019
ffb6
ffb6
0018
0029
ffb5
ffdb
ffd1
ff9c
002b
fff6
0008
ffcb
fff6
ffbb
0013
ffe5
fffb
ffcb
0013
ffea
0001
ffeb
0044
0010
006f
fff3
0029
ffd6
0008
ffc7
ffc9
ffd2
002a
ffe7
0017
0033
ffb1
ffcc
0044
001d
0045
005a
fff5
004c
0031
ffed
ffb0
0052
fff0
fff2
000e
ffd2
ffc1
ffd5
0027
ffdd
002f
0025
ffc7
ff92
ffb6
ffe0
002e
fffd
0011
fff6
ffeb
fff4
0033
0005
0014
000f
ffed
ffd2
fff8
ffa4
ffe7
0008
ffc8
ffc3
ffc9
0010
fff1
002f
0077
ffad
fff6
ff93
0007
ffba
ffc8
ffb9
ffdc
ffd7
ffb6
ffbf
ffdb
ffcf
001f
0030
ffc1
004d
fff0
0045
ffec
0004
ffeb
ffdb
0006
ffdf
ffdd
002d
fff2
0002
ffc9
002b
ffe3
ffb6
fffb
ffba
0053
003e
ffba
ffc5
0032
001e
0059
0070
0010
ffda
fffe
fffb
ffc8
fffb
0035
002c
ffe4
ffc2
0000
ffb2
ffe8
001c
fffa
fffa
001b
0010
fff1
0028
0034
ffd9
0019
0048
ffe6
0049
0003
ffee
004d
0074
ffd9
0010
0003
0066
002a
000b
ffe7
0043
ffe3
001e
ffec
0042
005d
0069
005c
fff9
fff5
ffd3
002e
ff9d
ffe3
ffc8
ffed
007b
0072
002c
0013
ffc0
ffde
ffc0
ffba
ffaa
000b
ffdc
0003
ffee
001f
0031
0008
004a
ffea
0033
0075
006b
0047
0019
0017
003b
001d
0030
ff97
0018
0006
000a
002b
0048
000c
0019
0018
ffd5
001c
ffb0
002f
ffde
fffb
fff7
0012
003a
0017
ffee
ffbe
0038
ffc6
ffdb
ffc9
ff9f
ffe8
0001
ffd7
ffb4
0007
0005
0049
ffe7
0035
ffbe
ffdc
fff2
ffd6
ffd1
fff9
0006
ffe5
ffb9
ff9b
002f
0004
001b
ffcf
fff4
fff3
ffca
002c
fff5
003e
fff9
0019
ffdd
000e
ffd8
ffb2
ffff
ffd4
ffaa
fffa
fff4
0057
fffe
0080
001a
0035
0015
003a
ffca
ffe3
ffc9
ffd1
ffc4
ffd9
ffe6
0045
0006
0019
ffb7
ffe6
ffef
0019
ffe1
ffb9
ffd0
fff9
ffb4
0010
0029
001d
ffcc
ffbc
0002
ffbb
ffce
0042
ffb8
ffc7
003f
002f
0070
0011
001c
ffbf
ffb4
ffe3
0028
fff2
000b
fff2
ffd4
0022
0067
0006
ffea
0023
0007
fffc
ffdf
003d
0002
0049
002c
ffb2
ffec
0016
fffc
0068
001d
000b
000e
ffc8
ffde
ffda
fff9
ffc5
ffd7
0022
ffcf
ffba
ffeb
ffc0
0012
0022
ffd2
0027
ffc7
0038
ffe5
0040
0009
001e
ffec
0042
0036
ffd5
0037
0005
ff89
ffbd
ffd4
ffe4
ffc4
ffc8
0028
ffbf
ffe1
ffa5
ffc8
fff2
0042
0009
0003
0016
004f
0011
005d
ffe0
ffdb
0033
ff9e
0054
003a
000e
ff8b
ffd4
ffcd
ffd8
fff1
ffbf
fff6
ffc1
0018
ffd7
fff7
ffee
000a
ffed
004f
ffa7
ffef
ffd7
ffee
002d
003c
0023
0027
ffde
0021
0010
ffec
ffb1
ff67
ff99
ffd3
ffdb
ffe4
0038
0070
ffd9
ff9b
fffe
002e
006a
ffbc
0032
001c
0025
ffe1
fffe
fff7
0043
002a
003e
0063
0062
005c
ffe6
ffa6
0003
fff6
0047
ffae
ffa9
0006
ffe4
0035
0051
0038
ffcb
0020
000a
ffd9
001e
0019
0048
002b
0039
ffb9
0057
005a
003e
0023
fff6
004e
0040
ffce
ff9e
ffaf
0026
0047
ffe1
ffb9
0025
fff9
ffc6
ffcc
0013
ffd0
ffae
ffde
0016
ffd3
004c
0038
ffe2
003a
0055
00a1
0005
ffb1
002e
ffd8
0030
ffed
ffc4
ffaf
000c
ffd9
ffb9
fffb
ffe8
fff2
000a
000c
005b
0023
005c
0042
ffc9
ff87
ffbe
0020
0013
0003
ffe5
ffe7
ffa8
ffcb
0011
fff1
000a
0039
0049
0034
ffe2
ffe2
ffbe
ffc2
ffd7
ffc7
ffe7
0015
0029
0038
ffd5
000e
ffb5
ffdb
0038
ffc2
000c
ffda
ffe6
ffef
ff8e
ff8a
007e
0063
0050
ffd0
0043
ffda
ff9b
0002
ffd7
001d
0033
0013
000f
0036
ffc2
0022
0052
003f
ffc3
ffb5
001f
fffd
ffc8
003b
ffa7
ffdc
fff4
0013
0069
0008
ffd8
ffe3
ffec
0045
ffc9
0001
0063
003e
fff9
005e
ffd2
ffb0
001e
ffb8
001c
fffa
ffa3
ff99
fff1
fff1
fff7
0007
0043
ffc3
004d
0093
ffd5
001f
ffd5
004b
fff0
ffed
ffb1
ff95
0011
ffaa
0039
ffae
ffe6
004a
fff9
ffdf
003d
0067
002b
001e
ffe7
0023
fffd
ffb0
0002
0005
0050
003e
ffc7
0011
ffdf
fff5
0035
0014
000e
0033
0061
0019
006b
0009
0054
ffb1
0008
0040
0000
fff6
007e
fffa
0010
ffde
0021
ffc7
ffbd
0012
ff95
0012
ff9c
001c
005a
0043
0021
ffc1
ffd6
ffd2
ffdf
0001
ffc0
ffc2
ffbf
0032
ffe6
ffe5
001f
0069
ffe1
001f
ff8a
ffd2
0034
fff0
ffdb
fff8
fffa
fff3
0044
000c
0013
fff8
0009
ff9f
ff96
ffed
ffe4
ffef
fff5
ffea
0022
fff7
ffe9
ffd6
ffd8
0012
ffd2
fffb
0048
0050
003d
0082
0009
ffba
000c
0009
001e
ffb4
0013
ffe9
ff87
ff7f
ffa3
ffc1
006f
000b
ffd8
000e
0015
006c
001f
0008
002e
004e
002e
0002
0014
ffa9
003b
ffb6
ffd4
0013
005b
ffe8
0007
ffd9
ffee
0047
0045
001b
001d
0064
005b
ffb6
ff9c
0006
ffb3
000d
ffb1
ffd1
ffbb
0034
0050
ffc8
000d
ffd0
fff3
003e
0022
0065
0018
005e
0012
ffa0
ffa9
002b
0057
ffcc
0035
ffce
ffff
0053
fffd
0059
0017
ff96
ffab
0023
0026
0013
0007
0064
ffff
0041
ffb9
003b
ffd6
ff98
ffe5
004a
0077
0055
0066
ffec
ffb1
fff3
ffed
ffeb
fff7
0014
ffd1
ffbd
ffd5
0004
0014
fff1
0010
001e
002b
0031
ffdb
0031
ffe6
ffca
ffaf
0035
ff72
ffa5
ff83
ffd2
0048
ffe0
0014
ffd0
0035
ffeb
000e
fffe
ffec
000f
ffcd
ffd3
000c
ffd2
0038
ffc9
ffcc
0041
0029
001d
0031
001d
0001
ffe6
ffbd
ffbe
0047
0012
ffc1
0031
ffcd
0020
ffd4
ffbb
003a
ffec
0065
001c
0075
fff6
001a
0045
002f
ff9b
0021
ffd8
004c
0047
003b
ffeb
0010
003d
0013
000b
005f
0057
006b
0000
ffa9
ffa3
002e
ffc1
0039
ffe3
ffe8
fff2
fff7
0051
0008
0004
ff90
ffff
ff86
ffa0
0031
0050
0046
0057
0022
0007
002a
ffbb
0008
0000
ffd4
0022
ffdf
ffed
0013
0013
ffe7
fffa
fff4
002c
0033
ffb4
fffd
ffd5
0039
0041
fff5
ffda
0042
ffc3
ffcd
fff7
ffaa
003e
0014
fff5
0029
001c
ffba
002f
ffce
fffa
000d
ffef
ffe0
ffce
0045
0035
ff8b
ffef
0038
0056
ffee
ffcf
ffd4
003d
ffed
ffb9
ffc5
ffd5
0055
ffdc
0008
005f
0029
003c
0047
ffac
ffdb
001f
ffda
ffcc
ffb1
0016
004d
ffb4
ffdd
0029
ffb6
0033
002c
0031
ffc5
ffaf
ffbc
0027
ffce
ffe8
004b
ffef
001b
fff3
0015
001a
ffe8
ffca
0033
0038
0042
0036
ff8b
0005
ff9a
ffec
0016
ff99
ffe2
0006
ffd3
ffb6
0019
0013
002c
001d
ffed
fffe
ffd8
ffea
0025
0046
ffd1
000a
ffd2
ffb0
ffe8
0025
ffcb
ffff
ffa5
ffcd
002d
ffdd
ffe8
0003
003c
ffe7
0001
ffa4
fff6
ffc6
0002
ffe8
ffec
ffdc
ffde
ffda
002a
ffed
ff8f
fff2
ffc6
fffa
0032
002f
ffb7
0042
ffda
0013
0018
fffe
002c
fff5
003a
004c
ffdd
0033
ffd2
ffea
fffd
ffc9
0001
ffde
ffe6
ffa0
ffb6
0001
ffc9
fffe
0039
0021
004e
0053
0040
ffbe
0058
ffba
fffa
0040
002e
003e
003c
ffdb
ffde
ffe2
ff7b
ffe9
ffe5
fff9
0036
0044
001f
ffd2
ffa9
fffe
0009
003c
fffc
ffcf
0034
0042
0048
ffe5
fff4
ffef
ffe8
ffbb
ffd2
ffe5
002f
ffd9
ffa1
0032
002f
000f
0000
0055
0059
0062
0045
ffce
fff5
fff9
fffd
ffd2
ffad
ffa3
ffdd
ffcd
ffa3
ff98
ffd5
0018
fffb
ffc9
0013
ffc6
0064
004e
0038
ffc5
ffca
ffc3
ffbe
ffcd
ffec
ffe9
ffdc
ffbc
ffcd
001c
0035
ffcb
0015
001c
ffcb
0005
fff0
002b
ffda
ffe3
fff4
ffcd
fffe
0027
0034
ffe1
ffe7
ffe4
ffed
0001
0002
003f
0051
0028
ffdc
ffe6
ffec
fff5
fff7
ff95
0038
ffd5
0034
0047
0039
0043
0001
0032
0016
fff1
fff9
0054
004a
0023
ffc3
ffea
005c
ffd7
ffbb
ffe0
005f
0072
000b
0051
002e
003c
fffb
ffb3
fffe
000c
ffe7
0022
ffde
0011
0011
fff4
ffdb
ffe4
0031
004e
000c
0029
ffc9
0048
fff4
0024
ffe1
0052
003d
0035
001d
ffd3
0022
0014
ffa8
0022
0031
ffbf
0039
ffb9
002a
ffbc
ffce
ffcb
ffff
ffd1
ffda
ffc4
001d
0006
0030
ff9d
ff9c
002a
0003
0078
0016
ffbe
ffc1
0006
0000
003a
ffd2
fff2
ffcb
ffc8
0011
ffa2
ffa7
0016
ffc9
ffd2
ffde
fff5
ffc8
ffe6
0032
0011
ff95
ffe4
ffc5
0013
ffb9
0042
ffef
0013
001c
0009
002c
ffff
ffae
001d
0073
0030
000a
0042
0038
003b
003b
005d
0004
0061
ffea
ffc6
fff7
ffda
ffcc
001d
0001
ffe4
002f
ffe5
000d
ffe7
0035
ffdd
ffcd
ffd9
002e
fff0
001a
004a
ffd8
ffd6
004f
fff8
0015
ffe1
0008
ffb0
ffaf
fffa
0066
ffc5
0009
ffce
ffe2
002c
ffee
000e
ff99
ffdc
ffd7
ffe2
005e
000a
0072
009a
0008
ffdd
ffbc
ffea
ffd4
fff7
005d
0007
ffa4
0012
0034
0013
000c
005e
0003
ffda
003a
0034
007e
ffcb
ffd4
ffa2
ffb9
0037
000f
004a
000e
ffd6
0026
004c
0017
0018
fff7
0062
ffe1
005b
ffe1
ffe8
ffee
ff92
ffbd
0041
0037
0011
ffe1
0038
0004
ffc8
0037
ffe6
fff9
003c
006f
007a
0008
ffd7
ffbd
001c
ffe3
004b
ffae
ffd2
fffe
ffd1
0053
0000
ffc0
ffe9
0006
ffe0
ffc0
0004
0014
0005
ffad
ffaa
ffcb
0055
0012
0018
003b
0035
ff9c
001f
0040
000c
006a
0050
ffec
0010
0054
000d
0026
ffbb
ffe4
0017
0078
ffe4
0019
ffed
ff8a
0017
ffde
ffc8
000e
0052
ffe6
ffc7
002c
004f
0029
ff93
ffd1
ff98
0000
ffac
ffa9
0003
ffe8
ff83
ffb9
0037
003b
ffaa
0014
0036
0062
0051
001e
0048
ffdd
002e
ffa2
ffa0
ffa9
ffac
ff95
0028
ff7e
000b
001e
001d
ffdf
fffd
0018
0007
002a
ffc5
ffd1
fff9
ffde
ff87
ffb2
0004
000f
0030
ffda
0008
0020
ffb0
ffb6
0010
ffb3
fffb
001d
000c
0033
0053
0035
0066
003c
001b
ffeb
0006
0012
ffb7
0048
0073
fff0
ffce
ffa2
0028
ffd7
ffc5
006a
fff1
0013
0013
0043
0017
0042
0051
ffc5
001b
fffc
0019
0030
ffab
0030
0021
0027
ffb6
001e
ffec
0000
ff9f
ffcb
ffb5
004c
0041
ffda
0038
001d
006a
fffd
ffea
fff3
ffd7
0021
ffd2
0009
fffb
000c
ffb6
0042
ffdc
0021
fffa
ffcb
ffd0
003b
0027
fff3
000b
ffc4
ffab
ffa1
002e
0031
0000
003f
ffe8
0019
ffe7
ff96
ffbe
0010
ffd0
001f
0042
ffe7
ffcf
0028
0065
007b
000c
0044
0066
ff96
fff2
fff2
0045
0046
0026
ff94
ff97
001c
004c
ffa8
ff78
0015
ffcb
007d
0021
0046
ffc8
ff84
002c
0057
007d
0059
0054
ff8d
0013
ffe5
0074
0099
fffa
ff66
fffe
ffa9
0061
fff6
006f
ffc7
ffdb
ffa9
ffb5
ffe9
0058
002d
0033
ffdc
ff80
fffb
0023
ffa2
ffda
ffed
001a
ffe6
003c
005a
ffbe
fffd
ffe8
0073
002a
0055
002e
ffde
005d
ffc3
003e
0057
003b
ff8c
ffd2
fff2
ffc6
0000
0069
001b
004f
000e
fff9
0040
0058
003c
0027
ffab
ffe4
0049
0051
007d
ff3c
ffe8
0017
004b
ffeb
ffc4
fff3
ffed
ffff
003e
0041
000b
005e
ffc5
ff67
fffb
0064
0080
003f
0047
ffe0
ffbb
0001
ffc4
0017
0059
fffd
fffe
ff92
ffd2
004b
ffd4
000e
ffdc
0008
0005
006c
ffb4
ff72
0029
0041
0007
ffcf
0065
ffcc
0058
ffb1
ff9c
0008
ffed
001b
ff9d
ffcd
0059
ffe3
0009
ffcd
004d
0081
0056
ffdf
ffbc
ffec
0039
ffa4
ff93
ffc2
000e
0024
ffb5
0047
ffb9
ffee
0058
0041
00a0
0020
0011
0027
ffd5
ffd8
0062
ff89
0005
ffbe
0043
001a
0032
ff9e
ffd2
0021
006c
003a
002b
007d
0036
001e
0023
ffce
002e
fff9
fffe
ffca
0023
000f
005a
004c
ffd8
0020
ff8e
0030
ffec
0061
ffd2
fff0
ff91
0003
ff97
ffeb
0059
ffd5
004f
0013
0058
0044
001a
ffbc
00a1
001d
ffdc
fff0
fff9
ffab
005c
ff98
ff7f
0038
ffec
0024
ffcc
0042
ffe1
ffe1
0005
ffef
ffa7
0076
004a
ffa2
ff94
ffe1
ffc6
0079
0078
0024
0029
ff8b
003b
003a
0008
ffb0
0062
0042
ffb1
002a
0008
0025
004d
ffd5
ffe8
001a
0064
ffe8
ffa9
fff5
0011
fff8
008d
0004
0028
ff8f
ffe6
fffe
005f
ffd6
0033
ff78
ffb7
ffbd
0042
0012
0046
0001
0043
ffe2
000f
0043
002d
ffe6
ffaa
0009
ffab
0019
0039
ffd3
ffaf
ffbc
0059
fffd
ff9e
ff90
ffbf
0017
0022
ffa8
ffa2
000a
000e
ff9f
ffa7
ffe3
0049
000b
ffc7
000c
0049
002e
005a
0023
004b
ffba
ffaf
ff9a
0021
002c
ffbf
0038
ffd2
003d
ffbb
000c
ffe7
fff9
0010
fff7
ffca
ffe9
0021
ff87
0015
ffdf
0023
ffbe
ffed
000b
0005
ffb5
0020
0008
ffbc
ffe6
ffe4
ffd2
0040
ff9c
ffa5
0015
ffed
0029
0030
ffcd
002d
ffd8
0050
ffb7
0001
0043
ffd7
000f
0004
fff0
0001
ffbe
ffe7
fff7
0060
fff2
0000
000f
000f
ffa3
0045
002c
003d
0022
ffa9
ffd8
ff90
ff78
001f
0056
003f
0017
ffcb
0003
0035
fff4
ffc4
ffb8
0048
0047
002f
0044
0019
ffad
ffc4
ffd0
ffc6
ffcc
0062
0084
006f
ffc5
ffd3
fff9
0077
0038
0004
002e
0048
ffc4
ffb1
ff9e
ffc0
0029
ffe8
0025
ffcb
0026
0021
0027
fff2
0015
0057
0040
0038
000b
ffda
ffc3
ffbb
0002
ffee
ff8f
ffe7
fff1
0033
0023
ffdd
0048
0026
0027
004d
000f
ffc2
ffd1
fff2
fffd
ffd8
ffe9
ffd3
ffcd
ffeb
002e
003d
fff8
000a
fff9
001b
004b
0028
0092
0021
0042
0044
ffb3
0002
ffc3
000c
ffef
001c
0007
ffc1
ff8c
ffd4
001e
ffe7
004a
0042
004e
ffec
0064
005c
004f
0044
0055
ffc4
ffc4
003b
ffad
ffa3
ff91
003a
002f
ffef
ffb8
ffe8
fff7
0013
ffdf
0026
ffa0
ffdc
ffbe
ffb4
0057
0038
0046
0026
ffd2
fffa
ffc0
ffb9
0044
ffcd
fffd
ffa8
ffba
ffaf
0005
002d
0047
0034
0029
ffd4
ffae
000c
ffe7
0008
004d
ffeb
ff92
ffd0
fff4
0011
ffd6
ffb2
ff84
ffc5
ff9b
fff1
ffe7
0068
ffb9
0010
0036
fff8
000a
002c
0059
0058
ffa5
ffab
ffa8
ffdb
ffc0
fffa
ffc5
ffb6
ffe1
fff9
0047
ffa9
0002
0035
ffd8
fff0
ffb4
0057
0016
0043
ffec
0039
0041
0057
002e
0005
fffc
005b
0019
ffde
0044
fffa
ffe1
ff9b
ffd3
0034
002d
001b
ffac
0007
ffe1
0059
003a
0002
007e
fffb
003c
ffb6
0016
ffc7
fffb
0051
fff2
ffcb
0042
0064
001b
0043
ffb3
ffc0
002a
0007
002b
0029
ffdd
0012
005b
0063
0018
fff5
003b
fff0
fffb
0015
ffab
ffc0
ffbf
ffb8
ffb2
001a
ffbc
0008
ffea
0048
ffc7
ffa2
ffc9
0012
ffba
003c
005e
003c
fff5
0066
fff1
0003
0015
ff8a
ffb7
0018
ffdd
ffde
0041
0014
ffcf
0046
ffff
0004
ffc7
006a
0032
ffdf
ffb3
ffb2
0009
ffd0
ffdc
ff91
0029
ffcb
0046
002d
ffb5
004b
0045
005c
0055
ffc1
fff7
0043
0016
0006
ff9b
fffb
0020
0031
ffc3
fff3
0037
ffe2
0013
ffdb
ff94
ffaa
001a
ffee
004e
000b
001d
001a
001b
001b
0012
0038
ffea
fff0
0050
ffc3
0022
0020
ffc3
ffcc
ffd7
ffc8
0039
ffdd
0017
ffb4
0040
0010
0007
ffb7
fff4
fff4
ffe6
001f
fffb
0069
fff1
002f
0027
0012
ffde
002a
0020
ffaa
000e
ffbd
ffbf
ffb7
ffa7
0012
003f
ffaa
ffe9
0005
ffdf
0005
0052
008c
000b
0045
004b
0031
0011
0008
fffd
ffee
ffbe
ffd9
000c
002f
ffc5
fff6
003e
0005
0010
ffd6
007b
001b
004d
0053
ffba
0012
fff9
fff4
ffde
ffa3
0031
0005
ffce
ffe3
ffd2
0036
ffb0
ffec
0014
0068
002b
ffeb
001e
ffd5
fff5
002e
ffd2
ffad
ffd8
ffad
001c
0023
0063
ffdb
ffef
0023
ffe6
0025
0005
0002
ffb9
0016
fffd
0045
ffd3
ffdf
ffe0
0039
ffc3
0031
ffd1
000e
0035
ff8b
ffba
ffa4
ffa0
001e
ffb0
0001
ffc3
ffb5
ffe2
ffd0
ffcb
fff6
ffb3
0013
000a
0011
ffea
ffed
ffe1
fff2
ffce
000f
0033
ffb4
ffe4
0001
004d
fff9
ffac
ffd4
ffd4
fff1
0042
000c
ffec
0027
ffe7
002e
0049
ffe9
0004
ffd9
0010
ffcc
002a
0053
ffe8
0019
ffcc
0068
fff9
0026
ffb0
ffd5
0033
0021
fffa
0029
ffcb
ffe5
ffe4
001b
ffc9
ffe5
ffba
ffbb
fffb
ffb8
000d
0028
fff4
ff9a
ff98
ffda
ffac
001e
0011
fff1
0056
001f
002b
0021
ff94
ffad
ffc0
ffc7
001d
000f
fff2
ffe3
fff6
003d
ffdb
ffc9
0022
0042
fff5
ffed
ffff
0012
000b
ffab
ffe7
0019
fff3
0039
0012
0025
0048
0057
ffed
0061
0029
ffb7
ffa1
ffda
004d
0055
ffdb
0022
ffee
ffe6
001e
0048
004f
ffcf
0032
0019
000f
0047
ffba
006b
ffe6
0015
0001
0006
ffd6
0024
0009
0050
0005
0069
0062
0031
0052
ffd6
fff1
007c
0026
003b
0009
002b
ffee
0054
0018
0005
ffd7
ffc0
fff3
0006
0013
0007
ffe0
002d
ffe5
004f
ffe5
001e
0021
ffea
fff2
fff0
ffe7
005c
0005
006f
002c
fff8
ffd0
ffe3
ffa9
fff3
ffce
ffd1
ffe7
0004
ffbd
ffae
fff0
0000
0012
0042
ffd9
000c
ffc4
ffae
0026
ffa7
fffe
001a
ffff
000f
ffd7
ff95
ffe1
ffe7
fff4
ff9d
0032
0047
ffea
005c
0009
ffee
ffc6
ff9d
ffeb
ffbb
ffe6
fff6
ffe2
ffe0
ffdf
ffbe
fff2
fff5
fff6
0008
003c
0001
0045
0013
ffe5
001e
0038
0007
fffc
ffca
0022
0030
006d
fff4
003f
ffdc
0017
0018
0031
0038
ffe6
ffb1
0023
0034
0038
ffe6
ffe8
ffe5
0034
ffe8
0015
0055
fff8
0064
005d
001d
0028
0027
002a
fffb
0022
fff6
ffe6
fffb
ffe1
ffcc
ffe4
ffe3
000e
0021
0002
0048
002e
ffe4
0046
ffe9
ffdb
000f
ffe4
0033
001f
fff5
0060
ffd3
fff9
006b
003c
0031
0012
ffce
000a
0001
0000
0029
0077
0007
ffe7
002e
ffbf
ffbb
ffe4
ffdb
ffca
ffea
fffa
0039
ffee
0020
0002
ffbf
0002
0042
0029
0052
fffb
ffe2
ffcb
ffb9
ffa1
0027
0029
ffe8
0011
0045
ffdb
fffa
000c
003f
0001
ffe9
001b
001a
ffc1
fff4
ffe3
0020
0010
0056
003b
fff6
002c
ffcb
0008
0037
ffb1
ffe2
ffaf
ffd3
ffce
ffbb
0005
ffa9
0043
0044
001e
ffcb
ffa8
ffaa
ffca
ff85
ff7c
004e
0060
004a
0030
fff5
0016
ffc3
ffa7
fff4
0031
002c
ffb4
ff9d
ffd2
0040
0010
009b
0029
ff98
001b
001d
ff86
0006
ffad
0024
ffa0
0020
ffd0
ffd2
001e
ffed
0018
0007
0036
000c
003f
0032
0008
ffad
ffbe
fff5
0035
ffce
ff91
004b
ffdd
0032
0024
ffa3
ff95
ff85
ffd3
ffcd
ffd3
0042
004c
002b
0028
ffeb
ffd3
0028
ffdc
0015
ffd7
005c
0051
0076
fff3
ffe0
ffd4
fff3
ffc7
0064
0039
000f
002b
002d
ffb5
0042
fff1
ffc1
001c
0031
ffc4
0032
ffee
ffd2
ffa8
001f
002c
0032
0037
ff9f
000d
0046
fffb
ffeb
ffd4
006c
001b
0053
0024
0062
ffea
ffbe
fff8
ffec
fff7
ffee
0049
0017
000b
000b
ffe1
ffed
0020
fff8
000e
0051
fff1
ffdb
0041
0073
0051
0055
001a
002f
ffd4
ffbb
0047
ffe5
ffb3
ffc3
ffeb
ffde
ffba
fff5
0016
fff0
ffd2
0024
ffcb
0010
0002
004f
0052
ffba
0059
0076
0071
004c
ff93
004e
ffd0
ffba
0028
fff9
0053
ffa6
002c
ffdb
ffd8
ffe5
ffa1
0005
0022
ffca
0024
006a
fff1
ffff
ffcc
ffe5
001d
0007
0014
002a
0018
006e
ffc4
ffc4
0051
ffaa
0049
001e
002e
ffce
0012
0033
ffd1
ffe2
ff9e
0000
ffed
ffef
0062
0039
0038
ffee
ffaf
fff8
003b
0020
002d
002a
ffb5
ffe3
ff5f
ffba
003d
003a
ffe2
001d
ffc6
ffeb
ffce
0059
0015
ffac
ff79
ffa8
ffeb
ffd6
0031
ffc1
ffad
ffc5
0065
ffe5
005e
0066
005a
ffc0
006a
0006
0068
ffea
002d
0016
ffca
0045
fff1
0024
ffd9
ffef
0056
0032
0027
0046
ffdc
004c
005b
007a
fffb
ffdf
003b
fffb
ffc8
0057
000e
ffc9
ff96
fff0
fff1
004f
ffcd
0053
004f
000c
ffbf
ffb8
fffe
fff8
0032
fff9
fff1
ffdf
004d
fff8
0028
003f
003c
ffcb
ffa7
ff93
0020
ffce
0037
0032
ffc5
fff5
0018
ffbb
ffb8
0054
