fdcc
ffa7
fe5e
0012
01b1
fe91
ffe5
fe50
ffc2
0051
fddd
01ca
ffef
fff6
001a
fe46
ff3f
01ce
006c
ff1f
fdb3
00af
fdd6
ff0a
fd81
01a4
fe3b
ffe3
fe9e
ff92
fd75
016f
0108
0064
fdf9
00ec
fdf4
0245
020a
00fa
fe02
ff21
0016
ffc0
ffbb
ff1a
ff6d
fe31
00cc
0133
fe14
0052
ff28
023b
fdf2
fef5
0097
02b9
012f
0256
ff4a
fd32
0275
fec7
fe9d
ff17
fe58
ff98
ff83
fe6a
0034
ff4c
0011
fda1
0118
fec4
01ea
fec1
011c
00d7
ffea
ff99
011d
00b8
00ed
fe3c
0169
fe80
fe1d
ff10
0237
ff47
fe7a
0121
ff35
00d5
02e3
020a
ffb1
01e1
030f
0311
0234
fe09
010e
ff78
fd13
ff0e
fe65
00f2
fcad
023b
02f1
01c1
fda0
025d
fdd9
fefc
fc7c
fd9b
ff47
fd5e
fded
0189
0275
fee5
ff8b
fec5
fc8b
0348
0271
fdab
007e
fcf8
0176
0154
fdbb
feb0
0013
fece
fd45
0199
03ed
fd65
0144
01bb
fea3
0214
00eb
012c
fdaa
0128
fcad
0063
02f7
02a2
fcc8
0074
00b5
fd1a
0010
0051
fd02
ff51
0090
0392
fcd2
033b
0310
02ff
007b
fd2a
ff82
0161
0217
00f1
fdeb
02da
0131
02b0
00bf
037b
fe9e
015e
fed2
ffba
fd4d
fca7
ffa2
fd31
0058
016a
fe8f
01d2
fe75
0179
016d
032d
ffe7
009d
fdaa
0194
ff2b
fe38
fdcd
02da
027c
ffd8
026e
fde0
014a
ffb9
02c2
0070
01ec
01f1
004f
ff46
0135
0235
fd3e
01a0
fe60
01a9
fd93
01b5
031f
ff3b
fde4
ff51
ff44
ffa6
fef7
0064
0261
ffd1
0111
ff0f
ff20
0275
0105
ffbb
005c
fffc
fe1e
020a
0094
fdd0
ffe0
ff23
ffdc
feee
008a
0256
fff1
fe56
014f
ff2a
0152
ff02
fe03
ff53
fd91
01f3
ff8b
027d
00c5
012d
01f7
0230
ff52
00bf
0155
021d
0195
0035
fe6d
ff3e
0058
ffdf
ffda
ff67
fec0
005d
fe0a
0042
021d
fe15
fea9
01de
0023
fec2
000d
002c
ff62
ffe2
01e4
0015
0049
0104
ffe4
ffb2
fed6
fe2c
0153
0282
fdf2
fee8
0078
0252
feb7
01ab
fe15
0098
014d
feb7
0116
010c
0145
0056
01df
fda0
fea9
008c
02cd
ff1b
0228
fe84
0025
fe80
fd30
0263
fe96
fdf3
011c
0140
feba
fe1b
015b
00fe
ffcb
0098
feb8
026b
0190
ff7e
01c6
0205
0128
00e8
ff7d
fde3
ff9d
0138
0083
00c6
ff57
00c4
0183
0015
ff36
01f8
01db
003e
ff8b
fe4b
ff39
fdf8
007d
0095
00e2
0198
0198
fe21
001e
00d3
fe90
0094
fef6
ffd7
0170
0225
ffac
fe6d
ff09
0087
0047
00a0
019c
ff4f
01e0
fff9
fdd6
0002
ff77
01a1
fe08
fe5f
fe01
fe83
0217
fd95
fe2d
0266
fe1d
013b
01ea
009a
fe73
fe7c
0281
027c
fde8
003f
feea
0249
fe0c
0166
ff9a
0176
0169
fece
ff06
fe0f
00b7
009e
01ce
fd93
01ed
ff90
fd9f
fff6
ff48
fe47
01fc
018e
00c8
016e
00c6
00f1
01e2
01f1
ff7a
fded
00c8
fdce
ff27
00a0
fe2c
fe70
01bb
fec7
ff6a
020e
01fe
0066
ff35
ff1b
ff33
fe67
00fe
014c
00df
ff39
021c
01bf
fe7f
ff6b
ff2b
015a
ffb3
00fe
0031
fe40
00c9
004f
fe81
fdd9
008b
00e9
016b
fe15
ffac
fe20
01ae
fea4
ff49
ffc3
0120
febb
ff04
fec2
014b
0127
001a
fefc
fe44
005f
feb7
0169
021f
ff37
fdba
0172
ffe8
017d
002c
ffe5
fe45
ff0c
fe7c
01fd
00ae
0178
00b5
ff81
0103
fe8b
00cf
fd9c
fed8
0163
01cb
0276
008e
fe7a
ff60
ff21
febf
0200
fdec
0169
0111
fe69
012d
0212
feed
ff01
0160
0012
015b
015f
00f6
ff6b
01d3
01fa
01da
fed2
013f
01a8
00f0
fe83
fe13
fe5c
fe10
ff7d
01bf
001c
fdbe
01c0
00ba
013d
014d
ffef
0065
01de
fe13
019f
fdbc
01bb
feda
0131
00c8
ffdd
fff7
0233
010b
ffda
ff83
fff8
ff76
01fa
0059
0199
fda2
0014
ff58
0276
01e3
016e
0007
00e3
0220
0077
00f9
0128
00ef
fe71
fdc7
ffcf
ff40
002f
fe32
ff03
fe51
025d
0090
ff8c
019c
01ea
fe56
0246
ffbf
fdbe
0278
0064
0130
028f
fefd
fe33
fe1c
020e
0072
fe9b
0081
fe78
029c
fe59
ffd5
0153
000f
ffad
ffc9
007a
00ac
0238
fe63
00a9
0279
01e6
010b
ff23
0189
ff5f
0170
01cf
ff50
fd68
0018
00be
fd64
0181
007f
fd9a
0292
016d
ff1e
0002
0229
028f
ff46
fdc7
fed2
ff1b
0147
02f1
ff9c
017c
0281
fd56
02ce
fdda
ffdb
ff5e
fecb
0287
0045
fefe
0127
0193
003c
ff20
fe9b
ff74
ffcc
0119
01e6
fe3d
00a7
01aa
fe89
01dd
fe87
0197
02d5
0198
ff2e
01c3
001a
ff72
ffd5
fee9
015f
ffa9
02c0
fda4
fe12
ffe4
01c4
ff24
00f2
00ba
0199
ffed
fe43
002d
01dd
fe21
0195
01f7
fdc0
0155
002a
014a
ff8a
02df
fd80
0217
013e
fda2
009c
fdc2
0063
fd7b
ffa6
fd9c
0193
01d5
fd7c
fe70
ffb6
fd37
02b4
0270
fe6d
0113
ff65
fe43
ffe3
ffd6
fe0e
010f
fd4a
fde5
005d
0173
ff40
fdcb
0269
fd38
fda9
fffd
0250
ff99
fee0
0067
01c8
019b
00d7
005c
013c
0162
0066
ffd9
ff7c
0152
00e8
fe6b
0144
00e0
fe5a
0161
fe76
ffd4
ff08
0086
ffb3
021c
0180
00cd
004f
01dd
fe98
ffbc
0181
ffaa
fea1
fe2d
ff20
fe5f
fff9
0158
01d6
feca
feb4
fe34
fee1
fecc
feca
ff1d
0165
fe5d
0109
feac
01f2
012c
017f
00e2
fe4c
0085
006e
0162
0019
0054
00f6
00d7
ff69
01be
ffae
fe50
ff2b
fdf2
fe60
fe1a
fe12
0212
01ad
00d1
02be
fefe
006e
01bb
fe39
fd2b
01ff
fd2c
fd35
fd9c
01bf
038b
0184
feb4
fee2
fe72
ff29
fd6a
027b
fc79
00e6
029b
fedf
005c
0217
fe4a
004d
ff6f
00df
fe79
ffdf
00ff
fe13
0034
0222
fe15
02c8
fdb4
fe24
fd18
00f8
01f2
fd2f
0204
ffd3
fd83
ffc6
ffdc
034c
0273
02a6
fd1b
003b
ff71
fe0f
0091
fd5c
fc22
00ec
0262
0166
0016
fcb6
ff58
004a
0121
0039
01a8
fffb
fea1
fe30
0146
fe05
00cd
ff40
01ab
00f9
0038
fe2a
fd68
fe55
00a2
012d
ffde
0142
fda8
fd91
01e0
01ce
0103
fe44
ffe8
fe31
ff7f
0049
01eb
ff77
0115
0125
fe8b
fe81
fe43
0107
011d
00c2
00e2
0102
00b2
0009
012b
00c3
fe9f
ffe3
ff4b
00f3
fe3f
0164
0040
01a0
ff3f
ffa0
0216
01d0
fee8
0030
feaf
019c
00bc
0073
003b
ffdf
013e
012c
01cc
ff15
00f0
000e
0213
00b1
febc
009d
ff93
fdf9
fe28
ff8b
0143
ff73
fe45
0118
fdf9
00d9
022c
fed1
001b
ff44
0127
0167
0167
fedf
0139
015c
ffef
febe
0065
fe61
fe7c
0193
005f
fea0
ff4d
0153
fdf7
00c6
0136
0088
fe6b
012b
ff55
ffcc
fe5d
00be
ffdf
fe13
0141
0050
00e4
