fdc1
00d9
0210
014e
ffe8
0150
ff05
01bf
ff30
02c7
fee2
018b
fe28
fe58
ffa3
ff84
0100
fc93
fdd3
feb9
fe5c
ff9e
01fe
ffa9
0007
0069
00c6
0000
ff9d
ff58
fde7
0019
01c9
038b
00b8
ff25
fd51
ff9b
fd99
0119
fff5
01a4
ffe9
ffa9
0229
0131
01d7
010b
fed0
0082
fea2
fde4
009d
fec1
022c
ffe7
ff0f
0020
fdde
fdef
0137
0189
001e
fcf0
014f
022d
020f
ffc0
fffa
01a1
ff76
fe9d
fe9d
fec0
fe21
0092
fd4b
feb5
0215
0110
fccf
0291
fe1b
0261
fdc2
ffd8
0035
fdd4
fd35
007a
fe70
02da
0235
0143
02c8
003f
fd8b
0090
ff65
fe2b
fe74
fd4d
027b
00fe
025d
fd98
ff08
004d
fdb7
01f5
fe62
fe24
0044
0096
01af
ffce
fd93
ff41
ff44
00bc
ffb1
01a0
01e6
01f6
fe01
0051
fde1
008c
ff23
0265
fdd0
00e1
0079
fd72
0170
0042
00f4
fe3f
ffe4
fde8
0276
ff78
02f6
fd35
fbf3
fdb1
0104
032f
0090
fd1a
fd4b
fde6
03f0
02a7
0124
fe56
018c
fdfe
0336
0020
02af
0284
fce3
fcd2
fe49
0183
fd6f
0362
0118
ffdf
01b1
017d
005f
03bd
ff6c
ff0c
00fa
ff47
03be
fda0
fc4a
fe11
0262
fee9
01f4
ff19
0181
02e5
000d
0266
01d2
fe84
0093
01ba
fdd6
00a2
007c
fda4
ff6c
004f
fdfc
fe23
fe3c
0018
0076
fefe
fe70
fe99
0087
0166
fd65
fc7e
fdb4
0001
fea1
ffe2
00bb
0089
fede
00ee
ffec
0246
fdc0
0129
ff4f
ff59
fd5d
feaf
0130
0290
0105
007f
fea6
fe0b
ffa9
fdd8
01a8
ff87
fdc2
01c6
ffc7
006f
ffa5
fdcd
fd1a
0201
ff4a
ff43
015f
ffa2
0000
0139
ffa9
ff42
febd
fe1b
ff8b
018f
014a
ff88
0180
0036
ff90
005b
ffc1
fdc7
fe48
fdf9
fe9b
fee0
ff98
01c4
feba
ff8f
fe98
ff13
fe5e
0092
004e
fdce
fee2
fe7f
ff96
fe41
016e
fe90
fe85
0180
00d6
017b
002e
fe3a
ff0a
003b
01ce
0094
fecd
fd10
febf
fe22
0251
fed5
0018
fe7f
ff55
00d0
ff3f
0180
fe00
0160
01cc
fee7
0044
0023
fe21
ffd5
ff03
021b
ff38
010a
fd28
0058
fd9b
fe62
ffa3
ff34
0173
015f
0211
0287
ff6c
fe15
ffc1
02c6
027c
017e
0059
fe14
ffad
01d8
ff96
ffae
009b
fe58
ffd2
ff79
ff36
ff9b
fd60
febf
ff2a
01af
0119
fff0
0261
ff0d
01aa
ff0c
ff54
029b
fe6d
00cc
fe2f
fe65
fd69
fd20
0044
0153
feb7
fef7
00fd
fe94
ff77
0081
fd37
ffae
fd7c
ff23
fe7e
fd38
01ee
0151
ff9c
fed6
007c
00ac
018e
ffd6
0141
ff41
0204
0107
010a
fffb
fdbb
ffd3
fe22
ff3b
02ed
fe24
fee4
ff79
fe08
00b0
0421
00f8
ff0f
02aa
0018
0025
0115
00d0
feac
fe7f
030f
018b
0194
000e
024f
00de
0019
ff53
ff66
014f
01b9
fe94
fe6d
02a8
015d
fdcc
ff1a
fdc4
fe40
00bf
fe6e
012b
00e2
029a
0041
00ea
ff4f
fea9
fffb
ffe1
0336
01f0
0052
0060
fe4d
fe38
034b
fdfc
ff45
fdc1
fd9d
017c
ff42
01b1
0073
fe93
ff79
0214
00f4
fefd
0063
004e
ffe7
00b6
ffb7
0240
ff05
0284
00ee
ff28
ffa6
0314
00f3
ffdf
0106
0198
01b4
01da
fe15
fe7c
ffd9
fe93
feac
01bd
002e
01df
ff2b
00e4
01bf
024e
feff
00bb
fe9b
01f5
01b0
008f
02ae
0114
01a3
022f
ff83
fe77
0132
00b5
0147
ff78
ff16
00ed
ff03
fdde
feed
0209
0290
fe7c
fe39
fd74
01e0
0004
fd5d
0233
fec2
ff16
ff6a
0157
0159
007b
0145
ff7e
00e0
01b1
fdc1
01c5
ffac
0292
ffe9
0035
00f2
fd8b
fe83
fda8
01db
fe6c
01e8
009d
fde8
ffdb
01a2
ffca
fd6f
00b5
016b
ff85
024c
0291
fed2
fdcc
fead
ff43
0178
0200
fefc
ffb6
ffc3
00cd
006a
ff19
0003
ffe1
fe95
00dc
fda3
01f5
ffc6
0185
016f
0208
00ec
008e
fe95
fddf
fdc1
ffc4
ff69
00b8
fdf5
fdc9
0042
ff55
fe9b
0006
0162
01bd
01e0
0237
ffb2
0275
018c
fd23
fe85
0378
002e
0187
fe69
fd3d
fedc
0273
ffc4
001e
ffd4
fef1
0258
012e
fed7
0029
00b5
fd37
fd5f
fffd
fdc3
fe9b
026c
fe1c
022a
fe26
0092
ff1e
0000
fe4c
ffb2
fe73
01a7
ffdb
0101
ff49
fea0
ff8a
0293
fe9e
0301
0292
0216
ffcf
ff78
015e
ffe7
0351
ffb3
00e5
0296
ff51
ff9e
0017
02b5
fdf9
fe2c
01e4
ff25
0083
ffd9
0019
0223
fe98
0333
01ef
0250
0287
005a
0105
ff4c
ff12
005e
000d
ff19
00c8
fdc1
0168
0132
01ad
020f
0199
fe3e
ff49
ff8f
01b7
ff47
02fb
ff0b
0106
fe84
fefe
025a
0049
021c
0054
febe
fe17
fed2
0076
fec8
ff78
00b6
fdfa
fed7
02e2
00b3
0150
fead
ffb6
fdb5
ffec
feea
0279
fe69
005a
028b
0268
011e
fe41
0243
00a7
012f
0247
0135
fdb2
0264
ff21
ffa5
0304
0002
ff35
0111
00d7
fda6
fe5f
02de
fe63
fda7
fe06
00cf
0310
002a
ffb2
fea9
02b4
fe27
fe35
00f4
0169
ff4b
fe25
02e3
fe3b
fe78
fe7f
ff16
fff8
fe3a
0167
0313
fe51
fe29
01d2
ff1c
02b7
fedc
fef6
014f
fdd2
fede
fffd
fe5c
ff02
fff4
ffcf
ffa0
ff51
fded
011d
ff5b
fe98
0012
0074
ff8a
00ed
006a
00f4
00e3
0184
feca
0180
0149
01c1
ffe3
00e6
01d1
ff2c
0129
011a
0031
ffaa
fe86
fdbf
ff85
0083
000f
ff52
fed3
fdd8
fe06
020c
00a9
fe99
ffe9
00ce
0094
ff8b
ff89
ff12
ffb0
fe1d
007e
fdcc
fe0a
fde9
0025
fe28
ffa8
fe70
01e7
0079
004e
015a
fda6
0005
fd29
02da
038f
ffb6
0196
fe66
000b
ffe2
0446
0195
007f
fd2f
fcda
01f9
03c6
ffd5
0037
0258
0072
02d3
041e
ff4d
ffce
fdeb
0080
024c
fe37
0041
016d
0396
02e6
ff75
ff90
02de
0097
0073
fcff
0102
007a
ff42
012d
ff37
0399
0091
ff83
fe90
00a5
0203
ff8b
00f0
0340
ffc4
01d4
01c8
00c3
ff3d
00c4
0162
0196
ff72
fe91
fece
0244
ffb6
fedc
ff2e
017e
fecb
fd62
ff53
fe13
014e
0314
fe8a
fe8a
00e9
005d
0263
0129
00ae
fe8c
fe8a
ff93
fda6
0235
01b2
fe3f
febd
ff4f
ff05
ff99
0299
00fe
ff5f
00fb
ff68
0180
feff
030a
ff38
028b
006b
fdd1
ff02
fec9
013e
02c1
ff7e
ff96
004c
008c
00da
ff5b
0219
0022
013c
00b5
ffb3
012f
fe45
0036
01bf
ffde
fe37
feae
019a
ffbd
018e
fdf2
00b1
0071
ff53
0122
fd49
fe02
0204
00ca
0006
fe62
0028
01f8
feee
ff1e
fe0e
0060
ffe2
00e7
00e1
ffbc
ff9e
fd7f
0227
ffb6
0008
ffc3
00fb
ff32
fe72
01b9
fe54
ff26
fee5
fef1
ff04
00ab
0017
ffdd
ff8f
ffc3
ffe1
0150
00c0
fe3f
fff5
0180
01ac
0149
01b7
008b
fe4a
01d9
fe8d
0061
fe7a
01c5
fda3
