fff3
001b
0009
ffdc
ffe9
ffed
ffe5
0011
0005
ffc6
000c
0004
000b
0010
0020
001d
ffe6
ffee
fffb
ffdc
fff4
0008
0022
0008
0014
0020
000b
fff2
0007
0019
fffc
fff5
ffe9
ffe0
001c
fff1
fffc
0014
ffe7
0039
0014
0023
0017
002a
0034
0034
fffa
0019
ffef
ffd9
fff4
ffd4
0011
0023
0018
ffe2
0007
ffdf
fffb
001e
0012
ffe3
ffd1
fffd
0000
000c
fff7
000a
0024
0020
ffef
0020
0015
fff1
ffd7
ffcc
ffe0
0007
0030
0025
0001
fff4
0003
003a
001c
0046
0037
0027
000f
ffd6
ffe4
fff2
ffdf
fff6
ffde
fff6
ffda
ffdd
ffdc
0000
ffe6
ffe8
0000
0000
000e
0016
ffd5
ffe5
0016
0001
001b
0007
003b
0032
0030
0031
0038
0015
003c
0020
002e
0051
0049
0044
0025
003e
003b
001c
ffe9
000d
fff9
ffcd
000a
fff8
ffe9
0010
0007
0019
000a
0013
0008
ffdc
ffee
fffc
0002
0005
ffd5
001e
001a
000a
ffea
0002
ffd5
ffbf
ffd6
fff2
fff8
0010
000f
fffa
0033
0033
0013
0037
0024
0024
fff1
ffef
ffea
fff7
ffc1
ffd9
0019
ffed
fff5
001c
ffdb
ffd8
fffb
001a
ffe9
0004
ffea
ffef
ffed
0002
fff1
fffd
0035
fffc
0014
fff9
fff3
0002
002b
ffea
0002
ffdd
fffe
fffc
000f
ffe9
ffee
ffef
fff2
001a
0006
fff3
0022
ffd9
ffdf
0007
fffe
0009
0017
ffee
fff8
ffee
0003
fffe
0006
0014
0000
ffd3
ffdc
000a
ffea
ffea
0020
0048
0047
003c
fffa
fffb
0024
0001
000d
000e
001f
0020
0012
fff9
000a
0010
0020
000d
0021
0009
0028
0012
fff8
001f
fff6
0003
0008
ffe7
0007
0010
0026
ffff
000f
ffd2
ffe3
ffec
ffe4
0008
ffd3
fff8
fffa
0019
fffd
ffe9
000c
fffb
fffc
ffdd
0001
000f
ffdc
ffe7
ffef
ffcf
fff5
ffe7
0007
0001
002a
003a
fff5
ffda
ffdc
ffed
0001
fffd
fff7
0015
0008
0008
0010
ffe5
ffd2
000c
0021
ffd3
ffc5
ffe8
ffe3
000b
ffe9
0017
0013
0006
001e
0002
0034
0014
ffef
0018
fff4
ffe6
fffc
ffe0
ffe3
ffea
fff9
001b
0009
fffd
ffe5
fffd
ffdf
ffe2
ffec
fffe
ffe0
ffdc
0010
0028
ffe0
ffe3
0021
fff7
000c
000f
fff5
0013
fffc
0008
001c
fffd
ffeb
ffec
0028
ffea
ffce
ffe6
0003
0015
0028
0027
ffda
ffdd
ffd7
fff3
ffe5
fff4
0012
0024
0007
fffe
fff3
ffc4
0004
0026
000a
fff1
fff0
0003
001f
fff3
ffeb
0033
001f
ffe8
0033
0036
002a
0034
002e
001b
fffc
ffe2
0007
0017
0017
fff4
0015
0001
ffe5
fffc
ffda
fff7
ffef
ffdd
ffdf
fff9
ffda
0000
0000
0000
ffee
0001
ffdf
0019
0005
ffff
ffea
ffef
ffe9
000a
ffec
0008
0012
001a
0016
0039
0040
0020
001d
ffc8
ffdb
ffdc
ffd9
ffcf
0000
0007
ffe7
ffd4
ffdb
ffef
fffb
000b
fff7
fff7
ffee
0006
fffa
ffe6
fff7
ffdb
fff9
0015
fffd
000c
001b
000f
0013
fff1
fffc
ffe7
ffe6
ffe7
fff6
0025
0044
0050
002c
0014
ffd8
0009
0006
fff3
000c
001a
0007
0010
0021
fffd
0020
0035
002c
0013
000d
ffed
002d
0003
fffe
002a
ffe6
ffe0
0001
000b
fff3
fff1
fff8
ffe6
ffd7
ffe0
0013
000b
001a
ffec
001b
001c
ffe3
fff2
0016
ffcc
ffd8
ffe4
fff0
fff4
ffd5
fff7
ffd7
0002
ffe7
000f
0025
0028
0001
0009
ffda
ffe5
0013
002b
0015
0018
ffe9
ffc8
0017
0022
0018
fffa
000f
000f
fff3
0003
fff6
000b
ffee
ffd2
ffe0
0014
ffe4
0005
0004
fff7
ffeb
0010
fff6
0017
0012
002d
0005
002f
0015
ffe9
ffee
fff7
000a
002a
0027
fff2
fffb
fff0
fff0
0010
0027
ffe9
ffc6
ffe5
000a
001e
0029
000a
000a
0023
002e
000b
ffd9
ffdf
ffd2
000e
0002
ffff
fff9
0001
0013
fff0
0004
fff5
0025
0007
000c
000f
fffc
0009
ffff
000c
0005
fffd
0009
000e
ffdd
001d
0005
0029
fff5
ffd4
ffe8
002a
fff7
ffe9
000b
0013
fffc
ffe5
ffef
001b
fff5
000c
ffe3
ffdc
002b
0008
0005
0035
ffec
ffdf
ffe8
0002
0032
fff5
0026
0026
0003
002c
0033
0044
0012
ffe1
ffd3
ffe0
ffc7
fff8
0003
ffe8
ffec
0019
ffc5
ffeb
fff8
0031
001f
ffea
0007
fff8
002f
ffd3
ffd8
ffca
ffe9
0018
000a
ffe4
ffe5
0005
000a
ffbb
ffb6
ffd5
ffd7
001e
0046
000d
0008
0004
000f
0003
ffe3
000a
0008
ffd8
0023
fff3
003c
ffe3
0006
ffdc
ffc3
ffd0
002b
0036
002e
0002
ffc1
ffa6
ffa6
ffb1
0000
ffcb
ffeb
fffc
002d
0017
000c
0000
000d
ffce
ffed
0015
ffe5
0015
0004
ffe9
ffe2
ffdc
fff7
ffcc
ffd3
ffef
0007
fffa
001f
0013
ffe7
ffe7
fffa
0003
fff4
001d
fff3
ffe3
0002
0007
fffa
0000
ffe5
ffc9
ffd5
0022
001f
0029
fff7
ffe6
0029
002d
ffe5
0014
ffd2
ffe9
0003
ffdd
0000
0009
ffdb
ffea
0016
001a
ffe4
0020
ffec
0015
ffea
000d
ffde
ffcc
ffef
ffb1
ffe6
0000
fff4
ffff
fff3
fffa
0014
fffb
0021
002a
003b
0017
002c
0001
ffea
fff0
0014
ffe2
001c
0010
0025
0016
ffe3
ffe3
ffc2
ffe4
ffea
fff3
ffde
fff8
002c
fffb
000b
ffee
fff8
001c
0042
003d
fff5
ffcf
ffe5
0005
fff2
001b
ffff
0001
0038
0035
fff5
fffe
ffe0
0019
fffa
0005
fffe
ffed
0009
ffce
fff2
ffe4
ffc6
ffd6
fffa
ffcb
0005
fff1
0012
0006
ffec
fff7
0006
ffe8
ffcc
fff6
0020
0027
0009
0026
000c
ffd4
ffcf
fff4
ffd1
000b
0023
ffdf
0007
ffdb
fff3
0009
ffcd
ffd0
ffcd
0024
fffa
ffe3
ffe7
ffe0
ffe2
0003
ffea
0017
ffc7
0018
0015
0017
000a
000e
fff4
ffe1
0029
0001
ffbf
ffe1
ffea
ffde
ffef
0034
001b
ffea
ffef
ffff
fff9
fff8
ffd3
0017
fff9
ffc7
ffed
000b
0018
0002
000e
ffd2
fffe
ffde
0005
0007
ffda
fffb
ffd4
fff5
0009
0022
0009
fffe
fff5
0022
002f
0015
fffe
ffd6
ffe1
ffda
ffe4
000e
002f
002d
0011
001e
fff4
fff0
0012
ffc8
001c
0018
ffb7
ffde
ffc5
ffea
000e
0017
ffbb
ffe0
ffd6
001a
ffe8
0026
ffe8
000d
0013
0019
0007
ffe3
ffd8
fff1
001f
ffec
0006
0008
ffe8
fff3
fff8
ffe6
0010
0001
000e
ffeb
ffcf
ffd4
ffe0
ffbf
ffb3
ffbb
ffdb
ffd5
ffe1
0041
000d
0021
002c
fffa
0021
002c
003c
0011
ffed
003c
0033
0005
ffee
ffca
fffc
ffda
000a
0022
0008
fffa
0004
002c
0015
0017
0005
0005
0009
fff1
ffd2
0018
ffee
000a
ffc2
ffbf
ffa7
ff8d
0001
ffdf
0019
0033
002f
000d
0014
ffd6
fffe
0009
0000
ffcc
0006
ffdd
ffe1
ffbe
ffcf
ffcc
fff2
0026
fffc
000e
ffd5
0009
ffe6
0011
0056
0039
0037
0009
ffe2
fff0
0016
0013
0039
ffea
001f
ffe2
ffd8
000a
ffcc
0015
002f
0038
0006
002d
fffd
ffed
ffeb
0014
ffdc
0019
000f
0017
002e
ffda
000a
0011
0017
fff4
000e
fff6
ffdd
001e
0035
002d
ffea
0002
ffe1
ffed
000e
ffe2
0020
002b
0003
ffe2
ffe5
ffdc
ffff
0011
fff1
ffee
000b
0032
0048
002d
001e
ffe8
ffda
ffdf
0008
ffd5
ffc4
ffc9
0033
000f
001f
0018
0013
0018
fffd
0000
0020
000e
ffe8
ffd0
ffce
fffd
fffa
ffec
000d
002f
0034
002a
0034
002f
0020
ffda
0024
fffd
ffbf
ffc9
0011
0012
0034
ffda
000d
fff4
ffb9
ffc7
0001
ffcd
0003
0022
0031
ffff
fffd
0028
001f
ffff
0025
0025
0016
0023
002b
0028
0009
ffdb
001a
ffe2
0033
0037
0046
0035
0024
0038
0017
0038
0023
000d
fffc
fff4
ffff
ffea
003d
002d
0034
000c
001f
0010
fff2
0020
ffe1
0007
ffda
0028
ffdb
0008
0001
0009
0036
0007
0024
ffe8
0003
0019
ffff
0031
0037
0011
0025
fffd
0019
ffe9
ffea
ffff
ffe4
ffed
ffe2
fff7
ffdb
0012
0013
ffeb
ffec
000c
0017
000b
0022
001d
000e
0018
fff3
0024
0019
ffff
ffe5
ffe1
000b
0007
fff8
fff6
ffa1
ffe0
002a
002f
ffee
fff7
fff1
ffeb
ffe8
ffbc
0003
0000
ffad
fff9
ffda
000d
0006
ffe9
fff1
ffe8
ffd7
fff3
fff7
ffb6
fff4
0029
ffe2
ffd8
fff2
ffe9
fffd
ffe2
ffb5
ffe8
0019
ffdb
fff3
000f
ffea
001f
ffff
ffdb
ffc5
ffe7
0002
0039
003a
fffd
fff9
0016
0016
0014
0002
ffff
001a
0004
ffe4
ffd9
ffd2
ffd7
ffd2
ffec
0003
ffd9
0013
0015
0009
0015
003e
ffd8
ffd5
ffcf
0026
0025
0054
0067
0042
0028
0014
0027
fff5
0025
ffe6
ffba
ffd0
ffcc
0001
ffe7
ffda
fff9
0043
003a
0014
0020
0031
0003
ffdb
ffd4
001a
000b
0014
0005
0018
ffee
0002
0027
0007
0018
fff6
0020
003b
001d
0008
ffd5
fff6
ffe1
0014
0004
0001
fff6
001b
0002
0023
001c
ffe5
ffe4
0035
0014
0023
0036
ffec
0007
0053
004f
003a
fff1
fff4
0031
ffe1
0009
0011
ffcc
ffca
ffe7
000e
0008
ffe6
ffe8
0034
0009
0019
0018
002b
0026
fff0
fff0
ffda
fff2
ffe5
001b
ffa7
ffb5
ffa4
ffa6
ffde
001e
0029
0036
0055
0033
000c
0002
0012
0012
0048
004b
001e
fff6
001e
000f
002e
fffb
0020
0009
ffe6
000e
0003
0023
0007
fff8
0010
002c
002a
fff0
001a
000d
001f
000d
0048
ffea
0001
fff1
ffe4
ffe3
ffd7
0020
0025
fff5
ffe9
ffcc
ffd6
0022
0021
ffe9
0028
ffe7
ffe9
001c
003e
0049
0010
ffc9
ffdc
ffe7
0024
0010
000c
0012
0015
ffe6
ffd7
ffec
ffe4
000e
0012
ffe6
ffd7
000c
0026
fff2
0020
ffe2
ffc7
ffdd
fff8
fff2
ffc4
ffcf
ffba
ffd2
0013
ffff
ffb0
ffeb
ffd0
fff1
ffe9
0027
001f
001e
ffc4
fff6
0015
0045
003b
0045
0062
0050
002c
fffc
ffc2
ffc1
0006
ffdf
0007
000a
ffe2
ffc2
ffee
ffeb
ffe2
ffdd
0001
ffff
fffe
ffa5
0023
ffe3
ffc9
ffc7
ffb4
ffc2
fff0
fffb
0011
ffea
000d
ffe7
002d
0001
ffe6
002e
0047
0051
fffd
fff6
0016
0017
0020
0003
003d
002f
000d
0008
ffcd
ffeb
000d
ffff
0036
0017
001f
0005
ffc8
ffea
ffe5
fff2
ffce
ffda
0017
0002
ffe2
fff3
ffd4
0015
fff2
fffa
0017
ffd4
fff2
0022
fffa
002d
0010
0007
0016
003c
0031
0007
0048
004b
ffe9
0025
0003
ffe1
0005
000b
ffbf
ffc1
ffd7
001a
0019
0017
000d
0033
ffe1
ffec
fff4
0029
000a
0015
0027
ffdc
001b
ffe0
0002
001d
000e
ffed
0025
ffeb
ffb9
ffcc
ffed
ffc5
000c
0015
ffda
ffec
000c
ffd0
0001
002f
ffd4
ffe6
0039
005f
002c
004c
0002
fffc
0007
0007
001a
002b
ffe3
000d
0002
fff6
fff6
fff6
0018
001f
0001
0047
002c
0012
ffe5
0027
003a
fffc
0008
0047
fff7
001e
ffd1
0011
ffcb
ffcf
002c
ffdb
fffe
0016
0013
0030
0046
0037
0001
ffdd
ffca
000d
ffe2
0004
ffed
ffdd
ffca
ffe1
0002
0022
fff2
ffcd
0002
0018
ffee
0005
002a
ffd6
0019
ffdb
ffec
ffed
fff0
fff3
ffdb
ffd9
ff97
ffa0
001a
002a
fff4
ffe8
ffa0
ffc9
0008
0026
001c
0072
0020
fffd
fff1
0013
000c
ffda
0027
0025
fff0
ffef
fffb
0025
0003
0001
fff3
0009
000d
0005
fffc
fff1
000f
0010
0002
0009
0029
ffd8
ffec
0008
ffd5
ffb9
fffd
ffff
ffb4
ffd9
000f
ffbd
ffd0
001c
ffe9
fff9
0026
0005
0019
000a
ffff
0036
000c
ffdc
ffc6
0011
0030
0036
fff1
0031
fff0
0020
fff7
ffd0
ffec
fff6
ffd5
0027
0028
fff9
001e
fff7
ffef
fff3
fffb
000e
fff4
ffda
002e
0032
000a
0023
0018
000f
0003
ffe1
ffdc
0018
0035
0015
0039
000e
ffea
0016
fff4
0034
0005
0000
ffca
ffec
ffdd
0028
0002
0005
ffdf
fff6
fff7
ffc3
fff8
ffa4
ffe6
ffe6
0019
0003
0012
0002
ffe5
0043
002e
0004
0014
001b
fffa
000f
0027
000a
002e
ffd1
ffcb
0002
0008
ffdf
0029
000f
ffe1
ffd8
0006
ffe6
001b
ffcb
ffc3
0015
0008
0004
0023
fff2
ffd2
ffe6
ffde
0028
0031
ffea
0032
fff7
0025
ffe8
ffc4
ffa6
ffd5
ffd5
0007
0007
000b
fffa
ffc5
fffb
ffc7
ffdb
ffc5
ffed
ffc7
ffd4
0000
002c
ffd6
ffc7
ffd1
002f
0014
0018
fffe
ffb8
0005
0020
000b
fffa
0005
ffdd
ffca
ffc7
ffc4
fffd
ffd1
001d
ffd0
fffc
003f
001e
ffba
ffc5
ffb5
ffca
fff7
000c
fff1
001c
002b
ffea
ffdc
ffff
0006
0031
fff1
0009
0007
0006
002e
ffeb
002f
ffce
ffbf
ffe2
fff7
0024
ffd0
ffcf
ffed
0028
002f
002d
ffd5
ffd5
0011
0017
ffe0
fffb
ffd3
ffe1
004d
0065
0032
001c
fffc
002f
ffdb
fffa
000a
0020
fff8
ffe6
ffd3
fff5
fffa
001a
0007
fff5
ffcd
0008
0022
0023
002a
fff2
0020
0005
0004
fff9
0001
ffef
0011
fffa
fff3
0010
ffee
ffee
0007
000e
0011
fffc
002c
004f
0043
0005
ffd7
004c
0040
0021
001f
001e
0015
ffd3
ffe6
ffee
0009
fffa
ffce
fff2
0016
000b
ffd3
fff6
0009
ffde
0019
0000
0001
001f
000a
ffe6
ffed
fffc
0024
002d
0034
0007
0009
0028
0049
0019
0055
0035
fff7
001f
0021
0048
002a
0026
004b
000f
fffe
fff7
0023
0039
000b
ffdc
0003
ffc8
ffff
001d
000e
0014
000b
0002
002f
ffea
0014
ffe2
fff3
0027
001a
ffef
0004
fffc
ffdc
ffec
004a
0014
000c
0038
0010
0014
ffd8
0004
fffa
fffb
ffd2
0001
ffca
ffb0
ffdc
0039
0060
000b
000d
ffd0
fffb
000d
002f
002c
fff0
ffe1
0002
0000
ffc8
ffc9
000f
001b
0006
000f
0005
ffce
ffc2
ffe3
0035
ffef
0009
000f
ffdd
0010
0006
fffe
fffa
ffe2
ffbd
ffe9
ffe5
ffc7
ffd4
fffd
fffd
004f
fff0
fffd
ffdb
001e
ffdd
0022
0019
ffe4
ffef
ffff
0003
ffd4
000c
0001
ffdf
000c
fff2
0005
0000
0015
ffe0
0009
0027
0033
0055
0059
0044
0003
000e
ffd3
ffb1
ffee
ffd9
ffd8
fff9
001b
ffe8
fff0
ffd4
ffdf
ffd3
002a
0005
ffe9
000c
000d
0000
fffb
ffd8
ffea
ffe4
fff9
ffe2
fff9
0025
ffdb
0021
ffe8
ffc5
fff5
0021
ffd2
ffc3
ffe1
ffc9
fff4
0008
ffe3
ffeb
001d
ffd3
ffc6
ffbe
ffd6
fffb
ffe2
ffda
ffe3
0025
001d
ffd3
ffd0
ffd7
ffed
0017
000b
0019
ffed
ffe8
ffd2
fff5
0009
ffe8
fff4
0002
0012
ffce
ffc0
fff7
0005
0006
0036
003f
fff4
ffd4
0008
fff2
fff7
ffe0
0008
ffe7
ffd0
ffc8
0004
0002
0037
fff1
0020
000f
0001
ffc6
0002
0030
fff9
ffd4
ffdb
fff6
0019
fff2
0013
0031
0017
ffe6
fffd
0004
0026
0002
0005
fffc
0024
ffd5
0001
0009
ffdb
002b
fff0
fffc
fff4
fffa
fff0
fff9
ffe6
ffb6
fff1
003f
0020
002a
0000
ffc9
ffe4
002b
006c
0028
ffd4
ffcf
ffd8
002d
001e
fffc
ffde
000c
005a
0053
0028
0002
000d
0016
fffd
ffeb
fff3
ffcb
001d
002b
000b
0016
ffd4
ffc7
ffde
ffaa
0003
ffc4
ffc9
002d
0025
ffe8
0013
002b
0011
ffe9
ffeb
000e
001f
ffec
0025
0027
0021
ffb9
0005
000f
ffef
001b
0010
0001
ffc8
0021
001c
0010
ffac
ffe5
ffc5
ff99
fff3
0008
000f
001a
ffe4
001e
0006
0004
001f
ffcd
ffed
003d
0023
fff7
0016
ffe7
ffce
000a
0019
ffe4
000b
0010
ffec
fffc
0005
0003
ffd3
ffd9
ffcd
ffce
ffe8
0022
ffe8
fff1
fffb
0038
0026
0018
0017
0036
0032
0021
fff7
ffe9
ffeb
002e
004d
0013
0023
0022
002e
ffea
0002
ffc0
0001
ffef
0013
003d
ffea
ffd3
ffca
000d
ffe2
fff3
0005
ffe3
0007
0051
000f
001d
ffd9
fffa
ffba
fffa
ffe9
ffbd
0002
ffde
0012
fff6
000b
ffed
0000
000d
003d
001c
fffc
000f
000c
ffe4
ffea
0014
fff5
000c
0019
0026
0004
0009
0027
fff1
001a
fffc
fff9
0002
000e
ffdd
ffff
ffc1
002d
0002
001f
fff0
fff6
000d
000c
0022
000e
ffd8
ffd8
0007
0022
0009
000e
ffe0
ffe0
000e
000d
0030
0003
000a
0015
003c
0011
0022
ffc1
ffba
ffb9
001c
0001
ffea
ffed
0006
002a
0022
ffca
ffb9
ffde
0000
fffe
ffd7
0026
fff2
0018
ffd9
ffd3
ffcb
ffbe
0003
0050
001f
004a
003c
ffda
001e
0046
001c
0047
0018
001c
001c
ffe9
ffdf
000a
001b
0029
0017
ffd3
001c
0021
ffd2
ffd0
ffd4
001b
ffd0
001e
ffe9
0015
0038
0032
0043
0033
0005
fff5
0023
ffd1
fff7
fff7
ffcd
0022
fff0
ffe2
0003
ffda
0037
0020
fffe
ffff
ffe9
003d
0008
002b
0031
0013
ffdb
ffc8
ffde
ffef
0011
ffda
ffdd
000c
0014
ffe6
0007
0023
0039
ffee
ffec
ffc8
0015
0019
0007
0028
001c
ffde
ffd2
ffd7
ffc4
ffe6
0015
0012
ffe3
ffef
ffbc
ffe2
0000
0027
0035
002e
000e
0027
0034
0012
ffeb
ffe9
ffd8
ffe5
fff6
002f
0000
ffe5
ffff
ffe4
fff2
0024
fff5
000c
0000
ffe5
0003
000e
ffe0
000b
0022
002d
003b
ffe9
0010
0002
fffb
ffca
ffd8
ffc9
fff3
ffeb
ffea
ffcc
000f
ffeb
0005
ffed
ffe7
002f
002c
ffdd
001a
003e
fff6
fffb
0007
001e
ffee
0032
0005
ffa9
ffdc
ffba
ffe3
0010
ffe9
ffef
0014
ffea
ffff
fffd
ffcd
ffb2
ffed
000d
0015
ffc7
ffcc
ffad
ffd8
fffb
0035
fff0
ffe1
fffa
ffda
ffdf
fff7
0025
ffe0
ffd8
001f
000e
0031
fffb
0023
002a
ffd6
ffac
ffc3
ffeb
ffd4
0008
ffee
0005
0022
fff1
fffb
001a
0026
ffbb
fff5
ffd5
ffd9
0014
fffb
000f
ffdc
ffd6
0000
000c
0008
ffe5
fffa
0023
002f
0025
fff9
002c
0013
fffc
002b
fff0
ffd3
000c
001b
001e
fffc
0018
fff7
fff3
ffff
ffed
001d
fff5
0001
0025
004f
0015
ffc7
ffff
0025
ffe8
ffbb
ffbe
ffea
0011
ffd6
fff4
0024
0018
001f
0018
0028
ffda
fff6
ffe7
fffc
fffb
fff0
fff7
fff5
fffb
ffd6
ffd4
fffc
fffe
ffe4
ffde
ffc8
0011
fff2
ffd6
ffdf
ffd0
0018
0004
0040
000b
001e
003b
003d
0018
fffb
0027
0029
000a
fff7
0020
001e
0026
fff5
0007
003a
ffdf
fff3
ffea
fffe
ffcc
fff8
002a
000c
ffd7
ffd5
ffd3
0021
0006
ffe8
0012
001b
ffe6
0016
000c
fffd
fff1
0017
fff6
000b
ffba
fffc
fff8
ffd8
0035
0011
0025
0032
0003
0001
0033
0036
0013
0041
000b
ffc0
ffc0
ffe8
ffd3
000d
ffd5
001a
fffa
ffd4
fff1
ffd7
000a
fff2
fffd
ffde
ffdb
001f
0025
0000
0032
0031
ffe8
fff5
0044
0001
0009
fff1
ffea
ffd2
ffe9
fff3
003e
0039
0026
0019
0017
fffa
ffda
ffd3
0007
001d
0006
ffef
0017
002c
0019
ffde
0029
003d
0042
001b
0056
001c
fff7
ffec
fff5
ffeb
ffe5
002b
ffeb
002b
fff5
fff0
ffec
ffce
ffe6
ffe8
ffc3
ffe7
ffe9
ffff
ffec
0034
004c
ffef
0008
0023
ffff
002d
002f
0005
0014
ffd0
004a
001e
0011
0001
fff4
ffcb
fffb
ffee
fffb
0025
ffdd
0012
fffb
0012
0015
0000
0020
0033
0034
0009
0011
ffdb
0008
0009
0047
0031
0027
ffdd
ffe5
001b
0016
0003
0008
0016
0029
0026
004b
0028
0005
ffd5
ffd8
0017
ffe0
fff6
0012
0031
002d
003a
0021
0031
0023
002e
ffd8
ffe7
0003
ffec
ffe0
fffd
0011
0037
0036
ffed
ffd4
fff7
ffe8
ffd9
ffdb
ffc8
ffdd
fff9
0029
fff2
0005
0017
0052
0017
0003
fff6
fffc
000a
ffe1
0040
0028
0010
ffde
ffe0
ffbc
000c
ffd4
000d
0003
001d
fff7
ffe8
0018
002c
fff6
ffde
002c
002c
0056
002b
fffb
ffd5
ffc2
000b
000d
fff2
0015
fffe
ffe4
0040
0005
0001
fff1
ffd8
fff2
0023
ffdb
0030
ffef
ffd0
ffb4
ffda
ffc2
0002
0007
0007
ffd4
ffe7
0022
ffd0
0014
0025
0020
005a
0006
ffe8
ffec
001e
fffa
fff6
000e
fff1
fffe
ffe3
ffeb
001a
0018
ffe1
ffd5
ffd5
0022
0020
0009
ffe7
ffd2
0014
0013
0001
fff4
0007
ffd5
000e
0041
002a
0005
fff2
001b
ffe9
0016
ffc3
ffc3
ffe3
0046
0009
ffec
ffc7
ffd2
0042
0053
0035
0001
000b
ffdc
ffbe
0018
0012
ffd1
ffda
ffe9
000c
0003
002f
000c
ffc5
fffa
ffcc
ffec
ffff
0027
0055
0019
ffed
ffe2
0014
fff6
ffe8
001b
fff6
ffdf
fffd
ffe7
001e
0011
003f
000e
ffdf
ffd8
fffe
0034
0035
0023
0029
ffff
001b
0026
ffd5
fff8
0033
002b
ffdc
0011
fff6
ffd5
0024
fff6
0014
000e
fff8
000d
ffd5
ffeb
0004
ffaa
ffe4
ffe1
fff5
0013
001a
ffeb
000c
ffa5
ffa2
ffe0
ffeb
ffbb
0000
ffe5
002c
fff9
ffd5
0015
000d
ffe1
ffed
ffd9
000b
001b
0029
0017
fff7
0020
000b
002e
0004
ffdb
0024
fffb
0008
0015
001e
fffb
ffd8
ffe9
ffd1
ffcb
001a
000a
000b
fff0
ffd6
0003
001a
fff0
ffdc
fff3
fff7
0005
ffc1
ffcf
ffdd
ffec
0012
ffe9
fff6
ffdc
fff9
001e
0019
0028
ffe3
0005
ffe3
ffec
004a
002f
ffea
fff7
ffec
fff0
ffd9
ffdc
ffdb
ffe5
ffa1
ffd6
ffb5
ffe7
0008
fff8
0012
0010
ffe4
001f
0027
ffd2
fff0
ffdc
ffea
fffe
002f
0008
000d
0002
ffd6
ffce
ffd8
001c
001d
003b
0030
0002
fff0
0000
fff1
002f
0003
0011
ffda
ffe8
0041
002b
fff1
001d
ffdc
0018
0000
ffec
ffc0
ffc7
0018
0029
fff2
002c
ffde
ffd2
ffd9
ffe8
0009
0025
ffe1
001e
fff6
000a
ffe3
0016
000f
001a
fffa
fff3
fff1
ffe9
002d
0021
fff8
0007
0039
fff6
0005
0011
0008
0029
0025
0006
ffe4
fff0
0015
0015
ffd4
0009
001a
0018
ffed
ffd0
ff88
ffd6
0008
0000
ffcb
000a
fff4
ffcb
0011
0020
fffd
ffde
0020
0023
0014
ffdc
ffea
0021
0028
fff0
0036
0012
fff8
fff9
001e
0006
ffde
ffcd
ffd8
fff3
0017
ffdf
ffe6
ffdb
ffd0
ffd3
000e
ffef
fff9
fffd
ffef
ffdd
0039
0034
002a
ffc9
ffb4
ffea
000e
002f
0017
ffe5
fffc
002f
0011
0019
0003
0043
000f
0047
ffec
0000
ffef
ffff
ffe8
0002
fffd
ffe6
ffb8
fff9
001e
001a
0010
0001
ffe4
ffed
0009
0022
0001
0004
001b
0010
0012
ffd7
ffb4
ffc0
fff2
0000
001d
ffe0
0002
ffdf
ffd4
ffd2
0019
0035
002a
001d
0005
fff0
002e
0017
ffd0
ffe2
ffe0
0001
0007
ffdc
0004
0033
ffa6
ffb9
ffe1
fff3
ffd6
0015
0010
fff5
ffcb
0017
0003
ffdb
ffe1
ffde
ffb2
ffea
0009
003e
001f
0012
002e
fff2
0001
000b
fffc
0032
fff0
000f
ffe8
0019
ffe5
ffe2
ffe6
fff3
ffd5
ffc9
001b
0012
001b
fff4
ffec
fffd
ffec
ffdb
0000
ffcd
ffad
ffc8
000d
fff5
ffe8
ffdc
0016
002f
0004
000e
0021
0026
002c
ffec
0027
001b
001d
ffd5
ffcc
ffe6
000e
0003
ffea
001f
ffdf
fffa
ffba
ff9e
ff97
000a
002f
ffec
ffee
ffdd
0003
0019
ffeb
0020
fff6
ff9e
ffa5
ffd6
fffe
0017
ffc5
ffcf
ffda
ffec
0023
fffb
0037
0007
ffda
ffda
ffd0
fff0
001c
fff3
000e
004c
0033
ffec
0017
0004
ffe4
ffe5
ffed
ffd7
ffd1
0021
0042
0022
0016
0042
fffa
fffd
002b
0017
ffde
ffcb
001e
ffea
ffc5
ffd9
ffed
0011
0044
0022
ffeb
0006
ffd7
ffce
ffd9
0012
0008
0027
ffe9
ffd9
000c
ffdf
ffff
fff9
001b
ffdb
0004
ffc7
ffd1
000d
0036
0013
0017
002b
003f
0044
003a
fffe
fffd
ffed
000e
fffb
0027
002d
0010
0045
002a
fffa
ffed
ffdd
0013
fffe
ffda
ffd2
ffe4
001d
0013
fff3
0029
fff9
0003
ffc8
0005
0055
0042
003e
0009
fff4
0005
ffeb
ffd7
fff9
0038
0010
0031
000b
0020
ffe2
ffff
0015
fff9
0007
ffe6
ffc1
fff7
fffc
0003
000b
0003
0015
fff9
ffd5
0001
ffea
0015
ffee
fff8
ffff
0020
0021
ffef
001b
002f
000d
0033
0046
0029
0021
fff5
0004
0034
0029
0004
0000
fff1
0012
002a
0045
001a
002e
0014
0018
ffec
001d
0034
0024
0016
fff1
ffd6
001d
0001
fff2
ffef
ffeb
ffb8
ffcf
ffd1
ffc1
ffb9
000d
fff8
fff0
0027
002e
ffe8
0032
ffe1
0016
0004
fff0
fffd
ffe9
ffdb
ffd8
ffea
ffec
0001
0018
0033
002c
002a
0029
003a
0001
002a
0031
fff0
fff9
ffd4
fff3
0010
0038
000a
ffda
ffc9
001b
ffbc
ffb8
ffe9
0004
ffdb
fff7
fffb
ffbe
ffdc
001f
0012
fffc
ffe4
ffc6
0018
001c
ffcf
ffc3
fffb
ffd9
ffd2
fff9
0005
001a
fff6
ffd1
ffe1
ffdc
ffff
0016
fffe
ffed
fffc
ffcc
0009
0004
0007
ffd1
000c
0011
fff8
0004
000d
ffe3
ffd8
0014
ffd5
ffd3
ffde
fff9
fff2
0032
0027
fff8
0009
001b
fff1
fffd
003f
003e
004d
0001
ffdf
0011
fff1
fff1
ffff
001b
fff1
0002
0009
002d
0009
0030
002f
ffe6
ffea
0003
ffe6
0016
0021
fff9
fffc
002e
0028
ffff
0008
002f
0014
000c
0031
000e
ffd4
0028
001e
000d
0032
0000
002e
ffce
ffd1
000d
0003
ffdc
0016
000e
0015
ffe6
0007
ffe3
001d
0013
0023
0008
002e
ffd5
ffd9
fff6
ffe6
0000
0008
0026
001b
0006
0021
000c
0016
0015
fff7
0010
fffc
fffe
ffbf
ffe6
ffed
003f
0065
0047
000f
ffe5
0005
0020
0034
0017
0035
ffe9
fffe
0013
ffef
0001
0023
ffff
0003
0025
000d
0012
0000
0028
0030
0022
003a
0026
005b
0035
003a
0015
0013
ffdd
002d
001e
fff2
0008
fff4
0029
fffd
003f
002d
0003
ffef
001f
0023
fffb
001b
003e
ffdb
fffe
fff2
ffed
0030
fff6
0017
000f
001d
000b
001e
fffd
0047
0036
001e
ffef
ffef
0040
0031
0033
0035
000b
ffff
ffdc
000d
ffd9
ffed
001a
0013
000d
001c
ffcb
ffca
ffd3
fffd
ffe2
ffec
ffe4
ffe2
0002
fff1
0017
0028
001f
0002
ffdc
ffc9
001f
0002
ffdf
ffd9
0007
ffe0
0002
fff6
ffbe
ffca
fff1
ffe7
fffd
ffe3
ffab
0017
0006
0014
0010
fffc
0037
004b
0015
0000
fff5
ffe1
0022
ffeb
ffdf
ffff
ffe0
0012
0003
ffe2
fffa
ffea
0020
0010
fffb
ffce
fff2
ffbe
ffe3
ffd6
0014
ffef
ffe1
fff5
000a
000e
001a
0021
ffef
0001
000e
ffec
0033
0048
0028
ffeb
0017
fff1
ffe9
ffdd
001d
002b
0008
fff9
fffa
ffbb
002d
000a
0012
001c
ffae
fff3
0013
ffdd
fff0
ffd0
ffc6
ffe4
ffd3
ffe3
ffee
ffe9
ffd4
ffa4
ffd5
ffcd
ffd4
fff9
003a
ffd5
000b
0023
0007
0018
0015
0003
0011
0008
ffd9
0018
ffdd
0003
ffe6
ffdd
ffd3
ffff
ffe4
001a
fff4
ffe2
ffd6
fffc
000e
ffe7
0000
fff1
ffdc
000f
000b
0024
fffe
ffc6
fffd
ffcf
fff9
ffe3
0024
000d
fffe
ffc9
ffee
ffe5
0015
ffbd
ffff
ffca
fff0
ffe2
ffee
000e
ffe7
0011
ffdb
ffe9
fff7
002b
0006
ffdc
000b
fffd
ffc2
ffe9
0024
0036
fff5
0029
001d
fff4
0021
0017
0004
0036
ffe8
ffde
ffcc
0000
001e
fff5
ffea
ffed
0030
ffe1
ffd8
ffe4
ffef
ffe4
fffd
ffe8
002d
0028
ffff
0019
ffe4
ffee
002c
001f
0008
0005
0025
fff4
ffd9
0034
002e
fff5
0031
fff8
0015
0007
0000
fffc
ffc6
0013
0022
ffcf
fff9
fff1
ffb6
ffa8
ffe5
ffe0
fffc
ffdb
ffa7
ff83
ffc0
ffc0
ffbd
ffd2
ffc6
ffba
ffab
0000
000f
fffd
0012
fff7
ffe3
ffb9
fff9
ffe3
ffd6
fffc
ffc9
fff8
0000
ffe0
ffc3
ffe3
ffcb
ffd5
ffa8
ffd0
ffb3
ffb4
ffeb
0008
fffb
fff0
ffc9
ffe0
0022
ffef
001b
ffef
0011
ffd9
0020
001a
0001
0002
0010
ffdf
ffe1
0015
ffd6
0022
0000
ffff
000c
fff2
fff9
0009
0012
000c
fffc
0020
0014
ffed
0017
002d
0018
ffee
ffe1
ffec
0023
0024
0009
ffe4
0031
fff6
ffe8
0022
ffda
0006
ffd7
0003
fffa
001f
002b
ffff
fffd
fff6
0038
0004
ffec
0023
001e
0005
fff0
fff0
0023
ffd1
ffdf
ffe3
fff4
ffcb
ffdd
ffcf
0005
001d
fff9
ffe0
fff1
ffce
0020
0014
ffd2
fff2
fffe
ffed
0008
ffdb
0020
001c
001b
ffdf
ffdc
0012
0007
0011
0011
fff9
0005
001e
ffe7
ffff
002d
0010
001b
0032
001e
001e
000d
ffe4
0031
0056
002d
0004
0002
0026
ffe6
000c
ffef
ffeb
0017
0014
ffd3
ffd7
ffd9
001b
0000
0013
000d
fff0
ffda
ffda
ffda
ffd6
ffd7
0014
fff6
0010
001d
0005
ffd3
ffff
ffd6
ffff
0007
ffde
fffc
fff3
0019
0009
ffe4
0016
fff4
0003
ffed
ffd8
0034
fff5
fff3
ffe4
000f
0019
fff8
fffe
fffd
fff9
0003
ffef
ffcd
0017
0002
0010
fff3
004a
0011
000c
fff6
fff7
ffcb
ffc8
ffd6
ffea
0001
ffe8
0033
0005
ffdf
0009
001a
0001
fff3
0023
ffdb
001b
001c
0031
ffe7
0006
0020
ffe7
fffb
0037
fff8
0024
ffd9
ffb4
ffad
0008
ffef
ffe6
0035
0015
001b
0042
0030
000f
ffde
0023
0036
fffb
ffde
ffbb
ffe7
ffcf
ffd2
ffbe
ffc6
ffdf
ffd8
000a
fff8
002b
0013
000f
0009
0034
0003
ffff
ffb7
ffc5
ffc7
ffe3
ffc8
ffe9
ffb5
fff4
0012
0039
0005
003a
000c
fffc
0029
fff7
ffe2
ffec
001a
fffd
0030
0021
0004
ffc1
ffef
ffd6
0006
ffca
0005
fff8
0001
fff6
0019
0019
001e
ffbb
0008
0000
000d
0012
000a
0008
0023
0052
fffa
ffdc
fffb
0023
0028
0032
0025
ffad
fff7
ffd8
ffe6
ffce
0014
0012
fff0
0038
fff4
0029
ffe3
0009
0014
0010
0029
0039
0014
fff9
ffd0
ffb7
fff9
fff2
ffe4
004a
0001
fff4
0018
0012
ffeb
ffee
0016
ffcf
0018
0015
0033
ffe9
001d
003b
ffc5
ffc2
fff7
0002
ffea
003f
0041
fffc
000c
0021
fffb
0000
ffde
0018
ffd8
fff7
fff3
0000
ffe6
0025
ffe9
0026
ffe2
ffc4
000d
ffd9
ffe8
0018
fff7
ffb7
fffe
fffd
0034
fff2
0015
004c
0015
fff0
0039
0021
ffc2
0005
ffd8
ffd9
fff4
0014
0024
0025
002c
001d
003f
0027
ffe3
001c
0001
000b
0006
ffd5
fff5
ffcd
ffe2
0006
ffec
0030
ffbe
ffe2
ffea
0006
000a
000d
fff2
0037
0030
0010
ffdf
ffec
0019
0001
fff6
fffc
fff2
ffcd
ffc7
ffc9
ffea
fffe
001d
0015
fffb
0024
0020
0018
002f
001c
0037
0015
0006
fffa
0011
0012
ffee
0020
ffe4
fff0
fff3
ffeb
fff4
fffb
fffb
0004
001a
ffdd
ffd8
ffef
ffbb
ffe2
ffed
003f
004f
003e
003a
0020
ffe3
ffeb
000e
ffee
fff0
ffcd
ffdc
0013
000d
0004
ffd5
0026
0027
fff7
004d
0024
004f
0028
0020
ffe9
ffc5
fffb
fffe
ffef
ffe6
ffe8
ffe4
ffe4
ffec
ffaf
ffe1
fff6
0024
0033
0018
004e
000a
0026
ffeb
ffec
ffee
003f
0027
ffea
ffed
fff1
ffe0
ffba
ffc1
ffbf
0026
ffed
0001
0013
0008
003e
0001
0018
fff5
fffe
ffc9
ffee
ffc5
ffd2
0017
fff6
002d
ffea
0017
000f
003a
000c
ffff
0035
fffc
ffdb
0002
fff9
fffa
001b
0021
ffe7
002a
0026
0007
ffdf
ffe2
ffeb
ffcf
0005
ffe0
fffd
ffea
ffe9
fff7
ffeb
ff93
0027
ffdb
0018
ffe9
ffd2
ff9c
ffe4
fffb
0005
ffdf
004b
0022
ffe8
002c
0002
ffe4
ffdf
ffe0
0024
0013
0035
0015
0039
002d
0061
0033
0019
0028
fff9
fffe
000b
ffe1
002a
ffe6
002d
0042
0039
ffda
fffc
ffee
001f
ffe2
fff3
ffe5
ffbe
ffce
0005
0001
ffee
003a
0027
ffe3
fff9
ffe8
0036
0003
ffdb
0036
002b
0029
ffe6
ffda
0019
0019
002c
0036
0019
fffc
ffec
fffc
ffc7
ffe2
ffe1
0010
ffe4
fffe
0015
0017
002e
ffe1
ffe4
001f
0018
002c
0027
002f
0015
0024
002e
fff4
ffd4
0007
fff5
ffaf
fff0
0013
0003
fff4
ffe0
fff3
000a
0026
fff0
fff4
ffe9
001e
001c
0035
003a
0003
001b
fffe
000a
ffeb
ffb8
ffe1
fffe
000d
0033
0023
001e
ffdf
ffec
0019
ffd8
ffe4
0018
0007
0007
ffc6
fff8
ffe3
0001
ffe8
000a
fffd
ffd7
0018
ffce
fffa
ffc9
000b
000f
ffee
003c
0012
0044
0013
0023
ffec
fff6
0006
0010
0025
000e
0039
0029
003a
ffef
ffeb
004f
0038
0004
0005
ffc3
ffeb
ffc6
fff7
ffcf
0022
ffd6
0006
fff3
ffe0
0002
ffeb
001a
fffc
000a
ffac
ffe2
001a
0022
fffd
fff3
002c
fff4
fff6
0018
ffff
0016
0013
ffcb
ffcd
ffeb
ffdc
0008
000e
fffd
0034
0027
003e
fffa
fff3
ffe9
0004
fff6
0030
000c
ffe6
001b
0022
0019
ffd0
ffee
0014
000d
0028
0015
ffed
003b
0010
0010
ffea
ffdf
ffe9
ffc3
fff3
ffbe
ffc8
ffde
ffb7
ffd9
001f
001d
ffe7
0012
0020
0030
0030
0017
ffde
001f
fff0
fff1
ffdc
0023
fff6
ffef
ffe7
ffe7
0006
0010
0022
0030
0024
001b
ffda
ffea
fffb
0035
fffe
0023
0020
000c
ffdd
ffdf
ffdd
0035
0014
ffcc
ffd6
ffd8
0004
ffec
ffe6
0013
ffeb
0005
fff0
0023
ffdf
ffd7
ffe2
ffd4
0030
003f
fff8
0005
001b
fff4
fff1
0027
0020
ffec
0004
003a
fff3
0015
0014
fff0
0012
ffe2
fffb
ffd0
fff7
0036
001e
ffdb
fff7
0002
ffe5
ffd9
0014
0023
fffe
0009
ffcb
ffe2
ffee
ffeb
0011
0018
0021
0011
fffb
ffd0
000f
0054
0047
0000
fff5
0019
001f
004a
001d
0022
ffef
ffe6
0024
000d
000c
ffd9
ffe8
fffb
ffd8
fff7
ffe0
fff9
0015
fff8
0001
0026
001e
0016
0034
ffe3
0032
002e
fff2
ffdc
0010
ffcb
ffe2
000b
001e
002e
ffdb
ffe1
fff7
0004
ffdf
ffc4
001b
0005
ffd8
ffc9
ffe1
ffe6
0003
0041
ffeb
ffd6
fff9
ffeb
fff5
fffb
0043
004c
003e
ffc9
003e
003c
0003
fffc
ffef
0009
ffda
002f
ffeb
003e
0016
ffea
ffff
ffd4
0006
fff9
ffdd
0002
fffe
ffd7
ffd9
ffe8
000c
0014
ffd4
ffd7
ffe3
0027
0013
ffeb
0000
000a
fff1
fff6
ffeb
0016
0045
002c
ffaf
ffdb
fff2
0014
001e
001d
000b
fff2
000d
0010
0002
ffe7
fff0
ffc4
ffe4
002b
0011
fff1
ffd5
ffbb
fff1
0008
000c
0009
0026
fff9
003d
0027
003d
0015
0011
0012
ffe7
ffc5
ffce
ffa7
ffd3
fffa
001a
ffe1
ffe7
0019
0026
0021
0017
001e
0014
ffcb
fff6
0014
ffd5
000e
ffc9
0011
002a
000d
0005
ffc9
0017
fff7
ffe8
0029
0043
0017
002b
0024
fff9
001d
ffd8
ffcd
ffc4
ffc2
ffd8
ffcf
ffe1
000c
0005
0025
0024
ffe5
0022
000e
ffe1
fffd
fff9
000a
ffe8
fffb
fffc
ffe2
0018
ffcd
ffea
ffec
0010
0023
001a
002f
002d
0004
fffc
001b
002b
001a
ffef
0008
ffdb
ffb4
fffd
0006
000f
0018
003a
fffe
ffe0
ffc7
ffd8
0016
fff0
fff9
000f
fff9
ffc7
fff8
000c
ffff
0012
0011
ffe9
001e
ffd8
ffd6
0032
003a
0030
0026
000c
0000
ffe7
001b
fffe
003d
000d
0008
fff2
ffec
ffce
ffeb
ffc5
fff2
ffe5
0016
ffee
ffee
ffe1
ffde
ffd7
ffef
ffc2
ffc8
ffec
ffee
ffd5
fff0
ffe4
fff3
0002
0068
0051
0009
001c
0001
0052
005c
0039
fffb
ffff
002c
001d
ffe5
0014
0002
0013
fff2
000d
0029
002b
001d
002a
ffdb
ffce
ffbc
fffd
ffe6
0004
ffb2
fffc
fff5
fffd
ffe9
ffd0
ffc6
ffed
001d
0005
0025
0042
ffeb
ffce
ffcd
002e
0056
001b
ffe1
ffda
ffe9
0001
ffed
fff2
0020
0010
001f
fffc
0007
ffe3
fffb
0000
000d
ffbf
ffd1
ffb5
ffdd
fffc
0022
ffd7
0007
ffcb
ffd1
0006
fffb
0002
fff8
fffc
ffe6
000f
ffff
fff7
ffe2
fff2
0030
001f
0049
003e
ffe4
0011
0006
fffd
001f
0023
0040
0007
001a
000c
000d
0004
fff8
ffd5
ffc5
ffe7
ffd5
ffcb
ffe6
ffef
ffd2
0029
0022
0001
0008
0020
0008
0011
0011
0003
000d
ffeb
ffc7
fff1
001c
002c
fff2
fff6
ffb8
ffc5
0013
fff9
ffff
0009
ffe2
ffeb
0001
ffd3
0041
003e
001e
ffd5
0010
fff2
ffdc
0000
0057
0019
000d
0002
000b
000e
ffed
ffdb
fff8
fff7
0006
0030
004c
0039
ffd2
ffd3
ffdb
ffe9
fffa
ffb6
0000
ffcc
ffd1
fffb
ffed
001c
ffe0
fff1
ffd0
fffb
ffdc
ffe1
ffff
0015
fff1
ffd8
0000
0019
ffe1
fff0
ffd0
ffeb
0038
002a
000a
ffed
fffe
fffa
0000
ffdf
ffe1
0010
001a
fff7
0041
0035
000b
ffd2
ffdb
0038
000e
003e
fff5
fff7
ffd2
ffe9
ffe1
fffc
fffa
fff5
fff2
001e
003f
0045
002c
0018
fffe
004e
001e
ffe7
fff8
0012
000c
ffcb
0000
002f
0040
0014
002a
ffcb
ffac
ffc4
0007
ffec
002b
0029
0028
ffce
ffe2
002d
000f
ffde
fff4
000c
fff0
0007
0018
0023
000f
fff6
002d
000c
0002
fffc
ffec
0009
ffe0
0030
0014
ffe0
0001
0009
ffed
fff9
ffef
0012
0014
ffe3
ffdf
ffc9
ffc3
0004
0053
0016
ffdd
ffef
0003
0005
ffdf
ffed
001c
0023
0021
0022
002a
0022
ffe2
0004
ffe3
0010
fffb
0018
0034
0018
0038
fffa
ffe6
000c
003d
0010
0010
ffe8
fff9
ffbe
ffc9
ffc9
ffff
fffb
001a
0011
0008
0026
0009
ffdf
0022
fff0
fffe
fffc
fffc
000d
fff0
0017
001b
002c
000d
ffeb
0029
ffdd
fffe
ffda
fffd
ffe6
fffe
ffce
ffdf
ffcf
ffdb
0032
0058
0050
000b
000b
ffd3
ffe7
0003
000d
ffef
0009
0031
ffe4
ffdd
0009
0002
001c
0015
0014
0006
0038
0007
ffd8
ffed
000b
ffcf
000c
0009
0022
002d
0016
ffe6
fffb
ffc7
fff7
ffc0
ffe3
ffdc
fff7
ffd2
fff9
000a
0035
0042
ffec
000e
0024
0005
003f
fff6
0020
ffe1
ffcf
0002
fffb
ffd7
000d
003e
0028
0007
0023
ffe8
ffef
fffc
000d
ffcc
ffd0
ffda
fff4
0010
000f
0006
ffe1
ffdf
ffbb
ffd6
ffdd
ffdc
ffe8
002c
002d
000d
0023
0016
0002
ffde
ffe6
002c
0033
001a
fff3
ffae
0004
fff7
ffef
0000
fff4
004f
0026
0019
ffd2
fffd
0007
ffda
ffe6
ffe1
fff8
ffe1
fff6
ffff
fff7
ffc0
ffc8
ffe5
fff4
fffe
0001
ffb6
0010
000e
0043
001f
0025
fff7
0025
001d
001f
ffe8
0017
0012
ffff
fff4
ffd4
002f
ffe0
ffe9
0023
0026
ffeb
ffe7
ffd6
ffe7
ffe9
0010
001a
ffd6
fff8
0024
0005
ffe5
0010
000a
ffe4
ffd0
0011
000e
ffe1
0037
0029
0016
ffec
000d
ffe7
ffe8
fffb
0026
0007
ffe1
0014
000d
fffa
ffea
0019
0002
0029
002a
001a
000a
ffec
000a
ffcb
ffee
ffd2
0018
fffe
000f
fffd
fff5
fffa
003c
ffdd
ffdd
0003
0016
fff9
0003
fff6
ffd5
ffd9
ffdc
0007
fff5
fff1
fff3
ffff
fff2
ffe4
001e
003d
ffe4
ffe0
001a
0004
ffdf
ffc9
fff9
ffe1
002f
ffe6
fff2
000b
000d
0003
0016
0013
ffec
000b
ffea
0020
ffed
0006
ffea
0001
0036
003d
0009
fff4
fff9
ffce
ffe3
ffd6
ffc0
0002
fffc
0009
fff4
0039
0017
0010
ffd6
0004
0011
ffe3
ffd2
001f
ffe9
000a
ffec
000a
002f
002c
ffef
ffeb
0018
ffca
ffd2
ffe2
fff9
ffff
ffc0
ffca
ffc4
ffe9
0042
002f
000e
0010
0009
0000
0024
001f
ffdd
fffd
000e
003c
0019
0011
ffde
0000
001c
ffe3
ffee
0026
0002
001f
0003
ffe4
0003
0012
0011
fff8
ffea
0010
0004
fff8
ffe1
ffd8
002d
fff3
fff9
ffe7
0018
ffff
004b
0023
0011
0034
0033
003c
fff2
ffe5
fffc
fff4
0026
ffeb
ffe2
fffe
ffe9
fffa
fffe
0014
0020
fff8
fff8
ffe3
0004
ffd4
ffdb
0023
fff5
0023
0018
000e
000f
ffe9
fff5
ffe9
ffdd
0016
ffe1
ffea
ffc8
0026
0007
fffd
0003
ffe2
0006
0024
ffe7
fffd
ffd5
ffd8
0022
002c
ffe1
fff8
fff0
fff5
0007
ffe4
ffe2
fffd
001e
0009
ffc2
ffff
ffee
000e
001b
0001
000f
0008
0013
fff1
0001
0026
ffff
fff3
0006
fff6
0000
001d
0024
0013
003e
002c
000a
0035
0020
0021
fffa
ffc7
ffcf
002c
000a
ffcd
0010
0026
003b
002f
0006
ffe4
0015
0004
fffb
ffd1
0002
ffdc
0003
001d
ffee
000f
ffe8
0018
0021
0026
0027
fff9
ffe1
0010
ffea
000f
0025
0037
0006
002b
0028
001d
001e
ffe4
ffcd
fff7
ffef
0015
0014
0014
0006
001a
ffe5
ffcc
0004
0000
ffd6
ffe9
ffe1
ffe0
fffe
002e
fff1
0029
fffb
0012
0004
0029
fff5
ffe4
ffdb
ffd3
ffdf
ffe1
ffdd
ffe4
000a
0005
ffd3
fffd
ffde
fff6
0004
fffe
0019
0005
0014
fff5
0022
0010
fff6
ffe9
ffff
0017
fff4
002a
002a
ffef
fff9
0025
ffda
ffe2
0005
0016
ffe8
ffd9
fff9
001d
0026
0003
ffe4
fff8
ffe1
fff1
0015
ffec
000f
0007
0021
ffe4
ffe6
fff6
0026
0024
0015
000d
0017
0018
0014
0004
ffe2
001a
0016
0014
001f
0013
ffe2
ffd2
ffdb
ffd2
000d
fffb
000b
003c
001f
0024
0008
ffdd
ffde
0032
0008
ffe6
0004
0028
0040
fff1
000c
001e
003d
0017
0009
fff3
ffde
002b
fff7
fffc
fffa
002c
0005
fff4
0030
000e
ffce
ffdf
ffe3
ffbe
ffe8
000a
ffdd
ffe5
ffef
ffff
0008
0019
ffff
fffc
ffe8
ffec
ffef
fff1
ffef
0021
0042
0014
fff4
0011
002c
fffa
ffed
0001
002a
0026
0010
fffb
fff4
0040
004d
0035
ffe2
0044
fffe
ffc8
ffe3
fffe
ffee
0023
0009
0025
000a
0041
0011
0008
0001
ffcd
ffd6
000b
ffed
fffb
0014
001a
003d
0011
fff1
001b
fff7
fffd
000f
0020
0019
fff2
0032
ffe0
ffe6
ffe9
000f
000a
0018
0000
001b
0008
002b
fff8
fff9
ffdf
000c
ffee
0005
ffff
0039
ffd3
ffe6
ffe5
ffb0
ffd0
ffd7
ffd4
fff8
0028
002e
0016
fff6
fff5
0023
002f
0015
ffc9
ffb0
fff7
fffe
fffc
ffdf
fff6
0004
0023
fff9
ffe1
000e
fffe
001f
003c
0023
0036
0035
0036
003c
003b
002a
fff1
0002
ffc4
ffbf
0024
0034
0018
0037
ffff
0011
002f
0008
ffe3
0002
fffa
0002
000b
ffd9
ffd5
fff1
fff6
fff4
ffeb
001d
0006
0016
0017
ffed
fff0
ffcc
fff5
0031
003b
0025
003a
ffff
fff3
0017
0010
ffd7
fff3
ffe9
ffb6
ffe1
fffd
0005
0002
0016
ffe1
ffe1
fff0
fff6
ffda
0006
fff9
ffd5
0008
ffcb
ffd1
fff9
ffdb
000a
fffc
fff0
0005
ffc9
ffe9
ffd0
fff5
0006
001b
0037
0015
0022
fffd
fff4
fff2
ffe6
ffe5
0022
001c
000c
0016
ffd4
ffe2
ffd1
ffec
fffe
ffde
ffdb
fffa
ffe3
ffdb
002a
001a
ffcb
ffe4
0000
fffb
ffe8
fffa
001a
ffeb
0031
0015
0000
ffef
fffd
ffe6
0006
ffd8
0009
0007
000c
0015
fffe
0038
0030
0000
ffbe
ffec
0001
0000
0004
000d
ffed
ffdc
ffdc
ffc9
000b
fff5
ffc2
ffd6
ffe4
ffdf
0022
0012
fff3
ffe4
0003
001f
0013
fff5
000f
0007
0005
ffe3
ffdf
ffd7
fffc
ffc9
ffff
0005
0011
ffe8
0012
ffdb
0005
003a
002e
ffee
fff8
0004
ffbf
fff0
0016
fffb
ffed
0047
0029
ffe7
fff7
0027
0024
0009
fff7
ffe9
0019
0008
001f
000e
0027
0032
0015
ffca
0023
001f
000f
fffd
fffa
fffb
0007
0005
0006
0028
0035
0030
ffec
002b
ffe4
ffe9
ffd4
ffd3
ffd2
ffd3
000f
0062
0060
0043
002c
ffec
000c
000d
000f
0010
002e
fff7
0004
0008
fff7
001c
fffa
0029
fff2
fff3
000a
ffe6
0025
fff7
0007
ffea
0023
ffeb
0027
fffb
ffec
0008
000a
fffc
ffe4
fff8
0023
ffd7
ffcc
fff6
002a
fffd
0005
0005
ffdd
fffb
0021
0000
0022
ffe6
0022
0015
0006
ffe1
fff7
0003
0017
000e
ffcc
ffdd
003f
0031
0035
0001
fff2
ffe1
ffff
000d
0019
0003
ffd4
ffd8
ffe7
0016
0002
fffb
000e
ffd7
0019
ffff
001d
0011
ffe7
0010
0021
0033
000c
001c
ffce
ffc2
fff0
fff2
000f
0010
ffcf
fff9
fff1
0018
0005
0026
ffdf
0006
ffcb
0007
ffdc
ffe1
0011
000e
ffe0
0037
0022
fff0
ffcb
ffcb
ffe7
ffdc
fff1
ffe7
ffdf
ffb7
fffc
0029
0016
fff2
ffad
fff8
ffe8
ffe5
000d
0003
ffed
ffe3
ffe4
ffc9
000d
001b
fffd
0008
0005
003d
fffd
002b
0016
fff5
0026
000f
001c
000e
000b
ffe4
000f
001a
001b
0000
003a
ffe3
ffd6
ffb4
ffe2
ffc6
ffc8
ffcc
ffe6
ffce
0010
0003
ffdb
000c
0019
0020
ffee
000e
ffd1
0004
0019
0000
0024
002e
0012
001f
0024
ffe0
ffcf
ffca
000a
ffc3
fffb
ffd0
0013
0027
fff1
fff6
000f
ffea
002b
002f
ffea
000f
001f
000e
0031
0027
fffc
003b
0000
000e
fff5
ffea
000d
0019
ffda
0018
0003
0009
0013
ffee
ffe3
ffec
ffe4
ffbe
ffc0
ffd1
000f
000a
ffca
ffd8
0011
ffda
fff0
0000
0018
000e
ffff
ffe3
ffff
0012
000a
003c
002e
0007
002c
fff2
ffdb
ffe3
0005
001c
ffff
ffec
000c
001f
fff2
fff2
fffc
0024
fff7
fff8
ffce
0011
ffdb
0001
fff9
000e
0003
fffd
0016
ffff
0041
000d
0024
fffe
fff1
ffd6
0015
fffa
0004
ffbc
ffee
ffaf
ffd7
ffdb
ffd1
ffef
ffe1
0008
000b
fff6
ffcd
ffcb
ffc7
ffcc
0009
fffc
ffee
0011
fffb
ffed
ffde
ffde
ffc6
fffb
0029
0032
000b
0006
ffce
ffcf
ffd3
fff6
ffe9
001c
001f
0002
ffc8
ffca
ffc7
ffe7
ffe5
ffdb
0006
000a
0000
001d
ffe5
fff5
ffe4
fffb
0010
fffa
0000
0036
002b
ffef
0011
ffca
ffff
0012
ffe1
ffbb
ffcd
0019
ffe6
0009
0000
001e
fff4
fff4
ffec
001d
0018
002e
0037
fffc
0018
0029
fffe
002b
ffff
0015
000c
000f
ffeb
ffea
0009
000d
0033
0036
004d
0024
0034
ffdf
fff8
0005
ffe1
fff9
fff2
0025
0005
ffed
0005
fff1
0010
fff5
0014
002d
0008
0039
fff0
0010
fffc
0007
ffd5
ffd2
0003
000b
002f
0019
fffa
fff4
ffec
000e
ffe5
ffd0
0023
001d
000d
fff0
0008
0007
0021
fffd
0005
0000
002d
0033
fff0
0038
0048
0010
ffde
000d
fff7
001e
fff8
0004
0010
ffed
0020
ffff
0008
fff5
ffeb
0037
004f
0055
0013
0051
003d
0035
003f
0035
001e
0002
0030
003e
002a
0012
0004
0016
fff7
0018
0028
000f
0019
ffff
0021
001d
ffd9
0009
0019
ffe5
fff0
0027
fffa
0026
0017
ffda
000f
fffe
000d
0004
fffc
0035
002e
fff2
fff1
ffd3
fff5
002f
0030
0004
0019
002e
0012
fffe
0034
0009
ffda
0017
0002
ffcb
0024
0011
fffc
0045
0023
0036
0027
001e
0014
0032
fff9
0016
001f
fff9
ffd7
0007
fff0
0004
0000
ffda
fffb
ffee
ffef
ffd5
ffb5
ffec
fff4
ffba
0001
0006
0023
0020
0033
fff4
0016
ffee
0007
ffcb
ffc8
0002
000d
0015
fffd
ffe9
ffeb
0021
000f
003a
0031
002a
0011
001f
ffdd
ffda
ffdf
0007
fff2
001d
ffd2
ffee
0021
0001
fff3
001d
ffe6
ffe0
0017
001d
0006
ffff
fffd
001e
0016
0022
ffee
001a
fff0
fff6
ffe8
ffe5
001f
000c
ffdb
0000
fffb
000b
001b
0023
0002
ffe7
0009
ffe3
fff3
001d
ffe4
ffe4
ffef
ffe8
fffe
ffef
001d
fffe
000c
000e
fff1
ffed
0008
0015
ffe6
ffee
0001
001e
0006
fffa
000d
0010
ffe8
0016
ffff
002e
ffdc
fffa
0026
fff6
ffff
002e
0028
ffe5
0012
0005
0017
0023
ffdb
0035
0011
fff0
fffe
ffff
fff9
ffe3
fff0
ffdc
ffd8
0012
0004
001c
ffdb
0015
ffef
fff6
0013
0016
ffd3
ffe4
ffbe
fff0
0029
ffe3
fffb
ffb1
ffe7
ffed
000e
ffd4
ffca
fffa
000d
ffe5
fffd
000e
fff8
0011
ffff
0007
002c
0033
0011
002a
0027
0001
ffef
ffe5
fffb
004a
000d
0031
0028
0024
0012
0045
0007
ffed
0008
fffe
0018
0021
0004
0018
ffea
ffd9
ffd4
0024
ffe5
ffe9
0022
001f
fffe
000c
ffe6
ffb5
ffc2
0029
0018
0017
ffe8
ffff
0002
fff1
fff0
0001
ffef
ffeb
ffec
0020
ffd4
ffe8
ffd7
000c
002e
fffb
000a
fff4
ffe4
0018
fff8
ffec
0005
0001
fffa
000e
000f
002d
000d
001d
fffc
fffe
000b
001a
ffe8
000d
0011
000d
fffc
003e
001b
fffb
ffe1
0004
ffe4
ffdc
ffeb
0002
ffde
001b
fff4
fff1
0027
000e
ffd6
fff4
001c
ffed
fffc
002e
002d
002b
0023
0036
002c
001d
ffec
0001
0018
ffeb
fff2
0023
ffe7
ffe1
fff9
ffe5
fffb
fff2
0031
0045
0023
0019
0021
0020
0038
0029
0019
0028
ffff
0000
0001
001f
0029
fff1
ffc9
0034
0028
ffff
0012
0007
0001
0016
001c
0028
ffff
ffff
0027
0034
002c
0025
0002
fff3
ffee
ffe3
0032
fff2
0029
0004
fff8
ffe2
ffe4
0031
0033
fffb
000c
fff0
ffd6
ffde
fffb
0006
fffc
ffee
ffe7
0024
ffc8
ffe5
0008
fff7
ffe2
ffe3
ffcd
fffe
0003
ffe1
ffce
fff0
ffd5
ffed
ffe4
ffd9
0003
0030
001a
fff3
ffd8
0014
ffe7
ffae
ffe8
ffef
ffc7
ffb8
0001
ffd8
ffd0
ffc9
ffe6
fff3
fff6
ffbb
ffd1
0000
0007
ffd4
ffed
0017
fffe
0006
ffcf
ffde
000c
0032
0022
ffe8
ffed
fffd
ffdf
ffd0
ffda
0002
0017
001c
ffa1
ffd5
ffec
ffce
0027
0035
002f
002e
ffff
ffe4
000a
0031
ffe5
0027
0018
ffdc
0005
fff2
fff5
0010
0020
0026
0013
ffd9
0006
0026
0032
0007
0014
ffd5
ffe9
ffdd
ffb5
0001
0004
ffcd
0023
002f
0005
0044
ffff
0033
ffef
ffcb
fffd
ffeb
0019
ffff
001b
ffec
001e
001a
ffd6
0029
0002
ffe4
ffef
ffd9
ffdc
000b
0014
ffe9
0011
fff6
0013
0031
0014
ffd6
ffcf
ffe6
fff7
0026
0022
0025
000a
ffe4
0017
0016
0050
003e
0035
000d
fffa
ffe2
ffc3
ffdc
fffe
ffff
000b
ffec
ffd7
ffde
0005
0027
000e
ffc8
ffc2
0019
003d
fff1
001c
0021
000e
ffe7
ffec
ffc7
ffca
ffda
ffd6
ffe4
0015
0011
ffdc
0037
0022
ffe8
ffcf
0022
0021
ffcd
0013
ffdf
ffb1
fffe
000d
ffed
0043
0034
0023
000b
fffd
ffd5
0024
0016
ffe8
0002
ffcb
ffb9
ffda
ffc2
ffda
ffeb
ffd4
0000
0010
ffe7
fffe
fff9
0008
0000
0020
0030
0020
fffe
ffdc
ffef
0037
004a
0020
0031
ffe9
ffd7
ffbd
000e
ffdf
fffc
0029
000f
ffd1
ffd2
ffdd
003d
0017
000f
fff6
ffde
fff9
ffd3
0004
fffe
ffd9
ffe0
ffea
ffdf
0023
000e
0017
0035
0031
000c
002d
0047
0016
ffd4
ffc3
0011
0042
003c
003a
ffd2
ffc9
ffd9
ffed
0031
fffa
0007
ffff
ffde
ffd1
ffcd
ffcd
0005
ffd4
ffc8
0019
ffd9
fff9
ffea
0008
ffda
ffc6
000a
ffbd
ffde
ffd3
ffcd
ffc5
0021
0030
0006
ffed
ffdf
ffee
fffa
003e
000a
0005
001b
ffe4
ffaf
ffaf
0007
0026
000c
0028
fffd
ffc4
ffc3
ffe9
0014
ffbe
ffd6
ffb9
ffbe
001a
001f
000e
ffdf
0007
0003
ffd3
ffc1
ffe2
ffc9
ffed
ffd3
001c
001a
000f
ffe5
000e
0004
ffe5
ffb3
ffc8
002e
0018
fff9
0022
0036
000b
ffed
fff4
ffdc
ffee
fffc
ffdd
000b
0023
0000
ffba
0019
000b
0029
0042
0017
ffe5
0015
0004
0011
0017
0022
000c
fff8
0020
ffe2
0028
fff8
000c
0041
0027
000b
0004
003b
003f
ffe1
ffde
ffe6
001c
ffeb
ffdf
ffff
0019
0009
ffe2
ffe1
0030
ffe7
ffe7
0008
ffcf
002a
0032
ffe7
ffff
fff4
fffb
0025
001c
fffa
ffbe
fff3
ffea
ffec
002d
ffe1
000d
fff2
003c
0015
0040
ffde
ffd4
ffce
ffc8
0037
0013
0016
000d
0004
0013
fff9
0039
0022
0022
ffeb
0010
fff9
000c
001e
0040
003a
ffdb
fff9
0016
ffe2
ffd9
ffe3
001f
ffea
ffe1
ffc6
ffbe
ffd9
fff0
0017
0028
002d
000b
002e
ffeb
0025
fff8
0032
ffd6
ffbe
ffc3
fff3
000f
001a
0001
ffff
ffee
ffbf
fff5
001d
0032
0002
001e
ffed
0038
0027
fff3
ffee
000d
0008
ffcd
ffc8
fff1
0015
000b
0012
0013
0014
ffe4
0042
001b
ffe2
ffcc
ffab
ffc4
ffdd
003b
0020
000b
0041
ffe8
ffe2
0001
000f
ffeb
000c
ffe0
000f
ffc1
fff8
000b
0024
ffe9
0010
0000
0028
ffe5
0017
ffd0
ffd3
0015
fff3
ffd9
fff9
ffb8
ffdf
ffde
0002
000c
0031
002b
0009
004b
0001
ffc6
ffeb
ffff
ffdd
ffdb
ffc2
ffee
0036
0029
ffe4
ffd0
0027
fff0
ffe4
000e
0000
ffbb
ffbb
ffdc
ffe8
ffc2
ffed
001a
ffce
0003
ffca
fffc
0019
0003
ffe4
ffe0
fff8
fff9
fffc
ffbc
ffe1
000e
000a
fff6
0002
004c
fff8
000e
0018
0021
001f
ffff
fff3
ffcb
ffcf
fffd
000f
ffd8
001f
0012
ffd5
ffd4
001e
fffc
0024
0025
0024
003d
ffcb
ffe7
0026
004f
002a
0011
ffff
0033
0001
0030
ffdd
fff2
0007
ffd1
ffdc
ffa5
000f
004d
000c
002d
ffe6
ffdf
0004
fff6
003b
0025
004f
0022
000f
003c
0036
0028
000a
000f
fff4
ffe9
fffc
0002
ffee
000b
fff6
fff1
fff3
001d
0025
ffd8
ffe3
0006
0001
fff4
0022
0006
fffe
ffd7
ffd7
ffe3
ffef
fff5
0035
001f
ffea
fff0
0008
ffec
0015
0025
001f
ffc1
fffe
fff4
0005
ffd7
ffc3
ffc6
fffd
000b
0009
ffde
0006
fff4
0014
0004
ffd1
ffc2
fff5
ffe1
0014
ffbf
000b
0037
0011
fff0
fffb
ffee
fffa
fff8
fffc
001c
fff7
001e
0008
0017
0039
0040
ffee
000f
0028
0037
0032
ffeb
001c
001a
ffec
fffa
fff4
ffe6
0001
001d
001e
004d
0006
ffee
ffe1
fff1
002f
fff0
0033
0056
0018
0021
ffd1
ffa9
ffdb
ffca
fffb
ffd8
ffea
fff8
002f
0048
0013
fff8
0032
0013
ffcb
ffea
0027
001a
003f
fff4
ffd8
0011
001d
ffcc
0008
fffc
002f
ffe7
0016
0026
ffe7
0018
fff3
002e
0010
ffee
ffff
ffed
0015
ffea
002b
0005
ffe7
fffb
0020
0012
fff5
ffe2
ffe6
001e
0012
001e
ffea
fff8
ffec
000d
fffc
0005
ffc4
ffd0
0012
ffec
0014
ffe5
0003
fff5
ffbd
fff4
ffe8
ffd2
0004
fffb
000e
ffc5
ffdc
ffc0
ffd2
0016
ffc9
ffd7
ffe8
ffe9
ffde
ffd4
fffa
fff2
fffc
fffd
0014
ffe1
0001
0042
0020
001b
fff9
fff5
0017
fff2
0005
ffdc
ffd7
001b
fff3
002b
ffd6
ffdf
ffc1
0012
ffee
0019
0022
fff7
000d
ffec
ffe4
ffe8
0040
0001
0004
0026
fff1
ffed
0018
ffe7
000e
ffd5
ffd1
0016
ffe9
ffe4
000c
0020
ffe2
ffdc
ffca
ffff
ffe1
ffe1
fffc
fff6
fffe
fff8
0015
ffdb
ffdc
ffc0
ffea
fff2
001e
0006
ffdd
ffee
ffc2
ffd9
ffbd
0002
0023
0028
0000
0012
fffc
fff2
ffe8
002a
001d
001b
ffe9
0011
0003
0017
003c
fffe
0002
0026
000e
fff6
fffc
fff2
0002
0000
000e
ffbf
ffba
ffe0
ffdb
ffc5
0008
ffe8
000f
000e
ffcd
ffb4
ffcd
fff0
ffee
001e
ffd2
ffc0
0006
000a
000c
002a
0011
0027
0033
0047
fffd
fff3
001b
fff3
fffc
0007
ffff
0029
0011
0007
000f
0029
0008
0014
ffee
0006
ffde
ffc9
0015
0002
0001
0022
004d
001f
ffe4
fff1
ffbb
ffdf
0014
0026
0020
002b
0032
0062
0032
fffa
0038
0034
000e
0011
0010
0003
ffea
ffd6
0007
ffe8
ffd4
0017
ffe2
000f
0005
0026
ffd5
ffd9
fffd
003b
0023
0030
fffa
ffe1
fff8
002b
0001
002f
000f
0004
ffd6
ffd5
ffe6
fff1
0006
fff7
fff5
ffe7
001c
0006
0034
0009
001c
0004
0009
000f
fffa
0032
0023
0020
0001
ffc3
ffdb
0018
ffdd
ffd0
0004
fff8
0009
fffe
0007
ffeb
fffd
0029
fff6
fffc
ffda
0017
000c
fff8
fff1
001a
0007
0008
ffce
ffd5
ffee
ffd6
fff4
ffd8
ffc4
ffe3
0012
ffe7
002e
0012
0043
0038
0000
0015
ffe6
fff9
0014
fff1
fff3
000b
ffe4
0020
0023
ffe6
ffc3
ffd9
0002
ffce
ffb9
ffb9
ffe8
0003
000c
0024
003a
0011
003b
fff7
000a
0039
0001
ffdb
ffd7
001b
ffe5
ffe9
0011
0006
0010
0003
000b
ffda
ffce
0006
001c
000c
0001
fff8
0010
ffbf
ffd9
ffe0
ffc1
fff1
ffdc
fff4
ffc5
ffad
ffe1
0000
ffdf
ffd1
0005
0043
0033
ffe7
0022
001a
fff7
0025
0019
ffe7
0013
ffe6
0023
fff0
0027
0006
0045
ffff
ffed
ffe6
0005
0015
fff6
0023
ffef
000c
001c
0032
0032
ffee
ffdb
ffc5
000e
ffcb
ffd2
ffea
000c
000b
fffe
fffe
000a
0025
0024
ffd7
ffdd
0026
000a
ffee
ffe4
000d
ffee
fffe
0010
002a
ffef
fffd
0015
ffda
fff7
0041
ffe7
0015
0027
0012
0028
ffde
ffcb
0011
0018
000a
002f
fffc
0014
0030
ffe8
fff1
ffe3
ffe9
0023
0021
004c
0011
0048
004a
003c
fff4
ffec
ffd7
ffe2
fff9
ffdc
ffe8
001f
0003
ffe1
ffd9
0006
0015
003c
0032
0008
002b
001f
ffe9
fff2
000a
0012
fffd
fff9
0009
fffe
ffe1
000e
000c
ffcd
ffff
ffb2
fffb
ffe3
fff2
ffeb
001c
000e
0000
0001
ffd6
000a
ffe2
ffeb
ffe5
001c
fffc
000b
ffdf
0009
0024
fff5
fff5
ffd9
0007
ffe0
fff2
000b
fff2
001f
0025
ffe7
0001
ffe0
ffe8
ffd9
fff4
0035
0028
000f
001f
ffde
ffce
ffaa
ffcd
ffb9
ffcd
ffc9
0007
0000
0018
ffe0
fff7
0017
0047
000b
fff2
0029
000d
0047
0030
002b
fff1
0012
fff4
0017
000d
0022
001b
000e
0036
fffc
ffe9
0005
0012
0036
0043
0026
0032
0010
003b
0009
fff1
0003
fff7
0004
002a
fff6
fff8
ffed
ffe3
ffe0
0010
0003
0026
fffe
fff2
fff7
ffd1
ffc1
ffcd
ffeb
ffe5
0011
fff8
0000
ffe6
001b
fff3
ffc6
fff7
0000
0000
001b
0005
002e
ffe5
ffee
ffe1
ffe9
ffc6
ffda
fff0
0029
fff7
ffe4
ffdb
ffbb
ffd0
fff1
ffea
0027
0015
001b
fff6
fff0
001d
001b
ffc9
ffe3
fff9
ffe6
ffea
ffe1
fffa
fff2
0029
0040
001e
0005
001c
ffe3
0009
fffb
0026
0005
fffb
ffe8
ffd9
fffe
0018
0002
ffe8
fffe
ffd7
0007
ffff
0030
0044
0043
0021
0035
0024
fff6
0025
fff5
000e
ffe2
ffe9
0020
ffef
fffb
fffc
ffed
0023
ffff
ffe1
0019
ffea
fff7
0008
002c
ffef
ffff
0007
002a
0006
ffd4
000a
ffc5
ffe6
fff3
0027
ffd5
ffd2
ffe1
0009
fff4
0007
0013
fff2
ffda
fff7
fff3
004e
0012
003e
0028
0035
0021
ffff
0031
002b
0009
0000
0034
000c
001e
fff8
ffb2
0005
0016
ffed
ffeb
001e
0047
ffe2
001d
0021
ffce
fff7
ffd9
ffc1
fff0
0015
002e
0005
fff6
002b
000b
ffe9
ffff
fff9
ffd9
001f
0028
0022
001b
000e
ffff
000c
0016
002b
fff0
001a
0032
0011
0010
fffb
ffdb
0003
fff0
fff3
0024
fff3
ffe6
000e
ffda
ffdb
0011
ffe8
ffda
0001
fffc
0006
0032
0034
0006
ffe4
ffe7
fffa
0027
0008
002b
0029
0001
002a
0015
0031
001b
0006
ffed
ffec
fffa
0021
0007
0002
000b
fff0
ffde
0006
ffe1
003b
0037
ffdb
ffcb
ffd5
0021
0026
002d
000a
fff7
ffcd
ffd3
ffed
fffb
0023
000a
ffea
ffea
0030
0025
0032
0030
0011
000b
0048
0013
0009
ffe0
0010
0014
0016
0000
ffee
fffb
ffc5
0024
0022
fff4
fffd
003a
002a
0002
fffd
0017
000e
0014
0016
0003
001b
ffe7
000d
0007
ffea
000b
0039
0004
fff2
0001
0004
fff7
ffdd
0005
0009
ffde
fff9
ffef
fff9
ffdb
0008
fff7
000b
fffe
0002
0009
000d
000b
0000
fff2
fffc
fff4
0006
ffeb
ffd9
001e
001d
ffe3
000f
ffe3
ffbf
fffb
0004
0011
000c
0012
0013
fff0
001a
0016
000d
ffd2
ffee
0008
0010
ffe2
fff1
fffd
002a
0046
0022
002e
000d
0010
002f
0024
fffc
000c
0021
ffdd
ffed
0001
0033
0004
ffe6
0002
0000
fff0
0024
ffeb
ffe6
0010
ffdc
000b
ffeb
0029
002f
0015
fffd
ffd9
ffe5
ffc2
ffd5
0026
001d
0008
0012
ffef
ffea
ffd1
000f
0010
ffdd
0009
0016
0004
fff4
0002
ffcb
0017
ffd7
0002
ffff
0009
0016
000d
ffdb
0026
fffa
0000
0041
003c
000d
0026
002a
ffe8
000d
ffd8
0017
0024
001d
0010
0001
0018
0004
000a
fff5
ffe9
0006
0020
0017
0042
0052
fff5
0002
0017
ffd6
0011
ffea
001b
0014
0008
001d
0019
0014
000b
0000
0009
001b
0031
ffeb
fff3
fff8
0029
0004
0012
ffff
ffbd
ffc5
ffea
ffea
fff1
fff7
0027
fffb
ffce
ffff
fffb
ffe1
ffcb
ffec
0014
ffe7
ffe1
0007
ffe2
002a
fff3
0005
fff9
fff9
fff5
ffe3
001c
0001
0024
0002
0034
000e
0010
fff9
ffef
ffe1
ffd3
fffd
fff7
0026
0006
0038
0020
fffe
0010
ffff
0033
0003
0016
ffe1
000e
ffde
ffc3
ffed
0013
001d
ffeb
001f
003c
0015
fff6
fff8
0020
ffe8
ffde
0024
ffdd
0031
0035
003c
0005
002d
002c
001b
ffda
fff0
ffdb
ffe1
0022
0014
0015
ffd9
fff9
ffdc
000d
ffed
ffd5
ffda
ffc8
fffd
0014
ffe7
002b
ffe3
0026
fffc
fff2
fff9
ffec
002a
001c
0029
000e
ffed
0000
001c
001b
001a
ffef
fffb
ffdd
fffb
0024
fffe
ffee
ffe4
ffe8
ffe2
ffc8
ffe2
ffd3
ffef
ffda
000d
fff7
000c
ffec
0017
ffec
ffd5
ffe6
0009
fff6
ffec
001f
001f
ffdd
ffdd
0010
ffd5
fffd
0019
0019
ffe6
0015
ffe5
fff1
fffa
ffc6
ffe5
ffb5
ffb6
0008
0011
0034
0038
ffee
fffe
000b
000a
0012
0006
0008
0000
fffc
001a
000a
fffc
ffea
ffc6
ffc9
ffd3
0005
0009
0011
0008
0008
fff5
0010
0026
0032
ffd7
0004
0001
0007
002b
003a
ffdd
fff8
ffcd
0039
0026
0009
001a
0009
0010
000c
ffff
0038
0041
0029
0016
ffcf
ffed
000a
fffe
000b
002c
0003
fff3
000e
0003
0005
0007
002e
002a
ffd8
fff2
ffff
0033
0026
ffd7
000a
fff5
fff8
001d
ffcb
ffef
ffef
fff3
001c
fff2
ffea
0014
0011
fff8
ffe2
ffff
ffcc
0018
ffe5
0021
fff0
fffe
ffd7
ffff
ffdd
000a
0014
0020
ffef
fff4
0010
0027
001a
ffd2
ffdf
ffd4
0007
ffe4
fff0
ffdd
ffc4
0004
ffd5
ffe4
ffd4
ffe4
ffe1
ffe9
ffef
ffc4
ffc5
0008
001e
0017
fffe
ffdb
ffec
0018
0015
001f
0024
ffd8
0010
ffcb
fff8
ffee
0011
0023
0041
0019
003a
003a
ffe8
fff0
ffe2
ffe8
ffd3
ffb8
ffe1
fff9
0010
ffeb
ffda
ffda
0003
ffc1
ffa8
001f
0016
ffd4
ffe3
fff9
0014
000e
fffd
ffe9
fffb
0046
0033
fffc
0009
ffdb
ffe9
ffe9
ffb6
ffd3
ffd3
000d
ffd6
0001
ffd6
ffd9
ffd4
ffdb
ffe3
ffe5
ffc9
ffcb
0002
ffe0
0012
ffea
003a
0016
ffd7
ffba
0023
fff3
0002
fff3
0023
ffe4
ffcc
ffe8
ffbe
ffb1
0013
0029
ffd3
ffd2
ffc3
0001
fff4
fffd
002d
fff3
000b
000b
000b
ffe9
ffe9
ffe7
ffe9
0007
0006
ffec
001b
ffdf
ffbf
ffb9
000d
0003
ffd0
ffcc
ffb2
ffd0
0013
fff6
0017
fffd
003b
000c
0034
fffb
ffe1
000a
ffe0
001e
0019
0049
000c
ffe8
ffe3
ffdb
ffda
ffea
fff2
0026
0006
002c
001d
0009
002b
0025
0014
fff5
ffd4
ffc0
ffc8
ffcd
0007
fff2
ffc5
ffff
ffe5
0015
ffe5
ffeb
0007
0005
ffe5
002d
0003
003f
0040
fffe
0034
0002
0015
0034
0022
fff1
fff1
ffe4
0007
0034
fff6
ffe9
0014
001e
0007
fff9
0010
0038
0036
ffc7
ffe9
0002
001a
fff1
fff6
0041
0038
fff1
ffea
0034
0027
ffec
001f
0014
0019
0014
003d
ffe7
0017
0008
0007
002c
0036
0033
0020
0007
0002
fff7
0040
0032
fff1
ffe3
0019
0032
0054
ffff
002f
fff8
ffcd
ffe5
fff5
001f
fffa
ffee
002b
0007
fffe
0000
0024
0025
ffe6
0004
ffed
ffe9
000d
ffe5
fff4
fffd
0014
0014
fff8
fff0
ffe3
002c
ffea
001f
fffe
0064
0055
003c
ffca
fffa
ffd9
0002
ffdb
fff5
ffec
0006
0000
001f
0004
ffc6
ffe6
003a
001c
fff9
0006
0021
ffde
fff0
001e
0006
002f
000b
fffc
000d
fffc
ffea
002e
fffc
ffeb
fffc
0003
ffef
0019
ffe5
ffeb
0021
ffed
fff8
ffe3
ffbc
fffd
002c
ffe8
ffc4
ffcb
ffb9
ffea
fff7
fff9
0004
000a
0005
fff5
ffdd
0008
0000
0008
000a
001f
ffe8
0015
000b
fff7
ffeb
ffe8
0020
0015
ffe7
ffeb
0031
ffec
002b
0017
fffd
fff7
fff7
fffb
0018
000a
0027
000b
000e
0002
fff0
ffee
001d
ffef
0010
ffd4
0000
ffe1
ffd1
ffea
0031
ffd1
ffce
0037
0043
001a
004b
0009
ffe0
ffdf
0016
0020
0009
0006
0010
0026
ffff
ffe7
ffe4
001b
0014
0006
0016
0015
001c
ffee
ffea
0004
ffd7
0008
0004
0004
fff1
0013
fff9
ffb0
ffdb
0020
ffff
fff1
0016
fff8
ffe0
000d
001e
ffe5
ffe0
0025
0000
ffec
ffdd
ffd6
ffff
ffc4
fff4
ffd5
000e
ffca
ffc0
ffb5
000a
0023
ffd7
ffc3
fffb
001f
0008
fff8
fffc
0009
fffc
000b
001a
0028
ffd1
0003
ffff
ffe3
0018
0013
fff2
0023
ffef
001d
ffd9
0019
0003
001b
ffeb
000a
ffeb
0022
001a
0006
fff8
fff2
fffe
ffe9
ffd8
ffe9
ffd6
ffea
000a
ffca
ffd4
ffcb
ffe6
0044
002f
0029
0020
ffea
0021
0044
0024
0021
0001
0010
ffe4
0006
ffe4
0018
ffec
0012
ffe9
002b
fff2
fff4
fff9
ffda
ffda
0000
000d
000e
fff1
fff3
ffee
ffe0
0005
fff5
0040
0059
000b
ffce
ffea
0006
ffe9
003b
0029
ffcf
ffc7
001b
001b
0009
ffe4
002f
fff8
0004
ffd6
000d
ffef
002e
0013
0025
fffd
ffdc
ffec
fffe
0013
0021
000a
ffed
ffd0
ffe1
0006
ffe2
000a
ffdf
