ff92
009f
0005
0093
008e
002f
0059
001d
007c
006c
ffd9
005a
ff58
0052
ff6f
ff68
ffb4
00b7
ffec
009b
ff64
0034
ff14
ff7c
006f
009d
ffc9
ff70
ff63
00c9
ff7b
004e
ffc7
0066
0040
004a
ffd9
ffb4
009e
000c
ffd2
007f
0086
00ad
ffb8
009c
ffee
0073
fffa
001f
0084
0053
0017
fffb
ffdc
006e
001d
fef3
ff70
ffda
ff65
ffcd
00d0
ff9d
0098
ff47
ff67
ffc4
ff4d
ff86
002c
005e
ff8b
ff67
fff9
ff90
ffc1
0002
0054
0092
fff4
002b
0073
0010
ffe0
ffb1
00cc
00a1
ff8d
ffbe
ffbe
ffce
0028
ff6d
ff51
ff85
009e
0076
ff74
00ba
ff79
ffdb
0066
fffb
ffae
0000
ff74
ffde
0051
ff8a
00ca
004b
00a5
ffde
ffe4
ff68
ff58
004b
0008
ffdb
ffc4
00a5
ffc8
007c
ffce
0022
ff57
0053
0061
ffc0
0096
ffbd
ff7c
009b
ff73
0025
ffd0
ff5e
00ab
0044
0041
ffc6
0075
ffa9
0067
ffb7
0044
006c
0068
0033
ffcc
ffed
ff88
ff87
0017
0069
ff65
ff77
0048
ffd5
001d
0050
0078
ff93
ff52
ffef
ffec
0037
00aa
0059
000b
0027
0019
ffcb
ff88
003f
0044
005c
ff87
0078
ffd6
ff9c
ff5b
ff80
ffd0
ffa4
ffd5
ffa4
0030
ffaf
ffbc
ff8b
0060
ffc4
007c
006f
ff8e
ff6d
0024
0049
ffbd
ffb7
001d
0022
ffc6
ffe6
0053
0056
ff7a
ffb5
fff5
0059
ffa8
0008
ff8f
0017
001c
ffbf
ffa2
ff7e
001d
ff9a
003f
ffd8
ff9b
000b
ffb4
0055
0049
0054
ffa4
0090
fff4
ffb8
ffb7
ffb2
0013
ff92
007e
000c
ffa4
0025
ffa2
0048
004d
ffd9
002f
0029
ffa3
fff5
005a
0001
ffe6
0067
0051
0003
002b
005f
ffa3
ff73
ffe4
0057
0005
001a
ffc8
0064
0054
0012
0043
004b
0060
ffeb
000e
ffec
0044
ffae
ffef
005c
0042
005f
0084
0086
0023
ff89
005b
ffb6
005a
ffd1
0065
ff3a
0002
009a
ff53
fff0
0014
ff5a
0052
ff8e
ff66
ffd1
0035
ffec
0018
0052
ff36
005a
ff9e
ffbc
ff8c
fff3
007e
ffce
ffdb
0031
003c
fff2
0091
002d
ff99
ffe3
ffc8
0027
ffb9
0042
ffeb
002d
ffb5
ff59
fff2
ff65
ffc3
0029
0056
fff2
0066
0069
0095
ff9d
0064
009c
0039
00a0
ff97
0044
ffae
ff88
0040
ffb5
ffa8
ff59
ff9c
ff90
ff8e
0059
ffba
002a
ffc9
fffb
ffd1
ff79
fff4
ff69
fff3
ff8c
0050
0048
ffbe
001f
ffc0
ffee
0011
001f
ffb6
002f
0057
006d
00b7
008f
ffca
0010
0091
000a
0006
0002
0017
0095
ffec
ffda
0028
ffc9
00b3
0008
ff95
0080
0023
ffeb
006f
008e
002e
ffee
ffcb
0002
0022
001e
ff6b
0061
0069
0008
0015
0010
0026
ffb9
0065
ff52
0065
ff8e
006b
0011
ff6a
ffba
0089
ff7b
fffc
ff97
0044
ff5a
0012
ffde
00a6
003d
0035
ff7f
ff68
ff63
ffbd
ffcd
ffd5
0003
0060
004e
fff8
fff0
ff7f
fff6
ff8f
ffba
ffff
0035
ffd2
ffce
0005
0079
0062
ffd1
004a
ffa8
fff5
ffff
001b
fffd
0022
ffad
0076
ffd1
ffcf
ffb9
ffd7
002c
0057
00a0
0036
000c
006c
ff8c
0004
ffbc
ffe2
0054
008f
008c
002a
ffcc
ffed
ffc9
0055
0057
006d
ffec
000b
ffcf
ffe3
003d
ffd2
ffd4
0014
ffeb
ffe0
ffcf
fffc
0052
0044
ffd8
ff8a
0015
0047
ff91
fff1
fff1
ffd1
fffd
ffad
ffd4
ffe2
003a
002a
0025
0046
003f
ff8e
fff3
ffaf
ffb6
0085
fff6
005d
ffae
006a
ff94
0057
ffea
ffcc
0007
fff5
ffaf
003f
0027
ffca
004d
ffd7
fff3
0099
006d
0064
0050
004b
fff5
000a
ffca
003f
001d
001a
ffec
006d
001b
ffff
0013
ffcb
fff9
ff9a
ff79
ffec
002a
000e
001d
0047
ff95
0022
ffa5
ffb2
ffde
0056
003d
fff0
ffcd
0035
005a
004b
ffa7
0025
0022
0080
007b
ffea
ff2e
00a5
ffa0
ff3f
002a
ff7f
ff2d
005e
00de
ffaa
001e
00ee
0003
ffdc
ffd8
ffab
001b
0023
00cf
ff71
0083
ffdb
0054
ff51
ffeb
0035
ffae
00b2
0051
008b
ff88
0054
0059
ffb4
ffc1
00a6
00c5
ff39
00b0
00e3
ff9d
ff92
002e
0028
ffe1
ff8d
0021
007d
0067
ff80
ffff
002c
ff9f
ff97
0028
002a
0048
001d
ff9d
fff6
00a9
0066
ff92
fff3
001a
ff64
0002
ffea
ffeb
ff30
0013
0005
ff85
00bd
007a
0059
008c
ff69
ff60
ff92
ffff
0078
0091
006d
0027
ffda
ff6a
0016
ff2f
003d
0020
ffdc
006a
00b5
004b
006b
003d
fff7
003a
ffae
ff5b
0085
0010
005e
00aa
fff5
ff69
ffb2
0064
ffcb
fffc
fff2
0082
001c
ffba
006c
ffcf
0098
ff9c
ff18
ff2f
ffe0
ffcf
ffd2
ff75
009a
0042
004a
ff19
ff97
005d
0025
ffe8
ffcd
0031
0014
006d
ffd1
ffea
0005
003c
ff86
ffcf
003f
0048
ffa7
00a1
0015
ffa8
ffa9
005c
ff6e
ffe8
ff86
0085
0093
0130
001b
ffb4
ffbf
0033
000b
ff72
00c2
ffc6
0019
0072
ffb8
0045
0047
ffa1
ff9b
00e2
ffda
ffef
0037
00a1
ffe8
002b
ff5f
0032
0087
ffc8
fffc
0036
0024
00b5
fff6
006f
004a
0049
0025
0032
0093
0054
00ae
ffaf
0078
007b
008a
ff76
ff78
ffc1
0029
ff8e
0046
001b
ffb5
ffb8
ff95
0082
0020
0016
ffbc
003f
ff8e
0038
fffd
0047
0064
009f
fff3
0099
0035
0080
007f
ff61
0080
0061
0072
00db
0038
ffc2
ffc6
ffa8
ff6e
0022
002c
ffe0
001b
ffcd
0093
0022
001f
ffcf
0011
004d
ff60
ffa8
ff69
0099
ffb1
004c
00b9
ff53
fff0
ffcb
ff99
0011
ff87
0040
ff8e
fff9
ffbc
0011
ffef
ffd4
ff7f
ff7e
ff51
ffb4
ff62
0036
ffe6
ff83
0062
ff78
ff7a
0056
ffc4
ffc9
00ac
ffd3
0077
ffe9
004c
006d
001e
ff92
001b
0097
fffe
0000
00a3
ff91
ffd3
ff81
ffcd
0021
ffdf
0009
fff9
fff8
ffe3
ff97
0023
0000
003c
fffb
002f
ff97
ffd0
001d
ffad
0048
ff9c
ffee
ff9d
0004
ff98
002f
ff79
ff95
fff5
0061
0032
ffeb
000d
0022
ffee
002f
ff8e
fffe
ffc6
ff5d
005b
0092
fffd
ffd9
001f
ffe5
ffd7
003e
ff8f
00aa
008b
ffc0
007d
0005
009a
fff6
0060
001d
002d
ff9b
0018
ff9b
003f
0063
002e
ff8c
0048
001c
008b
0014
ff95
ff60
fff5
0008
0026
ff5a
ff70
0000
ffcb
0014
ffe2
ff94
ff77
002f
ff67
0026
ffbd
ffe9
0055
fff6
ffba
ff86
000e
ff86
ff4c
ff94
ff5d
ffe4
ff60
0051
0053
0077
0079
ffd2
0030
ffb5
ffc6
007c
006b
0078
0088
0040
ffc7
0032
ffad
ffe2
008b
ffd3
001d
0035
ffee
002b
0024
ffb8
0098
ff81
006c
ff71
0046
0000
0023
0011
ffd9
ff94
004a
ff69
ff7e
ffee
fff8
ffe4
ffb9
0060
ff9c
0034
ffdb
0013
00bb
009e
ff7c
0047
ffd1
006d
005f
0080
0027
006a
ffd7
0053
ffe7
ff7c
0070
0008
ffcf
ffcd
0035
ffe4
ff63
fff3
0046
0006
000c
0034
002f
ff8a
ff94
006c
ffbb
ff57
ffbd
ffe1
ff83
ff74
ff85
ff96
ffaf
ff8d
005d
ffe1
ffb7
0039
0052
0029
0061
ffa3
004e
0087
ffd8
001a
ffff
0076
0023
ffb2
ffb4
0007
0027
ffa8
ff99
0064
004d
001c
ffba
fffd
0021
ffb2
003a
ffdb
ff7e
0027
ff74
ffb3
fff9
ffe9
ffa4
ff90
0081
ffd2
ff95
0032
ff8a
007d
ffbc
ffdf
ffe2
003c
ff92
ff52
ffda
0046
ffe9
fff0
ffb7
ff77
ffe0
004f
ff93
ff9c
ff98
ffdc
ffd7
ffe5
ffa0
ff88
0078
000a
ff74
0083
ffe7
ffed
007b
004f
007a
fffc
ff9c
002b
ffe5
0085
002f
0013
fff1
ff55
000d
ffdd
ffea
005b
0003
ffac
ffa0
0010
ff8d
fff0
ff8b
ffdb
006c
ffa2
ffad
0055
ffa2
ff6f
ffd6
0070
006d
0052
ff86
001c
0040
0065
007d
001c
002b
0000
005c
0087
0082
002d
ff7a
0072
007f
003d
ffe5
002a
006d
0035
ffad
ff8d
0012
0085
0075
ffac
0013
000f
ffc2
0026
007d
0016
ffa9
004e
ffde
ff97
fff3
fff2
ff87
ffaa
ffa5
0041
003f
001b
0035
ffc5
ff56
ffcd
008f
ffae
0012
ffc2
ffca
fff2
0048
ff92
ffbc
fff9
ff66
0023
0004
ff77
0083
ff9d
ffcd
0013
0054
fff8
0039
fffa
ff5f
ffa4
0022
0014
004d
0033
fffc
0038
ffa4
000e
000d
ffa4
0052
0026
0081
ffcd
0029
ff96
ff59
004e
00a4
0091
002e
0049
0002
0011
00a4
0057
ffab
ffb5
ffb4
0045
0000
ffeb
0012
fff3
00a3
ffc6
ffbc
004b
ffcb
ff94
0053
006d
ff9d
0056
ff9b
0014
001a
ff87
ffba
0050
0010
ff7a
ffac
0055
ffa4
002e
007e
ff26
007a
0014
ffce
ff89
ff9b
ffd4
006a
ffe0
00c7
0052
fff8
ff8d
ff8e
ffd3
ff9d
ffc6
0054
009a
00bf
003f
ff34
ff94
009a
ffca
00d7
007d
00d6
0075
ffce
ff92
007b
00a0
0065
ff3b
0001
ffaf
fffb
ff50
ff66
fff3
fffd
ffc2
ff8d
ffb6
00ab
007c
0066
0078
000f
0026
00e3
0049
0043
ffac
001b
ff64
ffcd
ffa7
005f
0043
ff97
0080
0045
ffe4
0046
ff97
ff96
0048
0054
fff6
ff4b
0051
ffc6
00a0
005f
ffbf
0025
ff9f
ff94
00bd
001c
ffbb
0074
001d
ff4d
0011
ff56
ff17
002d
0092
008c
fff4
0062
ffcd
ff74
0031
ffc9
0081
ff85
ff7d
003a
0055
ffba
ffde
ffe4
007d
ff9a
000d
0004
ff8b
0010
004f
0047
ffa7
ffbb
ff83
ff65
ff7b
006f
0030
0009
0097
ff71
005e
ffb8
ffc9
006e
ffbd
0085
fffd
0090
0078
002f
ffaf
ffed
008b
0017
008c
009f
ffca
ffbe
0035
ff64
ff9e
ff65
000a
ffb4
ff89
ff94
ffbe
00cb
ffd8
ff91
00a2
0030
ff84
fffe
ff5a
fffd
ffde
ff92
ffc2
0020
0099
0056
0078
0034
004c
ffed
0086
0001
002b
ffe1
fff5
0001
ffdd
ffe0
003f
0096
0066
ffe5
ffb8
0095
ff8a
ffaa
0020
ffcf
0029
ff8b
00a1
0092
0041
0091
00d4
ffcd
0044
0077
0044
0055
ffe5
0017
0036
ff91
009d
004d
0048
fff5
00c3
ff7d
ffed
ff9c
0049
007e
00bd
0034
ffb2
00b6
0042
0082
0042
ffdb
ffb1
ff30
0030
0057
ff75
ffff
fffb
ffb5
00a1
0090
ff91
0011
ff8f
ffd4
00b7
0003
00b7
fffa
ff82
ffcf
ff92
0035
ff40
ffc3
0012
0049
0018
ffe1
005c
0036
001a
ff85
ffcc
ff99
0045
0082
fff5
0087
00b1
ffd9
0004
001c
003f
006d
000b
0094
0020
ffd8
0019
ff5e
ff4e
0018
ff96
ff6a
ff6b
0088
fffd
ff6b
ffc1
ffba
006d
0015
ff9c
ffa3
0003
0038
001f
ffe8
0081
ff9b
006b
ffba
ffee
ff6f
0058
0003
0037
008a
ff7d
0082
ff69
001f
0032
0039
ff41
ffd5
ff5e
002b
004c
ffb7
ffb5
fff8
0042
ffe9
0001
0042
00c1
008c
007a
ff87
0049
ffc4
0076
ffc6
ffb7
002f
ff95
ff77
0034
ffd2
ffb7
0021
ffd0
0094
ff9c
0029
ffd4
ff45
ffac
ff57
ff8f
ff75
fff3
000a
0031
004c
0028
007e
ffbf
ff7d
0005
002f
0070
ff4e
ff87
0093
0015
000c
005f
ffce
ffcc
ff9a
ff89
ffb0
00ad
0052
ff87
ff9c
ff9b
0012
ff8d
ff5d
ff87
0030
ffb7
0034
ff42
0001
005e
ffd0
ffbd
ffc2
00b0
0045
ff8c
ffd2
ff84
005d
ff58
ffdb
006a
ffc3
ff8e
ff6d
0057
0012
0069
0020
009b
0097
0069
ffee
0028
ffc7
0053
ffc8
0039
fff4
0033
0011
004a
ffef
008b
0041
fffd
0038
0031
ffad
ff5d
fff5
ffe8
003a
004a
0086
0008
ffa3
007d
0073
ffb8
ff72
fff9
ffd1
ff3e
001b
ff9a
0068
ff97
00de
ffe0
00b0
ffb3
ffc8
ff69
ff82
ff96
0019
ffbd
0046
00a1
ff5f
ffa9
00c3
00b0
ffdc
ffdb
ff75
00a4
ff95
ffd6
000f
ffda
009b
00af
000e
ffb2
ffd4
0012
ff81
0035
0026
ffe9
005b
0024
0089
ffc0
ffb6
ff6c
004d
ffa0
ff72
ffc5
0094
005d
0058
0040
0031
ffba
005c
ff70
007d
005c
00a4
fff3
0036
fff5
0024
fffc
008b
0048
fff1
002f
0087
fffc
0008
ffda
004c
ff7a
ffbd
ffed
0064
ffe2
ff2e
ff8d
0027
ffaa
fffa
ff51
ff8d
ff92
ffe0
ff20
ff34
ffc7
008a
ffb4
0080
0020
00ab
ff86
002b
0098
ffd0
0054
0094
ff78
ff3f
ff63
00b1
ffed
ffaf
ffd4
ffce
ffae
ffbc
001f
ff3a
ffc0
0086
0088
00c6
0074
008c
0038
ffc9
ffec
fffc
ff71
ff88
009e
0019
0078
ffa0
0023
ffc9
ffc1
00b7
ffed
ffa3
ff82
fffc
005d
0072
ff63
001a
0062
0083
fff6
ffbc
0072
ffd3
ffad
ffd0
ffee
004f
ffb2
ffd4
0088
ffed
ff88
ffd1
0044
ffdd
ffd2
ff9f
ffaf
009c
00b0
ff95
0057
ffe6
0071
ff01
ff1b
ff8c
ffb5
001c
0069
007c
007f
0021
0054
ff50
00b3
ff79
ffa2
0043
002c
ffb1
ffe5
ffbb
0044
0062
0010
ffff
0050
0071
00b2
fff5
ff5f
0044
0030
ff9e
005f
ff82
0068
ffac
ffbd
010e
0075
ffa1
ffdf
ff90
ff77
ff6b
ff4c
007d
fff5
fffd
0019
0091
00dc
ffae
0000
0028
ff6c
ff57
ff60
fff6
0045
ffb8
ffeb
005a
00c5
ffd6
ffc8
0080
002b
ffc2
0035
0016
0050
ff8b
ff87
ffc3
00c9
fff2
ffb5
ff6f
0033
00b1
001e
ff71
ff45
0020
ff9a
0044
ff7e
00c7
0036
0052
0006
004d
00d5
ff6c
000d
ffd9
0065
002b
ff50
006a
ffcd
0027
0058
0077
ff46
ff8c
ff53
ff47
ff6b
0014
ffab
0007
0028
009e
ffb0
ffcb
fff8
ff9a
00b8
0083
ffe3
ff25
004d
0070
0051
ffef
ff46
ff7b
ff6a
ffac
0056
ff95
ffa3
ffb3
fff7
008d
ff87
ff82
0047
0056
0083
ffe3
0030
0037
ff6e
ffd6
ffd0
ffce
ffd8
ff68
0036
0044
ffc3
0080
ffab
000f
0091
0081
ffee
000d
00db
0087
0069
ff6b
0005
000f
0013
003f
ff9f
0098
001c
ff8c
0037
ff73
ff87
009c
ff9d
ffed
ffbe
0042
ffc9
0020
0080
ffdf
ffa6
003f
00a5
ff91
0084
002c
ffb7
fff1
0060
003a
0073
0043
0035
ffc2
00b3
003c
ffba
ffba
ffe1
ffb9
ffa7
008b
0098
005d
ff9d
003d
0018
fffd
ffb9
ff5f
006a
fffd
0025
00b9
ff95
ffdc
ff44
0075
0004
ff93
ffe1
ff90
003a
005b
0060
ffca
ff6a
ff65
ff7f
ff44
003e
ffae
0009
00b1
008a
fff8
0023
ffb0
ffa3
0066
ffed
ff9c
0056
ffe7
0006
ffc7
ffe9
003e
fff1
0001
00bb
ff3f
001e
0036
005b
0095
0041
ffc3
0083
ffc9
ffd9
0006
0056
ff9e
fff4
fff3
ffe6
ffd5
0041
00db
00dc
fff2
0022
0030
ffdf
ffbe
006b
0008
fff4
0072
ffea
ffa7
0027
0099
ff78
ffc0
ffb8
0086
0094
ffed
ff65
0020
ffb5
ff79
ffbe
0076
0030
ff85
0066
ff8a
0096
002b
fff7
0036
ffa2
ff81
ff76
0004
0014
ffbd
0078
fffa
ff6e
ff94
ffe1
009c
0029
004a
0002
0079
ffa6
000d
ffb2
0018
ffa2
ff97
005b
001d
0030
0067
004c
0030
0095
009f
ffc2
0058
ff9c
ffe4
ff92
fff2
ff97
ffb7
ff9b
0025
0054
0088
ff86
ff88
0037
007e
ff7f
ff93
fff8
fffc
0011
0075
fff1
ffce
ffa0
fffc
ff36
0024
ff84
0010
ffff
ffe6
ff96
ffbb
ff5a
001f
ffe3
ff8c
0020
0030
007d
007b
ff85
ff35
ff75
ffb9
0050
ff49
ffba
fff5
ffca
005d
003e
fff0
006c
000f
0089
00af
0069
fff4
0068
ffc8
ffcb
000e
0045
