fe55
03cc
fe6f
0036
feff
0183
fe56
fc57
fe47
fdff
02e2
fdc0
01d3
ff09
fe4a
0135
fce6
fedf
fe3c
03a8
fef2
ff1a
ff06
007a
01af
fd9a
02ff
fcd2
fe7c
feaf
0083
fff7
fc7b
fe7e
0025
fd42
ffb3
ffae
ffd6
fce2
fef3
0091
003b
fe4c
00b3
fe87
0199
ff11
007e
ff23
012c
fe08
fec9
ff75
01c9
ffcb
ff1f
fe22
030e
0481
0324
fcea
fbe9
ffe6
