0138
01d3
ff3a
fe03
ffeb
012a
019b
fd09
0478
fd62
000c
fe20
fdf5
ffb9
fdcb
ff7b
014c
00c7
feaf
fc0d
ff86
0209
fe4d
ffe2
00e0
009c
ffb3
fe51
fe85
fdb8
00e1
0174
fe22
fd0d
0423
0088
fa0e
fe5b
0120
fdb7
fdb5
ffac
ff6e
ff8c
0348
fd60
00f7
fe4f
027c
0229
008a
0234
ffce
febb
ff48
0217
fdcb
ffcb
fcea
ff63
0353
015b
0093
fd97
03a2
0153
0003
fea6
fdc0
fe9e
ff38
fd46
01d0
fd58
0219
fc33
01e7
0083
ff8d
02c9
fc40
0311
fe26
fc97
00ed
ff2a
0318
015f
0279
feea
00f7
ff08
00ea
0235
fe15
01c3
fd39
ff67
0105
fd48
fe41
0040
fd3b
ffb0
02b7
fe97
fc8b
0267
0322
ffd8
025c
ffdc
0264
fe64
034d
0102
ffea
ff25
013d
fe8b
0087
ff46
fdc3
0043
fccd
03c9
ff99
fdf6
ff48
fcf6
034d
ffdb
fd2a
fe28
fe2e
0139
fe27
0285
0351
01cb
fe90
ffe5
ff7a
03e4
014b
fdd3
ff6b
ff67
007c
fe7f
fed9
000f
01cc
feb2
fff3
feed
fd2f
01c8
fca2
fcfd
fc6d
0116
fed7
fdac
ffc3
01f0
0166
ff12
010c
fe18
fced
ff42
fd84
fff9
0118
ff53
009d
0121
fc8d
fdaa
0299
fe63
0206
0041
fe30
000c
002b
fcfd
fd14
013d
fe55
0100
0248
01d1
feb7
ffa2
0059
0027
ff96
fef6
fcd3
ffcd
0249
01c2
00ac
0041
ff93
ff2c
ff36
ff2a
ffb8
fddb
000d
0390
fe86
febe
0113
0077
0214
0119
ffc3
0208
0041
fe51
0281
01ee
fd3a
fcb5
ff33
0004
feae
fde4
fff5
ff36
ffb7
fd73
009c
005f
fca7
01e0
feb4
ff60
fbd7
fd27
ffda
ff83
fe8d
00e4
01e1
0210
0197
006e
017f
fe18
fe92
013c
ff6d
fc9f
ff86
030f
fde7
0075
fda7
02ee
00fd
0450
02d2
013f
ff61
ff2e
fe53
fe11
029f
ff00
0465
02c3
fd59
0378
0246
00ea
ffd7
fffd
01b7
fcdc
ffcc
fc8e
fe1c
0206
02ee
0267
0027
021c
febf
00cb
0296
0011
00af
028b
feeb
025f
0093
007d
0114
fe82
ffef
003a
ffc1
0016
fe84
0020
fedd
01b9
fd9a
0085
fe35
0205
00f0
034e
00e3
02c9
fed1
ffaf
fe84
fe88
0018
fef6
fec4
fcac
fda0
fde4
00f7
fd61
0161
fdac
0235
00ce
00f4
004d
fe90
0272
00ef
fce4
fd0d
fd8d
fec7
0250
fdbe
02f4
0136
0544
0227
03bf
fbf8
ff5d
0204
014f
01e3
008c
fd48
01a3
ff6d
ff4a
fe69
020e
00f4
00ed
fda4
011f
0097
022a
fef1
0034
fe70
00ec
00dd
0160
004e
00d0
02e7
0137
00eb
00de
017a
ff59
fe87
0303
0233
0258
0052
037e
ff4e
fdf9
fe2d
0199
ff62
ff7a
0277
fe44
0086
023e
ff99
fec4
0182
01c9
fd14
ffc7
fdbb
0255
01b1
fe01
fe6c
01ef
0176
ff61
fd7a
ff6f
02a0
0227
fe64
ff3d
0149
fdd5
026b
02ac
fe17
0157
ffdb
00a2
fd74
fe9f
00d8
0098
015b
ff01
fbb1
00d8
031b
0258
003c
fdbc
00a4
fd2e
0007
00dc
0018
0154
000b
ff84
025a
0135
0190
014a
fde0
ff69
02b3
0417
fac1
01fd
ff56
020b
01b1
ff42
ffb1
00d5
02e4
fe9d
fe23
003b
0190
fef1
00fc
0085
01ea
0078
0193
00a9
002d
fffb
00a5
ff83
feb7
fe43
ff1d
fffc
011a
0027
fe53
ff00
0118
ff27
0068
038f
fea0
0298
fd61
fe0f
0121
fed2
0305
fe95
0268
fc92
017c
ff40
fedb
ff3e
ffec
02e6
000b
feb7
04cd
fe09
0093
0066
ff11
005b
012d
ffc0
ff40
0006
016d
01b6
fda1
04e7
02ec
ff26
fe9a
000f
0003
0051
0133
fcc4
fe6c
0187
01d0
fd9c
0369
01e9
febd
ffa6
009c
00d3
ff64
ffc0
fd2c
fea4
04f2
02f8
fba3
0277
fe3b
fe2e
0388
ffd1
00f4
ff37
009c
ffab
01ab
0106
01d5
0172
01b7
0223
0400
0309
ffcf
ff60
fce4
fff7
0068
021a
0133
011c
0060
fb8b
0180
ff04
fd6a
fecc
ff68
00a3
fe07
0008
02f8
fffc
fddb
0064
fc7f
fc1e
ffa9
0024
fb81
0268
fed6
fcfb
02f7
015d
fecc
ff39
fe7d
ff4b
011d
fef5
fd6f
ffbd
0366
0090
fc54
001b
fcc6
fcb1
ff32
ff4c
031f
fefb
01b1
0114
0114
034e
005b
039b
01cd
00f2
0213
fc6a
0083
01b7
0057
024e
0138
0086
01a1
ffc3
fcd4
ffeb
0117
fe31
01ce
0178
ff0b
018d
ffce
fc4f
03bf
ff0e
fde1
ffa6
fdfd
fe42
ffc9
ff98
0214
0010
fe9e
0368
00e5
fd6b
fc8b
ff5e
0078
010a
ff20
037f
0339
ffc4
fd11
02b0
0090
0113
0211
fe10
007c
fe94
fed3
039e
fb8a
ff5e
0150
ffa2
fe87
ff56
fea2
fe8c
02b2
0204
ffee
ff19
fcf4
01c6
ffdd
fe22
002c
01ee
024e
fd59
fee9
018d
024b
0034
0171
ff7d
0356
feee
0034
fe5b
0071
ff5d
fdaf
038c
fcfa
02d6
0001
feef
03f4
fce5
035e
000f
02a1
0317
fdf4
00ae
004f
ff66
010d
0156
007f
ffdf
fd57
fd3b
0113
fcd0
fe9d
fd5b
fc9d
fd87
00d0
fdb1
fb7f
fd63
0034
03c0
fea2
00f1
ff93
ff48
0174
018c
fdbb
024c
ff36
fd23
fbfe
ffd3
01e4
00b4
fe5b
ffa8
febe
fef0
01a5
fdca
0092
ff46
00fd
ff81
043b
0180
fdc2
0219
00fa
00ff
ff76
0217
01fe
0084
0309
05d8
020b
fcef
fe1a
fe9b
fe63
01d2
0219
0000
fdd4
fdaa
0109
fd25
0187
fce0
00cc
00e2
fddd
feef
fd67
ff79
01d7
fdef
00a1
fe5e
01c5
fd88
001b
021b
03c4
008c
fd45
fec6
ff52
ff96
fd66
012d
0154
03b4
ffdc
0186
fefb
fc5c
fdfe
0149
0207
fd41
0093
fe03
ff47
fc9a
ff4d
0165
00f7
ff88
0240
002e
019d
0236
02a0
fcd4
feec
fd4a
00f0
002a
030d
033c
013e
013a
0072
00af
fded
014e
fe29
ff0f
016a
024a
fd25
0206
ff0b
0195
fd66
02f5
ff35
ff09
007c
fefe
fd83
0041
01eb
0264
02f4
fe56
fff9
0082
030a
fec7
faf8
fefd
fcfe
014b
fe46
ff9f
01ff
0187
02cd
ff95
feb9
fd04
ffea
0239
ff92
fdc0
00ab
01b6
030b
fe68
000f
fdbf
0305
017f
fd82
00a4
fe3b
012e
fde6
fdfd
00cf
0289
02ba
0211
fc55
012f
fba9
0302
fe8d
03f9
fe73
0157
feb6
0073
fd99
f9c9
044e
00ea
fe53
02d5
ff25
0115
00ce
01f7
023f
fc33
010a
febf
fd0f
fecf
fe82
0020
fd97
fcb3
01c7
ff46
0122
ff94
fff4
01c9
fdf5
0093
fdfd
fd76
0226
0054
fe38
003c
0100
fd02
04e9
ff5a
0154
febb
0150
0002
02d0
03ca
00f3
00de
fe3b
ff30
feb0
00f1
0469
02ac
007d
fd66
0023
0167
fe02
0236
fffe
0276
0219
ff54
0108
ff51
027f
02aa
0294
0095
0036
fee5
fd3f
fd71
009b
fff0
f8d5
fe8d
012c
010d
ff02
ff01
fd3c
ff82
fcf5
011a
00fb
01ee
fd34
fe66
ff56
ff08
00b8
ff4c
02f9
fe5b
0206
0351
ffa6
018e
fe48
00d4
fe04
00b8
0275
00ef
feef
0014
02a9
0158
015f
0030
ff01
0132
0199
0015
0176
01f8
ffb2
015a
00a9
fcd6
ff54
ff0f
ff6d
004f
00a6
ff3d
fed1
fe4d
0281
fba1
fde7
ff03
0254
0046
ff50
00b7
fecf
ffeb
0065
030d
0000
01e8
ffd2
0402
01f2
00ad
ff50
01ce
0025
00da
fe25
fdb1
ffa8
ffe9
015a
02ce
023a
fec0
fe60
fdd2
05ab
04b4
0159
0100
fd8c
fd5b
ff7f
00d2
0146
017d
fddb
fee4
fe1c
0132
014d
0293
01ca
ffe1
0032
fed1
00ce
01a3
fcdf
01b2
fe3b
0093
011f
00dc
022e
01e6
03aa
031b
ff62
0113
ff26
ffd2
fdf6
00cd
0064
0031
0189
fda2
001b
ff4f
0175
01b5
ff45
ff05
fe47
fecc
fdf9
0141
ff40
02fa
fe00
ff9b
00ba
ff49
fffa
0054
ff54
023a
01f9
fd55
0046
022d
0115
0139
ffcd
ff09
0145
feb4
002d
fcaf
026a
00ce
fc9b
fe3d
ff89
0163
fe9d
ff12
005f
0111
0132
ff4d
0024
0035
014b
fea9
0093
ff9c
01e1
0124
fd57
ff44
fe56
fdcc
ff67
02e5
00a0
00d4
0082
ff6e
fede
014f
ff3e
003c
024c
0225
ffb3
01dc
fcff
fdcd
ff24
ff16
fed4
0111
fe78
fe41
fcc0
003d
0081
0132
fcc8
fdf1
ffd1
01d7
ffe0
007e
00be
0099
fd06
ffe0
0035
015b
0045
0064
0120
01a7
00b7
ff6c
ffe6
fee4
01e4
02d1
fe1b
00dd
0151
01b6
0086
ff0b
fd84
fed4
00e5
01ea
0122
01a9
01c6
fdc3
fcfa
fdf1
004e
007e
fca2
01aa
0084
008f
02fa
fff8
0000
fee3
0118
ff1e
ff8f
ff13
0076
fd88
ff1e
02be
fdc0
fde5
fee5
ff0d
028d
015d
0008
00d2
0150
fb8a
ff97
fd85
0380
00e3
0229
01fa
fdd7
0090
02d7
0289
01ec
0050
054f
fef5
0359
fec2
ff86
ff74
005d
00ba
fe94
ffc6
0219
007a
012a
0061
011d
ff87
01cc
ff95
ffc2
0019
ff9a
fedd
0395
fb6f
fddf
ff6b
ff5b
002b
fd7c
0186
02e7
0175
ff55
ffc5
fc2c
0342
f9e1
01dd
021a
fecc
fe22
01d0
0095
01d7
029b
fe79
0012
01cc
03d7
01a0
0041
017c
fda2
ffad
02bc
00ea
00c2
02b9
fe2e
00d3
feae
02c6
0322
fd8d
fdc5
fc60
0444
ff5d
0159
0242
ff59
fe45
03b4
feb3
fe8e
fd03
ff0a
018b
014e
00e0
febd
00c7
01ef
fef0
01a1
ff0d
fc30
fd43
00d7
02a9
01f5
01f8
fd4a
ff49
007d
0082
fb9c
fea0
fe8f
023f
ffa0
fd9b
feb6
00e1
fae7
ffc6
fe76
01bd
0381
0180
fd75
fd7a
fea3
0415
fe74
0117
fc4f
013c
fdd5
0139
0016
ff44
ffe4
fd48
fbf4
00ab
015d
fe9c
0278
fe86
ff17
01d6
fe4c
017f
001b
0027
ff8e
ff74
00a5
0033
0201
fd8b
018b
ffaf
023d
0113
01fa
03a8
0156
012a
ffb0
0276
007e
0163
fdf1
ff7f
0078
ff77
fd93
fc96
fcc2
0635
ff5e
ff80
fd79
feae
01b6
00be
ff71
008b
0068
0303
ff4a
01a3
fdfc
fd82
0023
fd27
0183
0278
ffa1
0142
0153
0011
ffb1
01b2
ff57
fefe
fd9f
fcf2
ff84
ffdd
0130
0068
0213
01cf
0253
ffa9
0261
ff42
011c
ff08
00fe
fd4b
fdf4
febe
01ee
0040
ffe5
01d3
00b7
ff66
fee6
fcbe
ff91
fdea
feed
fe18
fd82
fe17
fe1b
fe39
00bf
fca5
005e
00ba
0321
fee3
fd1d
ff4f
ffa6
ff7b
0269
01e4
feb1
ffb8
0038
02b5
fecc
fd71
feb0
001d
00b3
fcfe
fe28
0133
ff46
01d2
ff03
fd43
fcf4
fe09
0270
02a0
fdb5
fec1
fed3
0286
0102
fe68
0167
0034
0216
ff9f
ff36
fcb1
ff8e
0222
fefd
01c3
0047
fe45
fc22
fff2
010b
ff14
00d6
01cf
ffe5
00e5
fed9
00cb
0158
012c
0188
006c
02d3
0435
01e0
015f
fcd7
0124
02d9
ff72
ff3f
00fc
0114
ffa0
ffd3
01d0
fff9
fefa
fda1
fd66
fed0
fcbe
ff5b
fd71
fd22
03c9
fde4
00ac
fcf5
00fa
00ec
0029
0086
fe43
0040
022d
003d
fecc
fd5e
fd0e
00b2
015f
0250
fd0e
fd8c
030e
0008
0269
006e
ff22
004e
feed
fdf3
0136
ff7a
ff69
03b6
fd48
ffc1
fd9a
0280
ff81
fe0f
00bd
0049
ff15
fe06
ff58
fe2f
ff71
008f
0169
febc
0201
ffaa
00fa
0356
ff3a
fa6f
02e5
033c
00e2
fd31
fe63
039a
0018
ff6f
fd7f
00e1
0238
ff38
021d
0093
0259
01c6
0136
0380
fd49
ffdc
00d1
02f1
0258
fed6
fffc
01e0
0201
ff59
000f
fea0
0250
001d
ffc6
0037
ff43
02ed
01d2
0173
ff28
0358
002d
fe70
0327
001b
fe5a
0228
02e0
0120
ff0d
fd54
ff15
fdfc
ff8a
ff9c
03c9
ff80
0279
ffe4
000f
fc44
008e
fefd
00dc
0028
fe4f
0234
02fa
0023
0094
037e
fc3c
fed9
01d6
fcc1
fecf
0152
fdfe
0252
0230
022b
01f8
ff19
029d
fe02
fde3
fe83
fe44
fe4b
0192
0037
02cf
fe80
0190
fff9
0063
028f
feb8
fe98
fdb9
012a
0181
fdf5
0016
012d
0149
0409
ff60
00c7
ff6e
ffa8
fd71
fc27
ff99
00fb
0181
0397
ff0b
ffb4
02c4
fd05
000c
ff10
029e
ff45
025d
ff7c
fe74
ff61
023d
01c2
037f
fe1b
fdab
00cc
0081
ffad
02d2
febb
01d4
0351
fdae
fc7e
ff96
fe9b
029e
0152
ff35
019d
007d
00e3
ff0d
ff13
ffdf
fbb9
ff65
fd12
017a
01ea
01a8
fed6
0260
ffe3
015a
ff28
ffb3
0001
fea1
ffa2
0010
fc57
004a
fe41
ff83
01e8
fd29
0164
fdac
0116
fda0
ffbb
015c
00a2
fc37
fd20
00b4
fed4
0194
ff11
0192
0065
0036
fb70
001d
0253
0075
fe87
0062
0235
0194
fd0e
01e2
ff26
0009
028c
fe74
017b
fe2f
02eb
fd68
02c3
fe66
fd86
fe4d
fdbe
0079
0157
042d
fc05
00e5
01be
ffcf
000f
00a7
036d
ffd2
02d4
0298
fed7
0069
fe03
026c
0018
0016
01e7
fe7f
0012
0048
feb0
fd46
fc1c
fffa
fe0d
ffb4
00b6
fda6
ffe2
ff33
0035
016e
0371
01d8
fecd
fe8c
ff0d
fe6a
fdfc
fef5
0267
ff5f
fdf7
015c
044b
00c7
0064
05d7
fe8d
fecc
03ff
02c9
fbdf
0043
ffda
ffc6
02c8
0291
ff34
ffb6
0060
ff64
ff7b
fd0b
fda4
fc1a
fe21
015d
fce9
ffc8
014c
fee7
02da
fe73
fe7e
0038
0013
ff9c
fee8
fac0
00b2
fde0
0321
ffbd
038d
02c4
fd3e
0264
fe63
fede
fdee
0026
ff39
029b
032e
02fb
fd7d
ff0e
01ac
02a0
ff0d
fe08
01d5
0091
0295
fdf8
0327
01bb
fe5f
ff87
fdf8
00a6
fe68
01b8
fd42
fe88
fee5
ffd3
fe42
fe1b
008f
02f2
019f
fed3
00d8
fbfc
fe60
ffe1
ff5a
0275
fcfc
006c
023d
fd97
fe12
fd3b
fbe7
faa8
0121
00ab
fdd4
ff87
00e4
fd3f
012e
018f
0236
005c
0065
fd3e
023a
fdd6
0086
0298
0089
0045
ff20
fabb
01ed
fe49
000d
fff7
ff0c
051a
0235
fda8
fe5a
0198
012e
0057
0185
fe45
fee5
0183
003e
0236
0047
00d3
fd46
fd68
fd5c
fd68
0046
ff8d
01fc
0223
fd8d
fc7d
ffff
fd9a
011d
02c3
fd45
0111
025d
00a0
fe88
fe8f
0118
01fc
fcca
024e
04df
0135
fed3
ffbe
fe16
fde5
fd00
0356
0317
019a
fe6a
fe90
01b1
006c
02c6
002b
0062
fc0e
ffde
00d8
00e6
feb1
fdd4
fc7f
fbc2
fd80
fd9b
ff5e
005b
fca9
fdcd
ff2f
ff24
0033
ffe1
fd72
034c
011a
fe0c
013a
fd76
fe1e
02cb
ff33
fd84
000a
ff8b
ff00
fd19
0584
fab7
0343
ff56
fef5
0225
0248
fcda
0119
fe51
fe34
fee6
0005
026f
02e8
ff28
00d4
ff2a
014a
00b6
0224
fe26
fda8
ffd7
ff67
ff86
00b7
03a6
fcc1
0122
025c
fdf5
024f
fd43
000c
fdb8
0076
00b9
fce0
fc49
0118
0067
fd88
0254
ff81
fc4d
fb28
001b
01b7
ff6a
03bc
fdef
ff7b
fe8d
01d9
fe92
0187
005b
fdf0
fe42
008b
0156
0162
0190
042a
fdb1
fec9
ff78
015d
fc59
025d
febe
fecd
ffe2
02e7
019e
022f
ffe8
feb1
fc0e
027a
0138
0093
fedf
ff67
fedb
02c2
0188
0027
0003
0398
fd3a
00ea
0047
0087
0030
ff72
fdd3
05fa
011c
034a
fe0b
01b4
0268
02bb
010c
feca
fe41
ff8e
ffdb
fce8
0174
00e5
ff99
01d1
0351
fe18
fc84
0000
fd2c
ffb1
fff7
fd68
fbce
fffd
01f6
0360
01f4
0155
0249
fef1
00a5
febf
ff75
0102
fdcc
005e
013f
0020
01f9
ff94
01ea
ffe6
ff64
fdbc
006a
0044
02cf
00ab
fc53
0136
fd68
0003
feef
019a
ffbe
0281
fcf5
ffb3
fd16
030f
ff57
0116
01f2
ff2f
fff4
0096
fdf4
fe50
fef8
ffdd
ff08
007a
013e
fdba
fffe
fc60
fe56
fe95
fdab
fe5c
fdcb
feba
009f
ff6b
fe1f
0079
fcba
fef1
012b
008c
fee8
fdd9
fdce
009d
00eb
01c2
0144
fe2d
fe1a
fe8c
ff67
fcd4
002c
fd7c
01c3
015c
ffc1
fd99
fec7
fe45
ff79
fed1
026f
0253
00f8
fdda
fe4c
ff4c
0048
031e
00ab
fdca
fe0a
0173
fcdc
0332
0388
008f
02d5
faf8
fcd6
fb2e
fd30
ff2a
ffb4
0008
ffa4
fff7
ff34
0136
ff60
fdaf
01ec
ff7a
005c
0050
fd67
0367
fe09
0384
ffd7
0278
fe91
0211
0124
012f
01cf
0225
003e
ffb4
00e6
0262
fe5d
0346
ff14
ffab
0200
ff9d
fd5b
fefc
fe2f
0079
02b2
ff98
fe42
029a
0180
fdcf
fea8
026e
0228
0173
fdde
00aa
0132
ff2a
fe53
fe6c
fec4
0293
feb0
fd26
028b
ff34
fde8
01be
00d2
0179
0002
fffd
fdd7
ffd1
000f
ff39
ff0b
027a
003c
0347
fbea
ff45
014e
011e
ff8b
03e3
026b
ff2b
019c
02b0
0005
017b
fe3e
ffad
ffae
fe40
006f
0060
ff2e
0160
fdbc
0129
017a
fe56
fd89
00fb
feaa
0406
ffd8
ff40
02c3
fee4
ff72
fda3
021b
ff69
fc44
0469
ff48
ff9d
02e9
0056
ff27
ffb7
ffd6
00d5
0085
014d
0017
ffe2
0244
0296
0196
fdf5
fc1e
fd16
fdcf
03a2
0107
034d
0133
fd18
fe9d
01bf
0084
fdb5
039b
017b
0179
ffb8
fefe
01e2
01f6
00db
0070
ff85
0041
fe00
ffb3
fe0d
fe67
ff6d
01fc
ffbc
fe3a
fd58
033f
01a3
0133
005b
ff07
fe03
fe52
ff0e
033e
00e0
ff0f
029c
fd4f
ff01
fea0
0148
01aa
fd12
035f
0023
00a6
fc45
0157
fe15
01c3
0063
0024
00ea
ffb3
ff87
fec2
fbf8
feed
02ba
ffca
006a
0222
019d
fcba
00ad
ff91
02a6
ff45
fdc5
00d6
fd88
ffd4
fe6c
00be
00d2
0300
00ef
02b5
fdad
fee0
02b7
ff8b
0175
fe93
fed0
ff3e
fe78
fe79
ff6b
001f
ffad
0002
0275
01d1
fe23
fcf2
fdea
fe2c
fc85
0007
0093
fe29
02bc
ff01
fe9c
01db
fbc8
0197
febf
feb7
fdcc
0018
006a
fec7
004c
00cf
fa34
fde4
fc98
0061
fdd2
00f4
01b3
fef4
ff1f
fc97
fe58
0312
fe43
0126
02dd
fdbb
ff3b
fe71
ffc8
0090
0024
0061
037e
fed2
fe5f
fe7f
fe9f
ffbf
fe14
ff86
044c
ff68
febd
00c6
007f
0008
ff74
fc5c
0158
02cf
005e
00a0
ff13
00e3
ff39
02bf
fea9
0126
fe9b
0041
ff73
011d
0154
fecc
ff7d
0465
02d5
ff1b
0095
0202
01a0
ff58
fe67
026e
0099
013d
01b2
fea2
fd5a
0138
fcec
0318
ff4d
0133
ff0d
ff24
0280
0123
00c0
027a
ffa2
00fb
0270
016c
fee0
fed7
00ca
ff72
025f
fcfd
02c1
fd4f
fb7a
fe00
fc38
fff1
0070
03a2
01ac
044a
0208
0134
025d
ffd6
ffba
fe1e
00b3
0132
00ff
ffb3
00ff
fc98
feef
fd90
fba4
fe43
ffe1
fefb
00ac
015d
fe92
0031
fb99
015f
fd26
fd9d
ff64
fd2a
017e
fcdc
fec1
0110
0063
01f1
fe8c
041f
fd23
0087
01ea
fff1
01d1
029d
fc6a
00d7
ff1e
0216
fb9f
0244
fcd6
0368
0039
01c6
0174
fe3b
ff31
0044
0127
fe44
fe26
fea0
043c
0051
00aa
0319
00a8
006a
fee0
fda9
0288
fe1c
006e
ff10
00b6
fffc
fe8f
0078
016a
014d
00e1
fde1
007e
0109
fe8f
0010
fda8
0292
fee5
00b8
fce9
ffdf
ffa8
0104
01aa
ff90
fe19
0123
fda8
03df
00ba
fc8c
0141
016e
010d
0315
0074
fe50
010f
01b3
012c
faee
006d
0200
ff39
00c2
fd81
00d6
01cc
01d0
fd90
ff78
fcd9
000b
015c
fe7e
fdc1
019b
017b
fdcf
fee5
ff1b
0052
ffbe
00da
ff54
fd8f
026b
009f
0104
0224
0048
fd66
ff7b
fcc3
036b
01c8
01dd
0151
0295
fe57
01e7
0267
fe4f
0228
fdfe
020e
ff6e
02cf
00c8
0005
fef6
0159
fce1
0372
feaa
fe2f
fd4f
fd60
0288
fce3
ff43
018a
01c2
018c
00cf
02cc
00a4
fe86
fd7f
020a
00db
ff58
fe22
0257
00fd
ff01
02d2
02a0
fdec
0318
01e1
ffd6
0227
0199
fecf
007f
fef2
fe7b
fe97
0146
ff42
fe98
0520
00fc
0302
ffc3
00d9
ff8b
ff22
00ae
fd76
0128
0259
0007
017f
fdd4
00ae
fff6
fce4
fdf8
01f6
0051
01e9
0372
fdc4
fca9
fecc
fe15
fecb
01ca
0232
03f7
ff22
0295
fc7a
feea
0136
ff68
0092
ff3d
01c7
0358
fc9b
00d2
ff36
fe4a
fe83
fe2c
0116
ff29
005d
02f8
0199
01ee
0188
00f2
01e1
0296
fe34
fdac
0133
fe04
00fd
fd07
015a
fd90
00f0
ff04
ff3d
0218
005e
0102
fd5a
fd7b
00d5
0129
023f
ff87
fdce
0331
ff49
fcab
01fe
015c
008b
024b
fd1d
0113
fe3a
ff85
fe90
ff6d
fe20
fd6f
00e4
ff59
ff21
fd1d
0009
ffb7
feef
00db
ff0c
011c
ffb4
ff2b
00c0
fe09
fdfe
fe32
0231
0007
fe24
023d
03eb
ff70
feea
01f7
00e8
fe8f
fd1e
0019
fe88
ff07
ff9a
0312
fe21
009f
0097
01aa
fda6
0200
ff50
ffe7
0022
0124
0164
fe54
004b
015c
ff63
ffa3
fe60
0321
fee4
fe52
024f
0094
02c2
ff63
001b
fef7
0371
02be
feea
ff69
fde8
fd81
002a
00f3
0192
0182
00d0
feb1
04a1
fe7f
01bf
0271
fea6
ffdb
ff82
fedc
0496
fd04
00e3
0490
00ac
009b
00ed
ff58
fd5d
031a
01cc
ffab
ff79
0428
023f
fd1f
fdab
fde9
ffa5
019e
03b5
0097
fe60
fd38
0110
fe1e
0198
0044
014a
012c
0052
00b6
ff60
fefa
016d
ff71
fd57
ff90
00e5
febc
fe20
fcee
ff57
02be
015d
fd02
0152
ff94
02af
00e4
fd92
0272
007d
ff98
00bf
fe7a
fdcf
fff7
ffc7
0220
010e
01fd
ff26
00eb
fe04
025a
fdcc
01ac
0182
fd91
00ce
fe23
01aa
fc03
014b
ffd2
fd05
fd42
0150
01f8
041d
fd33
ff8b
fe59
fe37
00fc
fe4a
ff9e
0251
0169
0062
0203
01bd
fe41
fc14
ff32
01ef
039a
ff5a
00b1
0020
0047
00ce
ff34
ffc1
015e
ff7f
feb4
fd21
023c
fd2f
feee
0122
0209
febf
fe27
ff58
0281
0299
ffed
005d
00ee
ff11
0081
01eb
fde9
0048
feeb
0054
fee7
ffe5
ffb3
fd01
035e
fef0
02d0
fdae
fd5b
ff13
011c
0298
001f
030e
ff46
fe88
00a7
ff64
ff43
0004
fd02
02a5
fdf0
fe13
ff37
0173
0000
0295
fe82
00c4
007d
fef5
fda1
0275
0224
003b
fd7d
04b2
023a
009f
ff88
0254
00cf
002b
02aa
0138
026a
021a
fe14
0024
fc87
00fe
fb2f
ff5a
018b
fd7b
019c
006f
ffe0
00b5
0152
febb
0240
ff4a
02a4
fdd4
0155
0398
fcdd
00d0
fd2c
ff3b
019b
00fc
00d7
fddd
0134
fe85
00dd
fe0b
fd8c
feb1
0222
023c
017d
0458
fe4f
fe9c
012e
fea7
00fe
0336
ff41
fce5
fe2c
0320
022d
fe2e
fd10
fca1
02f5
fcf3
ffc3
030e
0004
ff68
04ed
fea0
fc6a
feab
0139
00b5
01b6
0333
000e
ff73
0209
fd85
01cb
fe64
0094
0312
fe0c
03d2
fe7a
0350
fe7a
0115
01eb
0074
fe43
0096
00e1
01f0
0280
fe62
fe3c
fe45
01ad
fdf6
ff3e
0178
043e
ffd5
ff5b
ffa5
fb3d
ff29
00b9
012a
015d
fe24
ff38
00d3
0278
01ad
0057
fde3
016a
ffcb
0179
ff0a
fe28
0323
fec4
fcc4
fef9
fb7d
fdd6
fd10
00f2
00ee
014a
ffcf
fffd
0504
0076
0010
fea9
01b5
fe25
fd83
0102
000f
002b
ff7e
ff26
010b
feda
fc8d
fcbe
fef5
02ff
febb
0213
fd33
fd8d
ff41
022c
ffd1
0211
0058
fc2d
fffa
febf
fdf1
016c
fe80
ffcd
0147
0363
ff74
0337
ffe4
fb70
ffc7
02d7
fcce
fcce
ff3d
ff9a
007b
fe93
0231
0213
fe0b
ffcb
ff57
fd81
0255
ff5c
fd87
01ff
fdf9
ff43
00a2
fff1
028f
004f
0335
01a2
00c3
004e
ff05
0027
0010
00b5
febe
00b6
fd6e
0085
fe5d
fd21
02b5
01dd
ff6a
fc32
fe99
023d
0074
ffca
fffe
0067
ff2b
000c
fcdf
019d
0047
02e0
0080
fe54
fe95
0075
fe1d
029a
0489
fe3d
fe93
0134
fd3c
01fe
fea4
ff54
fe5a
0184
01e0
00bb
fc13
ff69
ffa1
0175
fd21
025d
fe80
0133
032f
ff5c
0051
fe1e
ff1a
01e8
0078
01ad
00d7
fe94
fd1a
fe2f
fd50
fb38
fcf9
0184
012e
00ed
00e6
fec0
ffb8
0158
fe83
feb4
ff50
fdbe
ff48
ff7f
ff54
0213
ff30
fb93
0054
fe6a
ff6e
fff5
01ac
012d
0151
02c6
032e
0078
0042
02eb
01c0
01ff
0202
0222
ff53
ffab
0196
00a4
02d5
fdb5
018c
fd39
0162
fc71
007e
fe7e
0289
fe66
fe36
019e
01bf
0154
00cd
ff50
01ee
031f
ffd7
febb
fec1
fd18
fde1
fe57
01a8
00a3
ff16
0042
fcfe
001a
febb
fdda
fe56
040e
fd46
018c
0220
ff0a
0295
01c9
fe49
011b
feb8
02ef
021b
01c4
0290
ff34
005b
fe72
01d3
fedd
035d
fd89
026a
01a0
0107
ff86
fd1d
fe84
fccb
ff03
fdf7
0215
fec6
fcaa
fe8c
fecd
feea
ff3d
fc95
019f
01c4
ff0d
ffb8
009b
f99b
fdfd
03ed
fe8d
0273
0198
01fb
fc5b
ffaf
031a
fbab
fc5d
0294
ff1d
fba0
ff19
fef6
01e3
ff86
007b
0132
00ba
ff36
03cc
ffd9
fcfb
02f1
fee2
fe60
fc7c
0205
0372
01c8
ffe7
01dc
001d
0012
ffd0
0206
fd26
0441
ffb3
ffc0
000a
fe1f
0035
00e9
00f3
feb0
ff81
fe82
ff3e
ffdb
0243
fcf6
0120
ff50
0112
feca
0164
fddf
fe8e
fbef
ff70
fd0d
fde4
0269
fef0
00e5
00ba
0291
02dd
031e
045d
035b
01de
0204
fdf1
0261
fe95
feaa
007e
fed5
00ab
fcd0
0004
fe70
fe7e
ff96
0124
02e6
fe0e
fd47
02e0
025b
ff15
ff96
ff20
034a
0404
fff4
026c
022f
fd79
01a5
004c
0241
020a
fd51
0198
00cf
fcb2
ffc7
014a
ffe0
ff11
fd83
fe9c
00e6
fdcb
fd22
02d2
fe64
ff91
0063
fdd4
fe94
0108
01e9
0026
05b5
0255
ff7b
fef9
fd15
014c
ff11
fd74
004a
fce8
00f1
ff82
fda0
0033
024f
0053
01ea
fe1f
fe5a
fe2b
0077
00c6
fed6
00a2
006e
0692
0083
015b
ff27
022f
00c5
0109
ff03
0062
fcff
0352
01fa
0239
0124
0110
fe34
025a
01e4
0176
0122
01ff
fdf0
0202
025e
01a3
00f8
fbc5
01ae
00fc
000a
0427
0208
002f
fa91
01e6
015b
021d
014b
fd6a
fbe8
0218
0183
fe6e
fc55
01cf
fe12
fd12
0288
0188
00e7
0143
0321
030a
021b
fede
01aa
ff52
fcac
ff81
026d
00e5
00eb
011b
0266
0077
01b4
003d
0199
ffc5
fae7
001d
0080
00f0
00e7
fde9
ff75
02c5
ff69
fe70
ff6f
01f6
0181
ff12
0032
fe6d
00b4
fe08
fe5a
fc8e
03f9
009b
fd6e
fc96
fd46
020a
01f3
fd6f
ff58
ff1b
fdd2
0151
01ed
017c
0049
01ee
031e
fdb8
01bc
02f3
ffc7
fd48
04d5
030f
0132
fde0
fc6a
0004
fec9
ffac
013d
fed7
ff79
fe5e
0142
faa1
0488
fce0
fcad
fe38
fea1
feb4
0207
02b6
fda3
fe92
fedb
fcb3
0020
fd5f
ff0f
fec3
fbe1
ff03
ff20
0322
fe1d
014d
fcb2
fd27
011b
0005
fe3f
016e
fef5
fd31
011e
0096
ff02
00c0
fce1
03f2
0084
fd2e
04cc
001c
fec7
ffa9
fff1
03a8
012b
0084
ffa3
feed
0179
fbcd
fd83
00ba
00c3
06d1
009a
01a2
ff06
0282
027d
014c
fe50
fe11
0364
ff43
fdb1
fd76
fecf
0079
015e
016d
fe0b
fd26
037c
fe0d
0074
011d
ff26
fde0
03de
005b
fe6c
fde8
0199
fda7
ff20
0231
02cf
ffb6
01d0
ff16
fd12
0150
0260
03c3
fcfe
fc1b
fd0b
0138
01cb
fe2b
fbdd
fd3d
012f
0091
ffaf
0061
ffb6
ff2c
0041
fdab
02d3
fec5
ffdf
0137
fcdf
fef2
0240
02c5
fd10
fe7b
00bb
fe28
fc85
00ec
00d7
017a
ffbf
019b
029c
02d6
02d4
fd6b
0299
ff76
ff9c
02a7
0319
001a
0293
014c
ff77
fed8
0322
fff2
ff82
ff1f
fe4b
ffb8
0025
0046
0146
000a
fe52
fe11
0022
00ce
0151
0088
fde2
01d9
00be
feba
ffd0
ffb7
01ea
fefe
0069
014e
01e1
ff56
ff23
fea5
fd8d
feb9
ff10
ff4b
0148
ff66
0062
fe66
ff90
0178
0010
fc30
0185
fe61
03bd
01a0
01f2
01c2
007b
0146
0184
fd95
0052
02c6
00a3
00c3
0037
009d
ffc7
ff6a
0264
0224
0174
03c6
016e
00a6
01b0
ff39
fdad
ffb3
ffa8
fc10
feaf
0186
0047
fe50
01f9
02be
0273
fdb7
0174
fe7b
fd9e
00b3
feac
fe9e
fe92
013f
fe99
fe3f
ff5c
fe81
fe11
fd8c
00a2
0258
02ce
005a
02ac
fd91
ff09
ffb3
fd18
fcf0
fe84
0274
ff96
ff7c
ffd3
0151
0214
026d
013e
00b1
032a
005b
04cb
fe6a
ff4a
ff20
0301
01dd
01fb
0190
0042
fe5a
01f1
013c
00eb
014b
037f
00ba
0037
feda
fd5d
0325
fdcc
0493
fef2
0133
fdb5
fd25
013d
ff25
0253
013d
00f4
0012
fd14
0310
022b
ffb6
0015
fee8
ff04
fddd
feb3
fe2a
0036
041a
01da
fef5
0310
02ea
0234
fdc0
ff06
ff6f
00ea
fc85
fab9
fdb8
fd7d
00b4
0054
02e5
0051
ff79
ffd5
00bd
fef1
ffef
00a6
fea7
ff9a
fe1a
0182
028f
028e
fd3b
021f
0330
01fd
ffc5
fd2b
fce6
febd
00d5
0253
00ce
0024
00be
fccc
fe1b
feaf
fde3
ff92
0010
ff45
003b
fb96
ffde
0109
fdb9
0382
fe72
fe12
014c
0246
f923
01dc
fe87
fde9
fe5e
ff86
022e
02ac
0102
fd45
011b
fdfc
017a
fe0e
fe61
ff9d
00c2
01a6
03c2
feab
fd1e
01b6
02cb
027d
0136
02c4
0101
0142
fe14
ff49
01f8
feb7
fe6d
0000
00d9
fe49
035a
fe36
0288
fe3e
01d0
0247
026c
fd8c
020d
fd74
00eb
011f
fd6d
0202
00b9
0170
0116
fdef
0079
fda1
ff0e
ff65
ffa3
015c
00dc
fe8c
0570
00c4
024e
fd37
0074
ffff
fd8c
004f
ff85
fdb6
fef6
fd51
fff4
01ed
0139
01ed
fd9b
fc1e
fef7
fffa
fcc5
0111
005d
007c
ffc9
0052
025e
01d2
02f9
ffa8
fefc
fe8d
ff2d
fd71
00ef
02fb
ffc4
ff80
0357
02a1
fef2
fc7a
ffb8
fbb2
024d
0260
0298
006d
fce9
028a
fce5
0097
00be
00b6
fed6
ffb2
fdb3
fd8f
00fd
019e
00a5
fddb
01b8
ffcd
02f1
ff91
00ac
0194
0465
00b8
ffae
01a9
fe92
0003
00ce
01da
ffb0
fd76
feef
fe20
fceb
007e
0297
fea5
024f
fe84
fbcb
fda2
0127
ffce
038d
fe71
ffc8
00e2
fe25
fe92
0157
0259
ff67
ff75
0083
01d1
fb68
01e7
ff18
ff0a
0073
00ed
024f
02d7
fff7
ff99
fe8d
fde8
01a8
fdc1
feb0
fe64
0095
00ec
0172
fd45
017c
fd87
04ed
fe38
0299
fe6d
0334
ff64
fe89
fea1
0231
fcd1
ff3e
fefc
ff08
0000
00ba
024a
02f2
fe2d
011f
ff13
fe70
fe7e
fe9c
ff98
fd2f
ff21
0237
0068
fcf8
023d
0277
0173
febe
fe7b
ffd9
00b0
015e
faaf
fed3
00f4
fd85
0124
0080
026e
fe95
fe47
012c
ff21
fee0
015a
fea3
fec4
004d
fefd
fccf
00f7
fcb0
ffe4
0375
fdc7
fe22
0133
ffa9
0313
0088
fe02
fd9e
0154
0050
fdfd
034a
ffcc
ff01
fec7
fed3
01a8
02b5
ff35
00e5
007e
00e4
fd2e
03a7
ff73
fde4
fdc2
fcb5
011b
019b
fd9f
0013
03a2
fe5a
0047
fdab
ff44
0254
05e4
00ca
fe45
fe9f
fd3d
fe99
fd98
fd6c
012d
fdc0
feb3
0050
fd09
ff8e
fe89
000e
fe2f
fed4
01ee
fee5
009d
0291
0319
fc90
fedf
fe23
fbca
018e
ff02
fd74
0349
ffc8
fbb4
ffee
fed9
fea4
fe6f
0127
fe82
0180
fe31
003b
fd31
035e
0090
01a9
fb7b
fe5f
0243
04ea
ffc9
0279
0178
02b8
feee
0011
fee8
01a9
ff61
ffb9
fef5
ff75
ff01
fee9
018a
ff1c
0103
010b
fc86
02a1
ffbf
0083
0109
ffaf
03a4
0109
ffdb
fcd5
fd41
ff2e
fde7
fdcb
0270
03f6
00c1
ff73
ff41
fef9
00d0
fdc1
fd9a
00ba
0001
022c
fdb9
0328
ff86
009c
faf3
fe46
0168
ffde
fb53
febf
01d0
01e5
0429
fee8
0104
fd25
ff51
fe76
01cc
fe6f
ffb7
00e0
ffb9
fc67
fd9f
fea6
fc20
01cb
ffee
ff87
010c
01ab
0078
0078
fde0
ffd6
01bf
fe4d
ffe8
fef9
fdb1
0224
ffe9
fe19
0249
0295
00e3
fdef
fec2
01ea
03a6
ffdb
001f
fee4
ff6d
fc9c
fde1
0249
024f
0224
014a
fe49
0286
fd96
026a
ff89
0066
02e5
fe89
ffca
fc3b
01ea
028f
005e
ff4f
ff5d
ff57
ff63
0098
fe6d
fd49
ff33
023f
00ac
043b
032c
fc1f
006a
fc24
01bb
00db
fec4
ff41
ffb4
ff5b
fe91
00bb
ff75
01d9
03dd
0017
01e1
000c
fce5
fdf4
0028
0055
fc98
fd1e
fffd
01d5
018d
04d5
fd95
01d9
0074
ffcf
00b6
ff29
00cd
03c6
ff80
fdba
fffe
ff5f
023a
02bc
ff75
0366
ff91
0197
03af
ffb1
031b
fc54
00af
017d
0007
003a
ff26
fbe2
00ba
0173
0043
0092
ff77
02e3
ffcf
fdb3
0243
0110
fe63
016f
fe81
fdf4
fc53
fd37
0164
0095
fd54
fd50
016d
0189
0131
ffe7
0294
00f7
0295
00ea
ffb5
ff4f
fff6
0080
fd35
fe07
febe
018a
fe14
0120
fe12
ffc8
000d
0040
fee3
ff03
003a
fb8a
fefa
ffb7
fcb8
fdf0
ff84
ff86
0102
fead
fccd
fe16
00da
fe71
0143
ff8a
033f
0109
0296
ffa8
fa6a
00dd
02dc
0056
003a
fd1d
02b0
fef2
026d
0153
0349
0191
ffa9
fd3e
ffd0
fedb
fcab
fe86
ffa1
fdbd
0320
02c0
0042
00f9
fe3f
fd50
008a
01f4
ff15
ff59
00a4
01e9
0250
030d
fcf2
fd88
01cf
027f
fc1e
0110
fe54
fe73
fe51
ff5b
0272
fcee
fcf8
ffda
01cc
02c5
0052
fc93
048e
fed0
03ab
ffb1
03b2
00cc
030e
024b
ff34
fe60
01cf
fe77
ff3d
0375
003b
fee8
00bd
ff7a
ff69
00b0
fe90
018b
01db
ff9f
fe2e
0256
0041
014a
0098
0140
01ef
fed0
00ef
0000
00b5
0193
fcca
00ce
fc34
fecd
029f
fec9
fece
0013
ff33
0149
fe3c
032d
0185
032c
fd91
fce9
fe8d
0039
00f0
feb1
fdcc
00cc
0029
02c5
fd3d
03d0
fdde
016c
03ac
ff2a
0039
fff2
001e
fca0
00eb
fe85
03e7
020b
fe70
ff79
006b
feb8
fee0
0122
ff09
000f
0264
02af
01e7
ff39
fff4
fc4b
fe87
0100
fc75
0055
feb7
02d2
fe10
ffac
02a1
fd65
037f
ffd3
fd9e
fd6f
001a
0039
ffbf
ffe3
fcb1
fe44
fe82
01e2
ff54
ff1b
fd11
fe9b
02d7
fe97
001c
015e
fec2
0223
0111
0262
02d7
fe99
01e6
00e1
0270
037d
0209
fe7d
fd98
fbfb
010f
fc51
009c
ffdc
0127
fe26
fd47
fdca
000f
00f3
032f
feb4
fca7
00b4
fe8d
01f8
fe49
01bd
0257
fe40
024f
0263
00a5
fe06
00b5
0144
fdc5
fde4
fe80
0386
024f
ff0b
fc01
00da
0195
ffc4
002a
008f
0096
01cf
fdca
fee9
00ed
fe05
0195
ffb2
ffb7
fcf6
00dc
fffe
ff3d
02d7
0169
fdcb
01f5
fe95
01f1
0248
ff1d
01a7
feee
ff70
fdde
0199
fc6f
0031
fdc4
005a
fcd7
02f4
fd92
fcd6
0030
00ac
fe9e
0237
00fc
0191
fe44
fe93
0200
00d7
fff1
ffd1
fed5
ff5a
fd91
fe1b
fdf5
fe52
fdec
fe1f
ff40
0201
0173
fe60
0325
021c
fe57
ff7d
ff92
fdc3
fdad
fd0a
fd43
0239
01b1
03b2
01bb
ffe1
ffb3
fec7
012b
fd3a
032c
01ac
ff99
01ed
012c
ffc1
0169
0052
00a6
fd0b
ff5c
01ba
fe9f
ff6f
fbe4
fe9a
0135
02d3
0340
004e
014c
ffaa
025f
ff2d
0062
ffe4
01b8
0202
fed8
fb26
00a8
ff45
02ee
ffe4
000e
014b
fdd5
fda6
fd9c
fd57
fe13
00a1
ff6b
fea7
fff0
038d
0275
009b
ffe2
fe65
0132
ffe3
011e
04ae
0221
02ef
019c
ffb0
0067
ffe1
fe00
fefe
0315
feb7
0018
fdc0
ffe0
00c6
fead
ff0f
026d
fcd4
013d
ff8d
fd51
ff8d
ff4f
0131
0040
fec4
fdca
fddf
fcbd
0009
0070
021b
0405
ff8d
fe17
ff7a
ff11
fd33
fe68
ffca
fcab
ff07
fe21
ff90
ff71
ffc9
02f6
fff7
001a
008f
fcc9
026e
0011
fef3
0368
fe24
022d
fe04
00a7
0296
0081
034d
fca8
fe8e
021b
03b2
fdc6
fac9
fe6f
020d
00d1
016e
fdf4
fe69
00ac
026b
fbc6
02e4
ff38
fef5
fd11
0074
0395
ff55
fdda
fdc6
03c7
0201
0008
ff88
fec9
ffd8
00b6
ff80
007f
ff59
03e3
0231
022f
0052
0426
013d
00ee
fefe
0017
ffa6
fe60
009b
fce3
008b
ffec
fec0
ffe7
fe04
fc9c
008a
0176
fe6d
ff9e
00ee
0316
00d8
0378
fee9
fdae
0059
ffcf
fed3
01b8
fde8
fd4d
00c4
014d
fce5
fd80
fc82
fdc6
ff13
0031
ff6a
fe21
0153
047f
02b5
00f9
fe39
feaf
fe1d
fd32
fcbc
feb0
fe18
008c
fd8a
014f
0238
035c
ff54
fda7
02a4
fe18
00fc
ffe3
003e
ff9a
fe0b
fe65
fc45
fef3
fd03
02bc
00df
ff06
01c6
fe86
0157
fdc8
fee7
0458
030c
fd5b
fffa
0094
feaa
fe4b
02c3
fbc4
020b
ff42
fdb8
024d
021b
fff6
0420
fd62
ff06
0038
0117
fedd
fe9c
ff73
fd64
fd97
00dd
0044
0128
fe6c
fd54
00f1
0124
016b
0257
014b
02e8
ff8b
fe4e
0184
024e
03ca
fe0c
0302
0049
0065
ffad
ffff
fe5c
fdbf
01ae
01f9
ffe7
fe72
002d
ffd4
fe17
fef2
fe11
03ea
00cf
002e
004d
fef1
00db
fc5e
008f
ff33
0288
fcc3
fe92
fd1b
fff9
0211
026c
02eb
0101
fd6a
007d
fff0
fe90
fd8d
00fc
017d
fcff
019a
fc1b
0061
0191
ffcd
007b
ff22
fe25
fe18
0241
0104
013c
ffab
fcd8
0208
fe34
02e9
0000
ff66
fd83
02be
fff1
fd82
0298
0216
000c
0163
fe00
0227
02d1
006a
03a1
ff86
0150
ff01
fd59
0014
ff00
0125
01b2
02ff
0004
ffd0
0165
0254
02f2
ff1e
009f
0028
ff38
feba
0207
fff8
0354
00c5
010b
0434
fd44
fe80
ff71
fe91
035d
029b
0192
fd14
fe80
ffd4
fd13
fd88
febb
012b
ff50
016e
0039
febe
fea4
fff7
fddf
ff09
fd5c
0020
fdcb
fdd0
ff75
02ef
fdb5
fb2c
ff84
02a1
fd3a
01c4
fd9e
00d8
fcd3
ff24
fe11
004d
0299
fe79
015c
0064
0086
ffaf
0195
ffbe
fc96
ff59
ff41
0317
029c
02ce
0396
fffc
fc43
0370
0193
0256
fe5c
fe7b
ff7a
ffc9
0437
008a
02b0
014f
fe3e
fe83
0131
fe5b
028f
fff2
fda6
fd42
fca4
fee2
010c
fe83
012d
00b8
0196
ff3d
fe53
0119
ff6e
01f2
fce8
007d
0136
0001
0145
feac
0174
0159
003f
005a
fe6a
ff33
02f8
0220
ff3f
fd13
01a6
ffb7
fd00
00c2
0181
0097
fe77
01f4
0290
00b0
0068
0190
035e
fdb7
fe52
fa5a
ff52
0271
fcaa
02ab
0077
0160
031c
ffc3
fdb6
01f5
fe2e
0352
0290
0336
feb9
01ec
0304
003c
0151
025d
03c9
01b7
0208
fc4e
013f
0041
00dd
ffb2
0276
000d
ff2b
029a
0057
04eb
00ff
010a
0164
01d4
00b6
002f
fe9e
0099
0371
fd71
fca1
025f
fffb
fe1b
0205
0158
fc8b
ff8d
fdbd
fbe8
03c0
ff37
029d
012d
0031
0325
01af
fca1
036b
febc
fe71
ff15
ff4a
fcc9
fc80
fe19
015c
04f3
0103
01f7
0427
ff3b
ff2e
02b7
0000
fe13
02dc
0020
0058
fbdf
fe22
fd7d
0048
fb23
fef9
0241
fe47
02ad
ffce
038d
004d
ff0b
0131
ffa9
01d4
0279
0083
fee5
fce0
fd64
ff90
01ab
ff07
ff55
fbfb
fe6c
02b1
ff6a
fc30
ffc1
0114
0080
ff61
fe44
032e
ff7a
ffba
fd34
021d
fd0a
fdea
0462
0090
fd5f
fbcc
fd80
ff78
0113
00cf
005f
042c
fe55
0067
02bb
ff49
0263
0131
fc3b
ff27
0417
ff24
ffcc
fe86
fe05
03d7
0190
030c
011c
0175
0023
0341
ffa5
017f
038d
fda4
0203
fc2b
019e
fc55
fcb2
00c9
fd44
fdf3
00f5
ffa1
0286
016b
fd01
fedf
fc21
024d
f9ed
ffcd
00ec
fde2
0188
fbc0
0084
01fb
0055
fff8
fd52
fef9
02ba
0189
025d
fd9d
011f
0135
fd11
00e4
ff51
fd9c
feb1
011d
ff13
febb
fb99
0197
fbcd
008b
038b
fd87
fe6f
027a
0270
009e
fe08
026a
fe52
008f
fcd8
fd69
ff54
fbb6
fe83
ffec
ff56
0061
fea5
fe72
ff8e
000e
00d7
01e1
0198
0215
ff7a
ff2b
fd3b
fe03
fd9d
ff83
fe57
039b
fefb
fc75
031f
0056
028d
fc73
fecf
ff2e
fdc6
fd1c
ff9b
0338
00ca
fedc
fef4
027d
0035
fc50
01e8
fcea
fff8
fed6
024f
fd5e
012b
fd0f
01f0
037a
fd17
fff4
fe28
ff4f
017e
fede
ff61
feaf
00b3
ff1b
fd2c
001a
01c0
006a
0188
fdfc
0292
fde7
fff7
fdb4
02c1
0135
01a9
015a
024a
fff7
fdb0
ff7e
fed2
02df
006d
fc6e
ffa8
0021
fdba
013b
ffff
fe6a
ff8d
0412
0123
028c
017a
013b
fdcc
faf6
ff1c
009c
01c6
00a7
fdd8
fef7
fec5
ff0a
00e8
ffa5
fe6e
fdf1
00f3
fd59
fcc1
03a7
ffec
fe97
02fd
fe51
fdbf
ff4a
fff6
02f8
019a
fca4
fccf
fc4f
00d7
00cd
00fc
ffa0
fe81
03ab
02ea
fddb
feb9
0093
00d8
ff2f
fe6e
011c
fd1d
ff79
01fc
fe02
ffde
ffe0
03d3
0255
00d5
03c9
0368
fdca
02d0
fef4
feae
00c9
0230
027f
fddc
0105
fea9
fdd8
fda9
02c3
0032
00fa
0299
0166
015e
fff3
fe63
0095
0261
02ed
0068
03b4
fe6f
01d2
fffb
0215
00b4
fd28
0045
0286
fd97
fea7
fb7f
0230
019b
0143
0108
ff55
ff35
0203
00c8
01c0
fead
ff5b
fe98
fece
0083
00d3
00e1
fbc3
031d
fe62
026c
02ab
fe57
fedd
fd75
ff5f
007c
035f
0382
0333
01fe
ffff
0260
fc85
fe21
0364
fe14
fe31
005a
0168
01bc
0232
fff3
febc
fe38
008c
fc34
fe8d
01f5
0180
01f9
02ae
022f
01b0
fe75
0188
fe8b
01a6
fd36
0061
feaa
00cd
ff9d
013e
00c8
01de
00d1
00a1
0185
00be
0214
020c
ff93
014c
0216
0191
fd57
01e7
026f
032e
fffe
00e7
009c
0067
0522
ff83
012e
0094
0178
fe39
00e3
026e
0181
02cd
fb86
fe90
fc6f
fcac
ff89
02e4
fed2
fed3
fe51
0259
ffce
00be
ffae
fe01
fbf4
fffc
0038
0108
ffb0
fff7
032e
fd8a
00c4
03fc
feae
ff6f
006f
0119
ffa3
03b7
ff5f
0086
fd4c
03a0
02e3
0076
fe90
fe3a
02c6
fe06
fe4e
01d8
fdd7
0056
0060
000d
ff46
0249
048c
005a
0339
01cb
00b7
ff60
ffe6
0250
017f
015d
028b
fe6f
038e
fe85
fe9b
020b
fb00
0013
0091
0039
02d8
fec3
fe6f
ff95
0159
0027
0124
0060
ff44
0166
ff34
007d
fc58
0461
028d
fe3c
020e
fda3
fdc4
fea9
ff82
02bb
febb
008d
fe22
01c9
fd0e
02df
fd0b
fe0f
fcac
0086
01f0
fff2
0321
fe31
0069
0304
01a8
ff8a
018f
fe68
0250
fc98
00e9
0088
014a
017a
012a
005e
0247
fd95
ff6c
0137
fe98
00c1
ff4c
026e
02de
fd91
0124
00f1
fe33
fd9f
00d8
fe54
fd86
ffd5
fe49
0222
000c
feb9
fd99
007a
fe28
feb5
ffb9
ff0e
0049
ff4b
027c
0044
00e3
fe73
03aa
0088
feaf
01d1
00e3
feaa
0111
0209
0211
0250
004a
fcfd
015a
0167
ffc6
ffac
fd9b
ff35
ff31
fb81
0157
fde4
01b3
00c3
fce8
fd2d
fe02
ff00
fbd6
fdae
fcc2
fefa
02b0
016f
ffdd
fd0b
0035
fd38
fa2d
fe54
fb5a
fd72
fdf6
fd12
0084
ff34
04e8
fefd
ff5c
019f
0355
ffb5
02d4
0351
0225
0286
fdaa
02df
0085
0142
ff7f
fd93
ff5d
ff4c
ffd8
fc5e
ff90
0176
fde2
fec2
01f3
fde1
ff59
fd9f
011c
0035
037d
feb5
0351
fe75
01de
03ce
021b
ff34
022a
ffc4
ff33
ff8f
01bf
ff2c
fccb
00da
fe15
fff0
ff8e
fe8e
012f
fed7
00bb
0002
0191
02eb
fecc
ff43
fd47
ffd4
04b3
febd
fca9
00ae
ff14
0172
02f4
feca
ffa5
002d
0180
012e
039f
0094
01e4
ff3c
02f4
02a3
fda9
fc99
0011
ffd7
031b
02c9
0033
fe88
00de
fb45
fdf3
0317
029f
ff20
0205
fda9
fce8
ff62
000a
0152
022d
0161
01c4
fd7a
ff91
0218
ff9c
fcdd
010d
fdef
03ad
fdbf
0228
0343
fef4
ff0e
ffab
01fc
fd39
feca
fdbb
00c5
fd37
ff76
fded
ffdc
011a
fcfc
0076
02ee
ffa5
01a4
fe13
fd70
0121
00f1
02b6
0210
ff15
ffb1
0095
0369
fed3
fe5a
ff9c
ff70
fe09
fd8b
fe64
02fb
fddc
fe6b
0152
01aa
0139
fddd
02bd
02c1
00ac
0096
fd56
ff69
01e7
01ec
013d
0049
02fd
feec
fefc
0015
018d
ff23
012f
0214
0137
0230
01c4
fc21
fe0d
025f
0004
010c
ffb1
0152
fc1f
0189
00f5
0058
012e
0247
fe05
fd46
ff69
0356
ff23
0164
00ae
004d
0014
0094
0338
fcc2
0111
fed2
ffce
fd35
fdd4
021e
0037
0167
fd1c
fdbc
007a
02ab
02d6
003b
ff5c
fec5
fec6
ff62
0152
007f
fcc8
ff2e
0093
fd9e
03cf
ff00
017d
fd28
fec6
002d
fd5e
0236
018d
00bd
ff70
fef4
0182
036c
fbd4
0270
0167
013b
fc6c
0001
fd81
0302
027c
fd50
001e
01c7
ffa9
fea8
ff26
0012
033f
01c0
00eb
0100
ff69
016b
0103
0361
0300
ff7a
00ee
fe44
0066
004f
fb7c
02b0
0103
023a
00a0
fe31
fcb1
fe8c
010c
fd8a
fd34
0383
0205
ff2d
ff28
fd86
00b8
ff2f
025b
fe60
01f1
ff04
fcc3
fcc4
ff09
fef5
00f8
03cd
ff4f
010b
fd3e
fd19
fd1d
fd36
03dd
fe2f
0071
00de
fd6b
021f
ff9d
fe83
fedb
fc07
006d
0295
fb8a
02ef
ff65
015c
0264
fe52
ff76
fc4b
ffda
0224
02c8
016a
fea9
007e
fda2
01d8
ff18
fb25
fdd5
fc94
fe92
fe5d
001c
ff74
003a
fd80
0089
fe9e
01bc
02d1
fc69
0108
fe17
ffcf
02f7
fe88
ffc5
fe46
0162
fe6a
015f
006b
fe40
ffce
00d3
0336
033e
0371
002c
fa30
03d9
019f
01ff
0032
00e9
0020
fd5e
fdcc
0154
005e
fe08
00aa
00ae
fd37
0021
02b1
001f
fd6a
0110
020a
00aa
0000
0367
0074
ff26
00c0
0051
fe63
019a
000b
005a
02e6
ff9a
ff90
0051
fe95
00f6
fe86
01e9
0113
01f9
00d5
fd8b
0258
0217
ffcc
02ef
fe6a
ff0f
fe10
015e
02c3
fd9d
fe7c
fe87
ff35
fe58
0318
fd01
01ea
fd19
fdfe
016d
0269
01b9
01a9
0010
0235
fc5e
ff4c
ff80
fe80
00b7
fdc0
fed0
007e
fe31
02ba
013f
ff8a
00a5
ffd4
ff2e
feeb
ff7e
003f
ffb7
fda5
01ef
01d8
fa90
fd34
fe7a
0133
fcd0
01b8
fc4b
ffbb
fc9b
0031
012c
02c2
ff37
fd88
00fd
0087
0024
01f8
ffcc
ff2e
fd77
fe78
03cd
fe3d
01b7
feca
ff28
00b6
0051
fed3
fc02
fcb6
02f5
0046
00d1
011c
fcee
01ed
ff42
ff3e
0059
fd40
037c
0013
01d0
fdc9
01e7
02c4
fccc
0094
0032
fdb9
00ac
0033
fda1
0202
fe43
ffaf
ff07
fcd2
feae
01df
fbe2
01e1
fdd2
0086
fc6d
0223
000b
fe30
0168
fdb3
fe3a
00fa
0255
ff01
ff99
0244
ff68
ffdc
01b9
023b
fcb6
0041
0220
0080
ff57
ffb2
fd10
01b6
0152
0180
0302
00e3
fc4a
0151
fcb3
fc8a
ffd4
0287
012b
0212
02f7
fc95
0326
00ae
02bd
022a
fd0b
ffde
01a3
0431
003a
fdfd
0394
04a3
ffc6
fe5a
0159
028f
003c
0214
0261
fd69
ff2d
fdeb
fda0
02c1
00f9
03b7
0196
004b
fcd0
ff15
00e7
fd35
0079
0279
ff35
01d0
02b6
0288
01e3
ffba
fcdf
024b
fd43
fe53
ff49
013d
037f
ff72
fc66
fd5c
ff75
0122
00cf
fd8d
fe7f
fcfb
00da
fe82
01ef
0052
01f8
01f0
feb9
fea0
0308
fe34
0343
ff4c
fe07
04b4
fffd
ff05
ff97
ff11
02cb
fe43
00f1
0089
fda4
ffb3
ffe4
fdc0
fd8e
fc30
ff2b
0129
fbb4
0153
0110
014b
fccc
0061
0134
fe20
0012
011b
0098
00ca
fcbf
ff21
f9f1
fd9c
011f
fead
fc5f
0232
002a
0034
006c
ffa6
fe1d
01ee
ffda
0036
01e5
feee
004c
ff42
0070
0186
fe41
0256
01c8
0186
01de
011d
fd32
fe3c
029d
011e
0481
041a
00c3
001b
ffdd
fefc
ffa6
fc73
0192
fe99
0257
fc9a
ff53
0054
02db
ffde
fd76
0012
02d8
00f7
0092
ff75
ff30
fdb0
fe7b
029e
0208
fc93
fd59
012e
0174
ffe6
00a7
0084
01b9
ff8b
fe29
ff0b
027b
008f
fecb
fe51
0380
fe1c
0056
ffaa
fffc
021d
fda4
fefe
fcee
ffef
fc48
01bb
fed4
02e1
0051
0427
033b
fde3
02be
fca1
02ac
ff07
fd5c
ffd9
ff64
ffab
fe6a
fd35
ffab
002c
0222
fff8
fe25
0251
018a
ff5d
ffc0
00f1
0037
0242
0158
018c
ff6c
00d5
fd91
01a6
02a1
ffed
0023
01e9
fa2b
000b
fcde
feb1
fffa
0106
003c
0305
00e6
fecf
ffdc
01db
ff0b
0398
0189
fff6
0002
fe83
01dc
01f8
ff76
0216
009b
fe11
fe0a
022c
02c7
015d
fdb2
ff6d
fe6a
ff1a
017c
00c7
ff83
0021
fe1f
fcda
ff55
02aa
013a
ffbe
fdc0
02a9
fed9
ffad
0141
fd0a
fe32
fee5
ff7e
fddf
ff99
01a1
fe68
fe17
fe41
01a2
ffcb
fed3
0244
04df
ff85
0179
fc7a
fb80
013f
ffa0
fd02
01d4
0173
0006
01d5
ff86
ff19
fe8e
ffbc
0097
ff58
fcce
0029
000d
fba4
0008
fe66
0348
fe7c
ffb2
fcd5
fe81
02b3
04dc
fdac
003f
0286
026f
0099
fea9
fbc0
ff2b
028d
0249
fc12
0019
00a5
00a7
0020
009f
01a3
fe21
ff00
0077
ffcd
0000
0066
00d7
ffdf
0029
0035
fc6b
0020
042f
fcea
fdda
015e
0104
00b9
03ae
fd42
030f
020e
fcbc
fdc7
00d7
fd8e
ffff
fd6a
0065
0030
01c7
fe8a
0185
0153
003d
ff4a
0221
ff19
fd20
fd8a
0145
fe7f
005a
00fc
ff14
020b
ff75
0419
fc39
fc7b
fe9d
0199
0103
01c3
028e
ff2e
ff78
fd73
fee4
00bb
0436
02e0
0376
ffed
ff49
01ca
ffbc
ff1e
fd0f
017c
fef6
feaa
ff2c
0355
0102
fd20
ff79
ff82
006e
0089
02f1
01f2
0027
00d7
ff22
0347
fd33
fe3b
ffdf
fdc5
00ce
02e4
0045
ff2c
fe66
fed3
0295
fdd2
fd1b
ff57
feb4
0300
fe60
031d
0012
012d
fcf5
02ae
ff5b
0263
fe24
fbab
ff55
0023
fc4d
004d
fd55
016a
000e
0058
fefd
0394
01c0
fe3f
00f1
fe39
02d0
fdc0
04b7
024d
00bb
02ed
fe13
0263
0275
019b
ff86
020a
0203
007b
031e
fd8c
ffa2
fe06
00a6
fdb4
ff93
fec1
ff52
0229
fe40
fe5c
0338
ff67
fede
ff56
01b1
024d
fe21
fe11
fe16
03b0
0014
00ea
ff5f
026e
ffbd
0486
feee
0101
003a
0144
fd15
009e
fdf4
00c5
011a
fec8
fe41
ffbe
ff08
fefd
0121
ff97
ffd6
0187
0080
004d
019b
01d8
00cf
fcba
fdce
0086
01b4
00ff
01ba
01e8
045b
fce6
fe7f
fea7
010c
020c
fe8d
ff45
0025
fe03
fd72
032d
012a
00b1
fefc
0036
02ec
0170
fc19
fff7
ffba
ff5d
0064
fe7c
fe39
ff3e
fca1
fdce
fde7
ff0d
0126
fee2
ff4e
fc9f
fdad
feda
fe46
fff4
0006
ff8e
fdcc
fdfc
ff39
0050
fcce
fd74
0126
0263
024e
ff5a
001d
0179
007b
00af
fc8e
01b1
fe8e
ff72
03a3
fec4
fc68
fee8
0248
0073
019b
0159
0197
fef3
ff13
ffe5
007e
02f5
fe53
ff7a
0112
00cc
fcf3
fef0
014e
fe17
ff4c
ffff
0029
004c
003d
ff6c
0384
fff9
0004
003a
020c
015e
02ba
0210
02eb
ff45
fc8e
fe62
0085
fe45
02b6
fd0a
00e0
01cc
0243
fd12
0175
ffc8
0034
0182
010f
fe5b
00c0
fe8d
fff4
00ed
00f7
fcd4
033a
01e7
ff11
feab
01f7
0087
00f5
ffaa
fc85
0210
01f9
01e4
fdbc
024b
002d
fcd1
fd6c
ff1c
04d0
004d
0508
ff84
fdfd
fd9b
00ae
0196
0158
fd62
0198
01ab
006c
035c
00c1
fe95
fee0
045c
fc6f
ff5a
fdd8
feab
0247
febd
01a4
fd8d
0296
fc15
fe2c
ffce
ff4e
0177
0186
0188
0205
fcb4
fed9
0095
ff55
fe99
ff00
ffa1
003e
fff5
0006
fe9e
ffd6
fdab
0171
003f
ff2d
0090
02c0
ffa8
02a5
0374
0134
0089
0079
01c8
fc4a
ffa3
005c
02c0
fd8e
fe32
0197
00df
fae6
fe2e
006b
fff5
0006
ffc2
005f
029d
ffdf
fcbc
fd7b
003c
0221
009b
0097
005a
ffdb
0034
ff61
fe8c
02ae
0223
ff31
ffc2
00c5
ff1d
fdb3
00d6
046a
ff88
008e
feac
019f
0283
fbe1
fe24
022b
fd94
0009
ff6e
038b
0064
027d
fdd0
fd76
0057
008c
ff2d
fead
fde0
0297
fe09
002a
fecb
01ee
fee0
fc29
01e0
fda9
0060
fff8
011c
00f9
00f8
00a0
fe42
0223
00ba
01b0
fe89
0152
ff03
fe73
00cb
0038
fe19
ff76
ffa8
ff3a
fdc1
fd96
fcd3
fed7
fbce
fe75
fc5c
01f6
0177
fe8a
000f
02ef
0134
fe5b
01ff
fd97
fde6
fe86
0103
0346
00c8
ff9c
0229
00cc
fea1
0032
fe68
01a3
0294
005b
00cb
fd72
013c
fa4e
fefb
02a3
01e5
fd50
0106
ff79
fea2
ff41
ffb9
fea2
0061
01f6
fd25
00a2
02be
00c9
fca2
0134
0130
02b9
fde7
fde1
fd3c
005f
0109
fd3f
ff35
0120
022b
fea4
0210
012b
fdfd
ff36
02ba
0256
03b3
0002
fc88
fe99
0008
006e
01b2
0045
022a
fd63
0151
feb4
fc9b
fd25
00d2
0240
017b
0055
0050
0081
0214
fcbb
fe98
ff27
fcdc
016f
021b
0397
01e1
0203
02c6
0066
01d3
fe88
fd3b
fee6
01d4
fd54
0367
fcc8
fcec
0460
fed8
00d1
ff2f
fdee
ffed
0018
fdb0
fe40
00b3
004c
00e6
0144
ff29
019e
fd70
ff33
ffa0
fec4
ffd4
fe98
0059
0246
fe54
fff8
fc7e
fefd
019b
001a
0009
fdbc
fe8b
00e6
ff46
015b
00ad
0052
fe73
ff97
ffaa
ff51
fe9e
01a9
00ce
fe82
ffda
fe60
fdf4
0085
0076
0225
ff16
fdd0
010f
05ee
fdb6
fe29
fcd2
00a5
0134
0359
0073
fd05
029a
0018
fdda
fe94
00b0
fe99
fe6f
ff4a
ff05
0073
01dc
0156
fe52
0028
fcff
0275
ff3b
00d5
fd95
012a
fd14
017a
fe39
fe9e
0055
ff83
fdf9
0117
feb9
0459
02b9
ff36
00d5
ffc6
fc8f
0014
ffdd
0078
ff3e
fdfd
00fb
0215
00bd
fc6a
013f
0163
ff30
fe6b
fd1c
0036
0312
00b6
0038
01c3
0285
024f
feaa
fe9b
fea4
ff24
0046
044a
ff5b
ff28
0062
00e5
021c
0064
007f
027c
fe79
0010
0010
03b9
ff3c
ffe3
ff11
ff0b
0070
fbb3
feef
fdeb
02b9
00c5
02c4
ff78
fc84
fdbc
fc81
00d1
010e
0276
020b
fda1
0014
03de
fd1a
0085
fd38
fdce
fe6f
006d
00f7
002d
fd4c
ffa6
fe56
0341
feff
02c1
fc50
00d5
0180
fb86
ffb0
01ce
ff26
fec9
fd4c
ffc5
03bb
ff00
fd98
fe39
0269
015c
0301
0190
fdb0
0283
fd11
ffa9
fb8a
fed1
ffd3
0060
ff9c
011b
fed9
ff25
fe03
007d
014c
0271
fecf
ffa8
0056
008c
00cb
ff96
fc4b
027c
ff66
033e
0075
ffa7
fcdd
0101
fe45
ff52
fe8e
fe7f
002a
0192
fa60
fce9
010e
007a
ff21
fcc1
01cb
01f9
00e1
ffa0
ff6c
fe55
0014
022d
0099
fd91
fcd3
fe06
01ff
0268
fb46
032d
ff27
00dc
fd21
0128
0410
fe08
ff45
fefe
000f
00ce
fc57
ff73
ff2e
0246
ff6f
ff8f
ff56
0069
fe88
fec3
ffe6
ff6c
fcc8
fd05
fd6b
fe41
018f
ff7d
012f
ff76
000a
ffce
000f
fe1d
fd8c
02ae
0000
0424
0003
fdc6
fc90
0084
fefa
0111
fe40
fbc3
002b
0107
fc7d
01ca
fe2f
fdf4
0077
ff0f
fe5e
0023
fd03
0124
fd26
ff20
ffdf
fd66
0244
fe2c
0196
ff12
0032
ff85
ff84
fe71
021b
0374
00fe
028b
022a
fef7
01e9
0203
fff3
00e5
0065
fe83
fee4
fee2
009f
00b2
ffff
0068
ff6f
fccf
0127
01f5
fe01
fd9e
ffad
ff92
0002
fdfa
012d
008b
0121
01a2
00be
0175
fce4
fed8
fb5a
00d2
ff66
0181
01e0
01f7
fcd6
0195
0300
00be
0181
01fb
012e
0158
ff3f
ff0c
0275
ff9b
02fe
01e6
008e
0133
fe33
02b3
00fd
0223
0002
fe90
fedd
